<unk>	0
<s>	0
</s>	0
ን	-3.80894
ና	-4.05064
ም	-4.09962
▁	-4.40458
▁ነው	-4.67481
▁ላይ	-4.80446
▁የ	-4.98896
▁በ	-5.00457
ው	-5.17343
ት	-5.37648
▁ከ	-5.38269
▁ጊዜ	-5.45979
▁ነበር	-5.49353
▁ወደ	-5.49981
▁ውስጥ	-5.58127
▁ለ	-5.63125
▁ጋር	-5.6882
▁ሰዎች	-5.84344
በት	-5.85465
▁እና	-5.8567
▁እንደ	-5.87838
▁ወይም	-5.89487
▁ሁሉ	-5.9123
▁ነገር	-5.92028
▁አንድ	-5.93786
▁ሰው	-5.97346
ህ	-6.01237
▁ይህ	-6.08816
▁ቅዱስ	-6.10805
▁ስለ	-6.11181
▁እንዲህ	-6.11206
▁ግን	-6.13744
▁ምን	-6.15326
ስ	-6.16001
▁የሚ	-6.27187
▁አምላክ	-6.29415
▁፩	-6.33454
▁በዚህ	-6.33888
▁በኋላ	-6.34187
▁ይሆዋ	-6.3575
▁ደግሞ	-6.39796
▁ይ	-6.42597
▁አ	-6.42635
▁ቤት	-6.43573
▁ስራ	-6.48056
▁፪	-6.50643
▁ኢየሱስ	-6.53079
▁እንዲሁም	-6.55392
▁መፅሀፍ	-6.55861
▁ቀን	-6.57699
▁ሲ	-6.59999
▁መ	-6.61138
▁ተ	-6.61772
▁እንዴት	-6.6523
▁ይህን	-6.65894
▁ሲሆን	-6.67826
▁—	-6.69094
▁እንዲ	-6.6968
ች	-6.70179
▁መንገድ	-6.71201
▁ያ	-6.71586
ውን	-6.73801
▁ቃል	-6.74334
▁ብቻ	-6.75277
▁ናቸው	-6.76316
▁፫	-6.77578
▁ይችላል	-6.7783
▁ሊ	-6.77857
ል	-6.78093
▁ልጅ	-6.79798
▁መካከል	-6.80556
▁ያለው	-6.81979
▁እንደሆነ	-6.82953
ዎች	-6.83402
ነት	-6.8364
▁ብዙ	-6.84005
ር	-6.84407
▁ሁኔታ	-6.84996
▁እስከ	-6.85473
▁እንጂ	-6.87851
▁አመት	-6.906
▁ሆነ	-6.921
▁ልጆች	-6.92274
▁በላይ	-6.92444
▁በጣም	-6.94389
▁ሆኖ	-6.95495
ኝ	-6.95559
.	-6.96674
ሽ	-6.96912
▁ምሳሌ	-6.97224
ባቸው	-6.97922
▁፬	-6.98132
▁በማለት	-6.98204
▁ዘመን	-6.98431
▁መሰረት	-6.99808
▁ይሆናል	-7.00635
▁ከዚህ	-7.00646
▁ያለ	-7.00843
▁ድረስ	-7.01076
▁እ	-7.02481
▁ነገሮች	-7.04281
ድ	-7.04589
▁ያህል	-7.05565
ክ	-7.05615
▁ማለት	-7.05676
▁መንግስት	-7.05928
▁የተ	-7.0594
▁ዘንድ	-7.06215
▁አይነት	-7.07007
ማ	-7.07044
▁አይ	-7.07992
▁ምክንያት	-7.08081
▁፭	-7.09846
በ	-7.1014
▁ትምህርት	-7.10257
▁ይሁን	-7.10821
ዋ	-7.12355
▁የይሆዋ	-7.13148
▁እነዚህ	-7.13378
▁ቦታ	-7.13482
▁ሌሎች	-7.15691
▁አለ	-7.15818
▁ህግ	-7.1586
▁አለም	-7.16306
▁ማድረግ	-7.1758
▁ክርስቲያን	-7.18301
▁ብሎ	-7.19033
▁ከሆነ	-7.19036
▁እኔ	-7.19446
ታ	-7.20755
▁ወቅት	-7.21579
▁የሆነ	-7.22639
▁ከፍተኛ	-7.22658
▁ምንም	-7.23079
▁መሆኑን	-7.23393
▁ቤተ	-7.23438
▁፮	-7.23549
▁በሙሉ	-7.23658
።	-7.23789
▁በፊት	-7.24171
▁ሀ	-7.24577
▁ሲል	-7.24889
ተ	-7.25594
▁ህይወት	-7.278
▁ከዚያም	-7.28613
▁ቢ	-7.28628
▁ከተማ	-7.28778
▁ሌላ	-7.30863
ለ	-7.31948
ላቸው	-7.32183
▁በመ	-7.32989
▁አይደለም	-7.33113
▁አንዳንድ	-7.3326
▁እንደሚ	-7.33548
▁የሚገኝ	-7.36516
ለት	-7.37116
▁አንቀፅ	-7.37415
▁በሚ	-7.37489
▁ስም	-7.3822
▁የአምላክ	-7.38407
አ	-7.38576
▁አል	-7.38919
▁፲	-7.39208
▁ምድር	-7.39926
▁፲፭	-7.40073
ላ	-7.40593
▁ሆኖም	-7.40681
▁አም	-7.40833
▁ማ	-7.41071
▁አመታት	-7.41424
▁ት	-7.4145
▁እንኳ	-7.41598
ሳ	-7.42391
ዳ	-7.42795
▁አገልግሎት	-7.43106
▁፯	-7.43161
▁አሁን	-7.43326
▁መሆን	-7.44077
▁አለው	-7.44287
ይ	-7.45089
ብ	-7.45153
▁ይላል	-7.4525
የ	-7.45264
▁እየ	-7.45269
▁አዲስ	-7.45487
▁፲፪	-7.46082
▁የመፅሀፍ	-7.46408
▁ደረጃ	-7.46758
▁ሁለት	-7.4877
▁ምስክሮች	-7.48862
▁ክፍል	-7.49121
▁ጳውሎስ	-7.49504
▁ጥሩ	-7.49525
ንም	-7.4958
▁፰	-7.4965
▁ነው።	-7.4971
▁ሀሳብ	-7.50178
▁እግዚአብሄር	-7.50679
መ	-7.50981
▁ንጉስ	-7.51977
ያ	-7.53119
ህን	-7.53125
▁ፊት	-7.53266
▁እምነት	-7.53449
፣	-7.53618
ዝ	-7.53666
▁ህዝብ	-7.53734
▁ምክር	-7.53826
▁በመሆኑም	-7.54157
▁ስለዚህ	-7.54228
ግ	-7.54932
▁ያለውን	-7.55094
ቱ	-7.55095
ሰ	-7.55158
▁ተስፋ	-7.55196
▁ይልቅ	-7.55434
ከ	-7.5565
▁የሚያ	-7.55919
▁፱	-7.56212
ራ	-7.56758
▁ፍቅር	-7.57264
▁ጉዳይ	-7.57387
▁የሆነው	-7.57779
ሉ	-7.58017
▁ክርስቲያኖች	-7.58586
ሁ	-7.58954
ነ	-7.58979
▁ቁጥር	-7.59125
▁የሚል	-7.59232
▁ሳይሆን	-7.59415
▁፲፩	-7.59461
ረ	-7.60308
▁ሆይ	-7.61198
▁ያሉ	-7.61711
ኩ	-7.62286
▁ካ	-7.63616
ቅ	-7.64506
ጥ	-7.65032
▁መንፈስ	-7.66063
▁ስርአት	-7.661
▁የሆኑ	-7.66387
▁ከመ	-7.66932
▁አንዱ	-7.67601
▁በአንድ	-7.67939
ፍ	-7.68237
▁በተጨማሪም	-7.68427
▁ባ	-7.68629
ባ	-7.68712
▁አገር	-7.69028
ታል	-7.69499
▁መንፈሳዊ	-7.69745
▁ሙሉ	-7.70212
▁የሰው	-7.70241
▁በገፅ	-7.70334
▁፲፫	-7.70533
▁ችግር	-7.70649
ሌ	-7.70784
▁የኢትዮጵያ	-7.70909
▁•	-7.71412
▁ዛሬ	-7.71415
▁ብለው	-7.71917
ገ	-7.72054
▁፲፬	-7.72241
▁ጠቅላይ	-7.72513
▁በተ	-7.73127
▁ለምንድን	-7.73286
▁እጅግ	-7.73444
▁እን	-7.73637
▁ዋና	-7.74013
▁የመ	-7.74531
▁ልዩ	-7.74641
▁መጠን	-7.75545
▁ለማድረግ	-7.75601
ፈ	-7.75823
_	-7.75841
▁አንተ	-7.76074
▁ክርስቶስ	-7.76477
▁የተነሳ	-7.76498
▁ከተ	-7.76993
▁ቢሆን	-7.77084
▁ይበልጥ	-7.77283
▁ጥረት	-7.7744
▁ያላቸው	-7.77719
▁የነበረው	-7.77959
▁ሀይል	-7.78103
ሮ	-7.78274
▁ስር	-7.79076
▁አድርጎ	-7.79147
▁የማ	-7.79232
▁አበባ	-7.79305
▁ነበሩ	-7.79706
▁በኩል	-7.79812
▁አዋጅ	-7.79881
▁አት	-7.79943
▁ባለ	-7.80181
▁ሳይ	-7.80234
▁ቢሆንም	-7.80407
▁፲፮	-7.80535
ሩ	-7.80592
▁አስፈላጊ	-7.8175
▁ጥያቄ	-7.81846
▁ጉባኤ	-7.82497
ሪ	-7.82808
▁ለማግኘት	-7.82923
▁፳	-7.82988
▁እየተ	-7.83209
▁በማ	-7.83256
▁ጀምሮ	-7.83386
▁የስራ	-7.83482
▁ይህም	-7.83911
▁፲፯	-7.84265
ቸው	-7.84368
▁፲፰	-7.84534
ቀ	-7.84633
▁እሱ	-7.84736
ጣ	-7.85159
▁ስሜት	-7.85294
▁ሴት	-7.85517
ሊ	-7.85593
▁አካባቢ	-7.86018
▁ከሚ	-7.86081
▁መቶ	-7.86246
▁ታሪክ	-7.86675
▁የአማርኛ	-7.87009
▁የማይ	-7.87021
▁በርካታ	-7.87273
▁አካል	-7.87615
▁መልካም	-7.88373
▁የለም	-7.88451
▁ከፍ	-7.88564
ቶ	-7.8859
▁ሊሆን	-7.88755
▁ፈቃድ	-7.89265
▁ልብ	-7.90004
▁ያህዌ	-7.90008
▁ስእል	-7.91275
▁መረጃ	-7.91392
▁(	-7.91626
▁ለምን	-7.91703
▁ተብሎ	-7.91822
▁ይችላሉ	-7.92101
▁ለምሳሌ	-7.9239
▁ዘ	-7.92483
▁ውሳኔ	-7.92652
▁እንዳይ	-7.92662
▁—⁠	-7.92999
▁ኢትዮጵያ	-7.93569
▁በዚያ	-7.93654
▁ምንድን	-7.93904
ደ	-7.94303
▁የምት	-7.94327
▁ብሏል	-7.94571
▁ሆነው	-7.94849
▁ለመ	-7.95045
ዎቹ	-7.9505
)	-7.95675
▁አለበት	-7.95683
▁ውሀ	-7.9608
▁ስ	-7.96204
▁ታ	-7.96378
▁መብት	-7.9672
ኑ	-7.96728
ዬ	-7.9693
▁፲፱	-7.97023
▁ረገድ	-7.97546
ኖ	-7.97602
ቃ	-7.9769
▁አሉ	-7.97861
▁እያ	-7.98184
▁ግንኙነት	-7.98312
▁ቤቱ	-7.98321
▁በተመለከተ	-7.98362
▁ትርጉም	-7.98415
ጋ	-7.98652
▁ማንኛውም	-7.98795
▁ገንዘብ	-7.99295
▁በአ	-7.99624
ኛ	-7.99629
▁በማድረግ	-7.9972
ኒ	-8.00342
▁አባላት	-8.00805
▁ከዚያ	-8.00936
▁ጌታ	-8.01107
▁ማን	-8.01378
▁ሰአት	-8.01443
▁በይሆዋ	-8.0163
ሀ	-8.02116
▁ሰላም	-8.0224
▁የአ	-8.02287
▁አመለካከት	-8.02533
▁ደስ	-8.03462
ትን	-8.03505
ቆ	-8.03912
▁ማግኘት	-8.03931
ሎ	-8.03944
▁እውነት	-8.04469
▁አላማ	-8.04619
▁ጥቅም	-8.04859
▁ቋንቋ	-8.05098
▁እኛ	-8.05278
▁ትልቅ	-8.05408
▁መልስ	-8.05558
▁በአምላክ	-8.05692
▁እንዳ	-8.05798
ነው	-8.06379
▁ከባድ	-8.06394
▁ወር	-8.06415
▁አላቸው	-8.06491
▁ዳዊት	-8.06643
▁ይሁንና	-8.0679
▁ያሉት	-8.07019
ዉ	-8.07627
እ	-8.077
▁የአምላክን	-8.08027
▁አቶ	-8.08067
▁ታዲያ	-8.08196
▁መሆኑ	-8.0823
ፋ	-8.08234
▁ድርጅት	-8.08303
▁መመሪያ	-8.08907
▁ሶስት	-8.09515
▁ምክንያቱም	-8.09552
▁ታላቅ	-8.09564
ወ	-8.09591
▁በሌላ	-8.09706
▁እንችላለን	-8.09817
▁ይገባል	-8.09831
▁አቃቤ	-8.10449
▁እናንተ	-8.10653
▁ባለው	-8.10747
▁በምድር	-8.1076
ካ	-8.10934
▁ዮሀንስ	-8.11548
▁.	-8.11578
▁ፍርድ	-8.11786
ልን	-8.12258
▁በኢትዮጵያ	-8.12467
▁ወንዶች	-8.12486
▁ክልል	-8.12721
ሙ	-8.12781
▁አማካኝነት	-8.13227
ዘ	-8.13493
▁በመሆኑ	-8.13525
▁ታማኝ	-8.13621
▁እርሱ	-8.13879
ቲ	-8.14201
ጠ	-8.14219
በትን	-8.14347
▁እነዚህን	-8.14579
▁የሚለው	-8.14631
▁ሁሉም	-8.14919
▁ስለሚ	-8.15164
▁የሆነውን	-8.15362
▁ይሆዋን	-8.15463
▁እርምጃ	-8.15674
ቴ	-8.15812
▁አስ	-8.16148
▁ብር	-8.17047
▁ቀደም	-8.17395
ሬ	-8.17507
▁የምን	-8.1762
▁፳፬	-8.17663
▁የመንግስት	-8.17852
ሞ	-8.17862
▁የተለያዩ	-8.17952
▁ሊያ	-8.18004
▁፳፩	-8.18147
ባት	-8.18575
▁ስልጣን	-8.18586
ዲ	-8.18829
▁ሴቶች	-8.19302
ችን	-8.19516
▁ቅዱስን	-8.19898
▁ሲሉ	-8.20145
▁ደስታ	-8.20383
ናል	-8.21236
▁ወንድሞች	-8.21717
▁ለሚ	-8.21775
ዱ	-8.22149
▁እጅ	-8.2252
▁እንዲሆን	-8.22998
ጅ	-8.23328
▁እውነተኛ	-8.23499
▁ነፃ	-8.23546
▁፴	-8.23649
▁ሰዎችን	-8.23791
▁በሆነ	-8.24025
▁ጉዳዮች	-8.24123
▁ላ	-8.24433
▁ል	-8.2447
ልኝ	-8.24553
▁ጉዳት	-8.24558
▁ይሆን	-8.24671
▁እርዳታ	-8.24808
▁ተጨማሪ	-8.24846
▁ለማ	-8.24854
▁የሚገኙ	-8.2498
ችው	-8.25154
▁ምግብ	-8.25233
▁ብ	-8.25265
ሲ	-8.25354
ሚ	-8.25423
▁ዙሪያ	-8.25554
▁ፍላጎት	-8.25904
ችሁ	-8.25973
▁በአሁኑ	-8.2631
▁ለውጥ	-8.26429
▁ብለዋል	-8.26538
ቢ	-8.26801
▁ዘር	-8.2714
ዛ	-8.27215
▁መከራ	-8.27299
▁ትኩረት	-8.27422
ዋል	-8.27732
▁የነበረ	-8.27921
ፅ	-8.28037
ዶ	-8.28085
▁በዛሬው	-8.2813
▁በአል	-8.28135
ኔ	-8.28277
▁መዝሙር	-8.28301
▁ቀናት	-8.28406
ሱ	-8.28486
ኮ	-8.2911
▁ስፍራ	-8.29152
▁ፈፅሞ	-8.2973
▁፳፪	-8.29986
ቡ	-8.30011
▁ድምፅ	-8.30229
ቁ	-8.30316
▁ጥበብ	-8.30361
▁ደንብ	-8.30543
▁ተግባር	-8.30543
▁ኢ	-8.30601
▁አንዲት	-8.30653
▁ወጣቶች	-8.3069
▁ሀገር	-8.30814
▁ክፉ	-8.30946
▁ደም	-8.30985
▁በአለም	-8.31317
▁ከመሆኑ	-8.31354
▁ሀጢአት	-8.31417
▁አሳ	-8.31469
ኤ	-8.31583
▁ነኝ	-8.31832
▁ደቀ	-8.31838
▁አደጋ	-8.31951
▁ርእስ	-8.31967
▁ገና	-8.3208
▁አገሮች	-8.3209
▁እውቀት	-8.32178
▁ውጤት	-8.32247
▁ለዚህ	-8.32355
ዊ	-8.32644
▁ከዚህም	-8.32667
▁ሀላፊነት	-8.3273
ላት	-8.32805
▁ቅዱሳን	-8.32943
ታቸው	-8.32945
▁እለት	-8.33532
▁እንዲያ	-8.34323
▁በመፅሀፍ	-8.34327
▁ይቻላል	-8.34376
▁መልእክት	-8.34408
▁በመቶ	-8.34468
▁ጥናት	-8.34524
ቶች	-8.34566
ጨ	-8.34698
▁የአለም	-8.34761
▁እሱም	-8.34855
▁ስብሰባ	-8.34982
▁፳፫	-8.34992
▁በግልፅ	-8.3532
ሻ	-8.35461
▁ጨምሮ	-8.35462
ላችሁ	-8.35639
▁አባት	-8.35659
▁ተናግሯል	-8.35806
▁ሳ	-8.36009
▁ተፅእኖ	-8.36229
▁አድርገው	-8.36558
▁ህዝቦች	-8.36567
▁ክብር	-8.36694
▁አሁንም	-8.36892
▁ለይሆዋ	-8.36995
▁የሆኑት	-8.37149
▁፳፭	-8.37206
▁ምንጭ	-8.37453
▁ሞት	-8.37556
▁ጴጥሮስ	-8.3765
▁እንድት	-8.37695
▁ሰ	-8.37747
▁እንዲያውም	-8.37878
▁ማለትም	-8.37901
▁ሁኔታዎች	-8.37902
▁መስዋእት	-8.37957
▁መስጠት	-8.38803
ጭ	-8.38961
▁ያደርጋል	-8.39275
▁ሀዋርያው	-8.39418
▁ተመልከት	-8.3952
▁አምላክን	-8.39539
▁የእስራኤል	-8.39705
▁አቀፍ	-8.39824
▁ጥያቄዎች	-8.39848
▁እኔም	-8.40046
▁ገፅ	-8.40052
ለው	-8.40198
▁አን	-8.408
▁ያስ	-8.4083
▁ተማሪዎች	-8.41154
ጎ	-8.4121
▁እንደተ	-8.41382
▁ሲያ	-8.41465
▁ቤቶች	-8.41933
▁ከአ	-8.41936
▁መኖር	-8.42152
ቦ	-8.42733
▁መሰረታዊ	-8.42816
▁እንዳለ	-8.42845
▁ቃላት	-8.42863
▁መጀመሪያ	-8.43926
▁በተለይ	-8.44367
▁እስራኤላውያን	-8.44374
▁በተጨማሪ	-8.4444
▁ልክ	-8.44449
▁ወጣት	-8.44451
▁ያል	-8.44463
▁እንቅስቃሴ	-8.44548
▁ግልፅ	-8.44739
▁ይህንን	-8.45158
▁የተባለው	-8.45736
▁ውጭ	-8.45854
▁ደግሞም	-8.46087
▁ወንድም	-8.46215
ጉ	-8.46273
▁ሀይማኖት	-8.46306
▁አጋጣሚ	-8.4641
ተው	-8.46639
▁የፌዴራል	-8.46669
▁የነበሩ	-8.46677
▁ስት	-8.46802
▁እድሜ	-8.46825
▁ይኸውም	-8.46879
▁አልፎ	-8.47136
▁ጦርነት	-8.47319
▁ድጋፍ	-8.47487
▁እንኳን	-8.4787
▁በህይወት	-8.47929
▁ዓ	-8.48035
▁ወ	-8.48051
▁ዋጋ	-8.48133
▁የሚለውን	-8.48278
▁መጥፎ	-8.48291
▁የነበሩት	-8.48446
▁ንኡስ	-8.49078
▁የሚገኘው	-8.49145
-	-8.49257
▁ወላጆች	-8.49344
▁ችግሮች	-8.4937
▁ለአምላክ	-8.49412
▁አካላት	-8.49581
▁አባል	-8.49838
ጫ	-8.50167
▁ችሎታ	-8.50383
▁ምስክር	-8.50401
▁ኤ	-8.50429
▁ድርጊት	-8.50449
▁ትእዛዝ	-8.50536
▁እነሱም	-8.50743
▁ለዘላለም	-8.50831
▁የዚህ	-8.50947
▁አቡነ	-8.51192
ዴ	-8.51415
▁ራሱን	-8.51417
▁እርስ	-8.52097
ፌ	-8.52253
▁ሰይጣን	-8.52423
▁አላ	-8.52429
▁ምግባር	-8.52734
▁የለውም	-8.52937
ሶ	-8.53146
▁ማቴዎስ	-8.53301
ሜ	-8.53351
▁አስተዳደር	-8.534
▁ሚስት	-8.53519
▁መግለጫ	-8.53539
▁ተገቢ	-8.53724
▁ተግባራዊ	-8.53783
▁ስነ	-8.53911
ዮ	-8.54119
▁ጥቃት	-8.54175
▁ሺህ	-8.5431
▁የትምህርት	-8.54597
▁ትችላለህ	-8.54834
▁ሀብት	-8.55456
▁ቤተሰብ	-8.55491
▁በመሆን	-8.5579
▁መፃህፍት	-8.55839
▁ማንም	-8.56041
▁በተያያዘ	-8.56076
▁ሌላው	-8.56257
▁ተመሳሳይ	-8.56286
▁በሚል	-8.563
ዎ	-8.56475
▁ሚኒስትር	-8.56475
▁ዜና	-8.56532
▁መሳሪያ	-8.56608
▁ከአምላክ	-8.56812
▁ዝግጅት	-8.56823
▁የሚያስችል	-8.56892
▁በእርግጥ	-8.57251
▁አገልጋዮች	-8.57377
▁ጠቃሚ	-8.5756
ገባ	-8.57907
ቱን	-8.57917
ቸውን	-8.57971
▁አያ	-8.58119
▁፳፰	-8.58137
ኛል	-8.58454
▁ነገሮችን	-8.5852
▁አልነበረም	-8.58724
br	-8.58969
ብን	-8.59118
▁መሬት	-8.59192
▁እኛም	-8.59219
▁ልት	-8.59225
▁ከጊዜ	-8.59705
ፀ	-8.5973
▁እንደገና	-8.60143
▁ትክክለኛ	-8.60403
▁የቤተ	-8.60418
▁ምላሽ	-8.60624
▁አባ	-8.60867
▁እነሆ	-8.60928
▁ስለሆነ	-8.6136
▁ጥቂት	-8.61444
▁ያሉትን	-8.61489
▁ሰራተኞች	-8.61586
▁አራት	-8.61788
ሀል	-8.61791
▁ከማ	-8.61826
▁የነበረውን	-8.61862
በር	-8.61917
▁ተናግረዋል	-8.61977
ቤ	-8.62258
ዋን	-8.62702
▁ስራዎች	-8.62824
▁በሌሎች	-8.62849
▁ፍሬ	-8.62982
▁ብርሀን	-8.63013
▁ከተሞች	-8.6315
▁ሙሴ	-8.63203
▁ማርያም	-8.63603
▁ባህርይ	-8.63665
▁በስራ	-8.6379
▁ናት	-8.63853
▁እንዳለው	-8.6395
ኪ	-8.63951
ዎችን	-8.63956
▁በር	-8.64034
▁ቡድን	-8.64055
▁ራሱ	-8.64323
▁የይሆዋን	-8.64565
▁እንድ	-8.64646
▁ሽማግሌዎች	-8.65057
▁ይዞ	-8.65446
▁የሚችል	-8.65497
▁አምልኮ	-8.6555
ኞች	-8.66122
ፊ	-8.66345
▁አምስት	-8.66419
▁መሪ	-8.668
▁ምልክት	-8.66849
▁በቅርቡ	-8.67067
ዩ	-8.67082
ሴ	-8.67093
ቻ	-8.6718
▁አንዳንዶች	-8.67227
▁የሚቆጠሩ	-8.6725
▁ብሄራዊ	-8.67276
▁ራሳቸውን	-8.6745
▁ሜትር	-8.67635
▁አብ	-8.67701
▁እንደነበር	-8.67713
▁ከይሆዋ	-8.67819
ቼ	-8.67844
▁መጣ	-8.67879
▁ፍፁም	-8.68117
▁ለሌሎች	-8.68265
▁በሽታ	-8.68467
▁እንደሚችል	-8.68756
▁ማወቅ	-8.68991
▁ምርጫ	-8.69003
▁ከሌሎች	-8.69117
▁ቀላል	-8.69167
▁ብዬ	-8.69171
▁ነበረ	-8.69182
▁የተሻለ	-8.69236
▁ፅሁፎች	-8.69296
▁ቦታዎች	-8.6952
▁እዚህ	-8.69521
▁ይቅር	-8.69525
▁የበለጠ	-8.6953
ብኝ	-8.69687
▁እስቲ	-8.69784
▁በዚህም	-8.69821
▁ኪዳን	-8.69823
▁የንግድ	-8.69902
▁ፀሎት	-8.70341
▁በቂ	-8.70374
▁ከአንድ	-8.70559
▁ያላቸውን	-8.70595
ጃ	-8.70637
▁የኢየሱስ	-8.70889
▁፳፮	-8.709
▁ጥፋት	-8.71054
▁ከእነዚህ	-8.71372
ሸ	-8.71394
▁፳፯	-8.71416
▁ስጋ	-8.71419
▁መልኩ	-8.71455
ነቱ	-8.7162
▁ትንቢት	-8.71652
▁እድገት	-8.71675
▁ብለን	-8.7169
▁የምንችለው	-8.71745
▁እንዲሁ	-8.71882
▁ለአ	-8.71995
▁ህዝቡ	-8.72295
▁እንድን	-8.72435
▁አይችልም	-8.72576
፤	-8.72592
▁ራስ	-8.72714
▁ጠንካራ	-8.72718
▁መንገዶች	-8.72741
▁እያንዳንዱ	-8.72821
▁በሰማይ	-8.72889
▁ወንጀል	-8.73218
▁ስን	-8.73281
▁በተለያዩ	-8.73411
▁ፅሁፍ	-8.73504
▁በመንፈስ	-8.73532
▁ግንብ	-8.73532
▁ኖሮ	-8.7362
▁ማስረጃ	-8.73678
▁ንፁህ	-8.7394
▁ሉቃስ	-8.74418
▁እነሱ	-8.74586
▁ሁልጊዜ	-8.75108
▁ወራት	-8.75322
▁እንደሆኑ	-8.75345
▁ሚኒስቴር	-8.75612
▁ሲባል	-8.7563
▁የግል	-8.75726
▁ፈቃደኛ	-8.75891
▁ስለነበር	-8.75996
▁ሊቀ	-8.7601
▁በየ	-8.76167
▁ይገኛል	-8.76215
▁ራእይ	-8.76333
▁ወደፊት	-8.76466
▁እንደሚያ	-8.76736
▁ይናገራል	-8.76852
▁የህዝብ	-8.77063
▁ውድ	-8.77238
▁ብት	-8.7724
▁ለተ	-8.77398
ሽን	-8.7741
▁፳፻፲፪	-8.77531
"	-8.77636
▁ሪፖርት	-8.77801
ቷ	-8.78088
▁እያለ	-8.78317
▁ተቀባይነት	-8.78317
▁ወገን	-8.78366
▁ስህተት	-8.78429
ፕ	-8.78478
ጡ	-8.78737
▁ስልጠና	-8.78831
▁፳፱	-8.78938
▁ለማወቅ	-8.79279
▁የበላይ	-8.79322
▁ጥበቃ	-8.79345
ጀ	-8.79465
ኦ	-8.79511
▁በእርግጥም	-8.79548
▁የተለየ	-8.79683
▁ሂደት	-8.7969
▁አንስቶ	-8.79735
▁ልማት	-8.79868
▁የሚኖሩ	-8.79935
▁አደረገ	-8.80006
▁ያም	-8.80035
▁አብዛኞቹ	-8.80067
ፉ	-8.80076
▁እስኪ	-8.80233
▁ገልፀዋል	-8.80262
▁መንግስታት	-8.80498
ተር	-8.80692
ቸ	-8.80799
▁መስራት	-8.8095
▁መልክ	-8.8102
▁ስጦታ	-8.81033
▁እርሱም	-8.81066
ዚ	-8.81068
▁ይኖርብናል	-8.81348
▁ልን	-8.81779
▁ትንሽ	-8.81827
▁በሚገባ	-8.82046
ለን	-8.82051
▁የአንድ	-8.82232
▁ተቋማት	-8.82537
ተኛ	-8.82575
▁በምን	-8.83026
ውም	-8.83242
▁ሀላፊ	-8.83313
▁ቀ	-8.83318
▁ክፍሎች	-8.83336
▁ውይይት	-8.83685
▁ኦ	-8.83737
▁ድል	-8.83865
▁ንብረት	-8.83931
▁አንድነት	-8.84059
▁አልተ	-8.84087
▁ባይ	-8.84098
ወጣ	-8.84172
▁በተመሳሳይ	-8.84243
▁ባል	-8.84396
▁ንግግር	-8.84648
▁ገልጿል	-8.84727
▁የፖለቲካ	-8.84742
▁የመጀመሪያው	-8.84857
▁ካል	-8.84915
▁እሱን	-8.84939
▁አቋም	-8.85025
▁ወይስ	-8.85167
▁በእነዚህ	-8.85235
▁የተባለ	-8.85307
▁አንፃር	-8.85321
▁በብዙ	-8.8546
▁ወዲህ	-8.85645
▁የሚያሳይ	-8.85659
▁ካህናት	-8.86018
▁አስቸጋሪ	-8.8608
▁እርግጥ	-8.86107
ልህ	-8.86179
▁ሀይማኖታዊ	-8.86243
▁እሳት	-8.86267
▁አስቀድሞ	-8.86272
▁ለመሆን	-8.86405
▁ወንድ	-8.86781
▁ሞ	-8.86851
▁ብዙዎች	-8.86859
ህም	-8.86924
▁መሆናቸውን	-8.87019
▁በረከት	-8.87024
▁ይሰጣል	-8.87041
▁ባህር	-8.87053
▁በሚያ	-8.87109
ንግ	-8.87221
ገር	-8.8747
▁ልብስ	-8.87567
▁በታች	-8.87579
▁አለቃ	-8.87603
▁ነን	-8.87656
▁ሳለ	-8.87708
ገኝ	-8.87714
▁በእግዚአብሄር	-8.87774
▁መባ	-8.87821
▁ሚሊዮን	-8.87894
ኛው	-8.88083
▁ዝርዝር	-8.88088
▁ለመስጠት	-8.88142
▁ያእቆብ	-8.88158
▁ምንጊዜም	-8.88283
▁መስሪያ	-8.88379
▁የሚችለው	-8.8847
▁ደብዳቤ	-8.885
▁ሰባት	-8.88583
▁መሪዎች	-8.88604
▁አድርጓል	-8.88756
▁የእግዚአብሄር	-8.88807
▁ንጉሱ	-8.88925
▁የስነ	-8.88947
▁ገ	-8.89144
▁ማየት	-8.89167
▁የምታ	-8.89337
▁አቅም	-8.89371
▁ከላይ	-8.89474
▁ሰራዊት	-8.89657
▁የጦር	-8.89907
▁አይቀርም	-8.89967
▁አመራር	-8.90066
ጂ	-8.90164
▁፵	-8.90273
▁በመንፈሳዊ	-8.90307
▁ከእሱ	-8.90704
▁በጎ	-8.90741
▁አስተሳሰብ	-8.90839
▁ኢሳይያስ	-8.90907
ሰው	-8.91102
▁አንብብ	-8.91109
▁እንግዲህ	-8.91363
▁በወቅቱ	-8.91824
▁በሚገኘው	-8.921
▁ብለህ	-8.92202
▁አስደሳች	-8.92257
▁አስተዋፅኦ	-8.92286
ፃ	-8.92378
ናቸው	-8.92457
▁በቀላሉ	-8.92519
▁ለሰው	-8.92576
▁በመጠቀም	-8.92759
▁የውጭ	-8.92845
▁ከሁሉ	-8.92927
ሮች	-8.93051
▁መጨረሻ	-8.93134
▁ስብሰባዎች	-8.93348
▁ያልተ	-8.93622
▁በዚያን	-8.93698
▁አንዳንዶቹ	-8.93717
▁ኮሚቴ	-8.93726
▁ሆኑ	-8.93732
▁መፅሄት	-8.93822
▁የመጀመሪያ	-8.93836
ኖች	-8.94064
▁ጭምር	-8.9407
▁ማሳየት	-8.94078
▁ፅፏል	-8.941
▁እቅድ	-8.94201
▁ግብር	-8.94329
▁አቅጣጫ	-8.94546
▁ይሆናሉ	-8.94572
▁አስደናቂ	-8.94738
▁ፕሮግራም	-8.94839
▁በመስጠት	-8.94892
▁ልጁ	-8.94994
▁ነበር።	-8.95154
▁በመጀመሪያ	-8.95164
▁እንመልከት	-8.95199
▁ፖሊስ	-8.9523
▁ያደረገው	-8.95277
▁ክፍያ	-8.95386
▁ወንዝ	-8.95506
▁ትክክል	-8.95555
▁በአዲስ	-8.95615
▁እንደማይ	-8.95724
▁ቢሮ	-8.95759
▁በእሱ	-8.95926
▁ተራራ	-8.95964
▁የህግ	-8.9618
▁የህይወት	-8.96215
▁በሰው	-8.96232
▁እስራኤል	-8.9638
▁ጥር	-8.9647
▁የእ	-8.96623
ባቸውን	-8.96698
▁አንተም	-8.96782
▁በቤተ	-8.96786
▁፴፩	-8.97258
▁ነገ	-8.97481
▁ብዙም	-8.97565
ባል	-8.97607
▁በእስራኤል	-8.97621
▁ስላ	-8.97803
ሪያ	-8.98039
▁የሚያስ	-8.98049
▁ኪሎ	-8.98303
በታል	-8.98542
»	-8.98559
ኩት	-8.98718
▁ያሳያል	-8.99152
▁ስቴትስ	-8.99193
▁ካለው	-8.99248
▁በራሱ	-8.99304
▁በሆነው	-8.99496
▁መጠቀም	-8.99545
▁አታ	-8.99562
▁፶	-8.99609
▁ዘዴ	-8.99697
▁ሲኖዶስ	-8.99865
▁ፈተና	-8.99914
▁ግዛት	-8.99984
▁ግራ	-8.99997
▁እቃ	-9.00046
ታችን	-9.00057
፼	-9.00117
ላቸዋል	-9.00242
▁ስብከት	-9.00244
ጓ	-9.00294
▁እንዲሆኑ	-9.00327
▁ነፃነት	-9.0045
▁ጎ	-9.00697
▁ብዛት	-9.00776
▁አዎን	-9.00956
▁ትውልድ	-9.01
▁አፍሪካ	-9.01002
▁የገንዘብ	-9.01123
ያቸው	-9.01158
▁ስምምነት	-9.01245
▁በህግ	-9.01404
▁ሄደ	-9.0156
▁ህክምና	-9.01754
መጣ	-9.01867
▁አብርሀም	-9.01967
▁ግዴታ	-9.02
▁ብዙውን	-9.02375
▁ክስ	-9.02389
ፈራ	-9.02579
▁አር	-9.02679
▁ዲ	-9.02717
▁እግዚአብሄርን	-9.02866
▁ባለስልጣን	-9.02879
▁ብሄር	-9.02883
▁መቅደስ	-9.02915
ብህ	-9.0307
▁ኢየሩሳሌም	-9.03136
▁የት	-9.03156
▁ሚና	-9.03226
▁የውሀ	-9.03347
ታችሁ	-9.03359
▁በል	-9.0372
▁ጀመረ	-9.03793
▁ሰፊ	-9.03803
ጌ	-9.03805
▁እናት	-9.04005
▁ዶር	-9.04194
▁የሚሆን	-9.04226
▁በግ	-9.0425
▁ዘርፍ	-9.04336
▁ሰማይ	-9.04421
▁ሌሎችን	-9.0462
▁ዛፍ	-9.04787
ስት	-9.04818
▁ባሪያ	-9.04895
▁ሆኗል	-9.05197
▁መፍትሄ	-9.05321
▁ብፁእ	-9.05453
▁መጠበቅ	-9.05488
▁ደህንነት	-9.05544
ፎ	-9.05737
▁ካለ	-9.05798
▁በመንግስት	-9.05821
▁አብዛኛውን	-9.05839
▁ይላሉ	-9.05901
▁ከእኔ	-9.05908
▁ከሞት	-9.05937
▁ገደማ	-9.05964
▁በኢየሱስ	-9.06078
ሰራ	-9.0609
▁«	-9.06189
▁ማንኛውንም	-9.06209
▁ዘገባ	-9.06212
▁ኮ	-9.06241
▁ልማድ	-9.06251
▁አብረው	-9.06487
ጊ	-9.06543
ችንን	-9.06695
▁ጊዜያት	-9.06757
▁ወጪ	-9.06861
▁በስተቀር	-9.06865
▁አለባቸው	-9.069
▁ደስተኛ	-9.06949
▁ግሩም	-9.07301
▁አክብሮት	-9.07338
▁ተደርጎ	-9.07384
▁ፓርቲ	-9.07548
▁ለማየት	-9.0764
▁ነዋሪዎች	-9.07783
▁ምእራፍ	-9.07834
አል	-9.07841
▁ሰብአዊ	-9.07942
▁ስሙ	-9.08116
▁ይኖርበታል	-9.08146
▁መልሶ	-9.08153
▁ደ	-9.08213
▁ሰራተኛ	-9.08234
▁ወዲያውኑ	-9.08261
▁ሸ	-9.08535
▁ቆሮንቶስ	-9.08571
ማር	-9.08689
ረዳ	-9.08837
▁አሊያም	-9.08993
▁ጢሞቴዎስ	-9.09026
▁ዶክተር	-9.09062
ሹ	-9.09107
▁የሚያደርግ	-9.09243
መራ	-9.09275
▁ህጋዊ	-9.09334
ቸዋል	-9.09427
▁የጤና	-9.09587
▁ያን	-9.09642
▁ድርጅቶች	-9.09705
ማል	-9.09715
▁"	-9.09799
▁ምህረት	-9.09826
▁የሚሆኑ	-9.09857
▁ኦርቶዶክስ	-9.10107
▁ዝምድና	-9.10129
ቷል	-9.10185
▁ባሉት	-9.10349
▁፴፫	-9.10408
▁ድርሻ	-9.10426
▁ነገስታት	-9.10449
▁፴፪	-9.10512
ዜ	-9.10612
▁መናገር	-9.10759
▁የሚሰጠው	-9.10892
▁ገቢ	-9.11061
▁–	-9.11137
▁የሌለው	-9.11366
▁አፍ	-9.11369
▁ለመርዳት	-9.11382
▁ቋንቋዎች	-9.11387
▁አሉት	-9.11547
▁ወርቅ	-9.11591
▁ዳንኤል	-9.11701
▁ጀመር	-9.11703
▁ዩኒቨርሲቲ	-9.11796
▁ማስ	-9.11813
▁ቢያ	-9.11836
▁በዳ	-9.11983
▁ወጣ	-9.1204
▁ማረጋገጫ	-9.12051
▁አሜሪካ	-9.121
▁ተዋህዶ	-9.12162
▁ህመም	-9.12344
▁አይሁዳውያን	-9.1244
ቋ	-9.12571
መን	-9.12582
▁ገነት	-9.1263
▁እድል	-9.12712
▁ይኖራል	-9.1276
ነታቸው	-9.12862
▁ሁሉንም	-9.12864
▁ማስታወሻ	-9.12893
ጦ	-9.12953
▁መቼ	-9.13238
▁ሚ	-9.13257
▁ባህርያት	-9.13266
▁ግ	-9.13274
▁ነፍስ	-9.13366
▁የሚችሉ	-9.13535
▁መዛሙርቱ	-9.1358
▁አስመልክቶ	-9.13796
▁ምርመራ	-9.13815
▁ዳር	-9.13816
▁ጉዞ	-9.13875
ተን	-9.13882
▁ነህ	-9.13955
▁አየር	-9.13956
▁መረዳት	-9.1411
▁የግርጌ	-9.1412
▁በመጀመሪያው	-9.14168
▁ቀጥሎ	-9.14173
ታቸውን	-9.14246
▁ስለተ	-9.14275
▁ስድስት	-9.14301
ቀው	-9.1431
▁አለኝ	-9.14322
ኤል	-9.14498
▁ለአንድ	-9.1462
▁ብቃት	-9.14712
▁በፍፁም	-9.14798
▁የእምነት	-9.14809
▁በኢየሩሳሌም	-9.14847
▁በደስታ	-9.14883
ዎቹን	-9.1523
ኖር	-9.15241
▁የያህዌ	-9.15262
▁አዳም	-9.15542
ጤ	-9.15568
ገቡ	-9.15658
▁በእ	-9.15681
▁አካባቢዎች	-9.15766
▁ጥሪ	-9.15933
ሞት	-9.1595
▁አባቶች	-9.16003
▁አስር	-9.16115
▁አገልጋይ	-9.16199
▁ማቅረብ	-9.1624
▁የሚገኘውን	-9.16292
▁ዳ	-9.16392
▁ይዘው	-9.16424
▁፻	-9.16482
▁እንደዚህ	-9.16592
▁ኢዮብ	-9.16653
▁ህዝቡን	-9.16919
▁ያለበት	-9.16974
▁ጋ	-9.17085
ነሳ	-9.1716
▁በሆኑ	-9.17229
▁በመላው	-9.17262
▁ማሀበር	-9.17346
▁በርስ	-9.17413
ጐ	-9.17427
▁አሰራር	-9.17538
▁ቅ	-9.1761
▁መዛሙርት	-9.17641
▁በእርሱ	-9.17794
▁ሁለተኛ	-9.17854
ሆ	-9.17942
▁እያሉ	-9.17986
▁ማር	-9.18008
ሆን	-9.18075
▁አጠገብ	-9.18097
▁ማስተዋል	-9.18161
▁ጋዜጣ	-9.18172
ዙ	-9.18192
ላል	-9.18201
>	-9.18305
ጠፋ	-9.18323
ተዋል	-9.18371
▁ትንሳኤ	-9.18444
▁በዚያም	-9.18475
ቄ	-9.18534
ጠራ	-9.18631
▁አደገኛ	-9.18697
▁ሳጥን	-9.187
ፒ	-9.1895
▁ምክትል	-9.18972
▁ጤና	-9.19049
▁አይን	-9.1909
<	-9.19135
▁የሀይማኖት	-9.19142
ሺ	-9.19274
ራል	-9.19312
▁ይመስላል	-9.19454
▁በተለይም	-9.19727
ቂ	-9.19812
▁ተቋም	-9.19887
▁ዝም	-9.19893
ቪ	-9.20179
▁እንዳልሆነ	-9.20407
▁ስቃይ	-9.20409
▁ቅጣት	-9.20558
▁አግባብ	-9.20583
ኬ	-9.20585
▁ህገ	-9.20617
መር	-9.20702
▁የፆታ	-9.20828
▁ሁላችንም	-9.20833
▁የሚባል	-9.20834
▁የዘላለም	-9.20905
▁ህፃናት	-9.20977
▁የአገልግሎት	-9.21075
▁ጎን	-9.21151
▁አባቴ	-9.21264
ፓ	-9.21276
▁በኋላም	-9.21285
▁ሲሆኑ	-9.21286
▁ክፍለ	-9.21509
▁ከእናንተ	-9.21606
▁እነርሱ	-9.21839
ረው	-9.21844
▁ጥልቅ	-9.21937
▁በእኔ	-9.21998
በረ	-9.22008
▁በደል	-9.22073
▁ብላ	-9.2222
▁አነስተኛ	-9.22461
/	-9.22539
▁ብላለች	-9.22555
▁የምና	-9.22875
ቹ	-9.22949
▁እዚያ	-9.23005
▁ርእሰ	-9.23075
▁የአሜሪካ	-9.23308
▁በመጨረሻም	-9.23362
▁ፀሀፊ	-9.23409
▁ፈጣሪ	-9.23461
▁አስተያየት	-9.23469
▁ዘመናት	-9.23525
▁ውጪ	-9.23526
መው	-9.23623
□	-9.23681
▁በቀጥታ	-9.23682
▁ጭንቀት	-9.23682
▁ለመስራት	-9.24056
▁የቤተሰብ	-9.24069
▁መስ	-9.24139
▁ሞገስ	-9.24387
▁ጦር	-9.24406
▁ምእመናን	-9.24457
▁የትዳር	-9.24526
▁ከእነሱ	-9.24548
▁ቢያንስ	-9.24563
▁ማእከል	-9.24639
ሳል	-9.24673
▁በቀር	-9.24691
▁ከልብ	-9.24742
▁ቤተክርስቲያን	-9.24796
ሟ	-9.24828
▁ድንጋይ	-9.24839
▁መላእክት	-9.24938
▁በሁሉም	-9.2506
ደን	-9.2541
▁እግር	-9.25498
▁ባሉ	-9.25554
▁የተሰጠው	-9.25576
▁ልዩነት	-9.2568
▁በተደጋጋሚ	-9.25725
▁ጉ	-9.25773
▁ስራውን	-9.25832
▁ወገኖች	-9.2593
▁አማራ	-9.25944
▁እስካሁን	-9.25969
▁በስተ	-9.25972
▁ሳሙኤል	-9.25978
ቢያ	-9.25994
▁ግለሰብ	-9.26009
▁መያዝ	-9.26074
ክስ	-9.26122
▁በሰላም	-9.26162
▁እኔን	-9.26239
▁አይነቱ	-9.26241
▁ህያው	-9.26255
ሄድ	-9.26349
▁ሌሊት	-9.26356
▁የመጨረሻ	-9.26678
▁በከፍተኛ	-9.26701
▁ዝንባሌ	-9.26799
▁ግምት	-9.26833
▁የክርስቶስ	-9.26871
▁እንስሳት	-9.26931
▁ቤተሰቦች	-9.26954
▁አህመድ	-9.27016
▁ያደረገ	-9.27097
▁አይደሉም	-9.27111
▁ከእርሱ	-9.27218
▁ዮሴፍ	-9.27261
▁የፌደራል	-9.27316
▁ምክንያቶች	-9.27526
▁የታወቀ	-9.27593
▁ስለሆነም	-9.276
፡፡	-9.27758
▁ፍ	-9.278
▁በጉባኤ	-9.27909
ለታል	-9.27944
ታዊ	-9.27974
▁የህክምና	-9.28018
ደው	-9.28067
▁በጀት	-9.2807
▁ለመኖር	-9.28099
▁ባንክ	-9.28114
▁ስርአቶች	-9.28358
▁ግለሰቦች	-9.28423
▁ማርቆስ	-9.28451
▁ግንባታ	-9.28594
ሰማ	-9.28681
▁አዳዲስ	-9.28702
▁ያልሆነ	-9.28774
▁ተግባራት	-9.28844
ራት	-9.28845
▁ምስራቅ	-9.28954
▁ከእኛ	-9.28992
▁በትክክል	-9.29017
▁ጥርጥር	-9.29153
▁የአዲስ	-9.29187
ባቸዋል	-9.29265
▁ወረቀት	-9.2931
▁ምስጋና	-9.29431
▁እንደምት	-9.29468
፡	-9.29538
▁ሳምንት	-9.29642
▁በደቡብ	-9.29688
▁ሙ	-9.29746
▁ያመለክታል	-9.29941
▁ኢትዮጵያውያን	-9.30016
▁ራሳችንን	-9.30053
▁የአማራ	-9.30095
▁አብያተ	-9.30261
▁በዚሁ	-9.3028
▁አድርግ	-9.30309
▁ሰላማዊ	-9.30331
ደር	-9.30365
▁ሲናገር	-9.30368
▁ክ	-9.30509
▁የሚሰጥ	-9.30514
▁የተናገረው	-9.30517
▁፴፭	-9.30618
▁መኪና	-9.30629
ባችሁ	-9.30649
▁ፕሬዚዳንት	-9.30733
▁አብሮ	-9.30824
▁ዛሬም	-9.30893
ጠና	-9.30967
▁የምድር	-9.31134
▁ሳይቆይ	-9.31191
▁ሴ	-9.31292
▁ሁለቱ	-9.3133
▁ፀጋ	-9.31527
▁ሀሳቦች	-9.31584
ራቸው	-9.3159
ለች	-9.31735
▁የሰላም	-9.31738
▁ባለቤት	-9.31745
▁ኑሮ	-9.31894
▁ጥ	-9.3201
▁ምንኛ	-9.32103
▁ግብ	-9.32217
▁ከአንተ	-9.3241
ችኋል	-9.3249
ቀር	-9.32491
▁ልጆቹ	-9.32545
▁ውጤታማ	-9.32579
▁ተቃውሞ	-9.32637
ቶቹ	-9.32652
▁የወጣ	-9.32709
▁እንደሚሆን	-9.32713
መለስ	-9.3276
▁እንደሚከተለው	-9.33272
▁አለብን	-9.33295
▁ይናገራሉ	-9.33333
ሰን	-9.33348
▁የሚገኙት	-9.33382
▁ይገኛሉ	-9.33655
▁ፍርሀት	-9.33772
▁እንደነበረ	-9.3379
▁መኖሪያ	-9.33793
▁የተባለውን	-9.3386
▁ኤርምያስ	-9.33965
▁አዳራሽ	-9.33976
ልፍ	-9.34063
▁ለእኔ	-9.34074
▁ወረዳ	-9.34094
ሰጥ	-9.3411
▁መር	-9.34131
▁ሁለቱም	-9.34153
▁ተሰ	-9.34309
ኢ	-9.34327
▁መጥቶ	-9.34336
▁ፍትህ	-9.34487
▁መሳሪያዎች	-9.34542
▁ይቅርታ	-9.3455
▁ሙያ	-9.34631
▁ይገልፃል	-9.34697
▁ፀሀይ	-9.347
▁ወጥ	-9.34724
ሎች	-9.34773
ድር	-9.34877
▁ክርስትና	-9.34963
▁አፈ	-9.35035
▁የመጣ	-9.3506
▁ምድርን	-9.35095
▁ካሉት	-9.35155
▁በሞት	-9.35175
ዬን	-9.35188
ጣል	-9.35304
▁ቋሚ	-9.35357
▁▪	-9.35365
▁መመልከት	-9.35377
▁ቀስ	-9.35408
▁መረጃዎች	-9.35461
▁ጉባኤው	-9.35485
▁የተመሰረተ	-9.35523
▁ሺ	-9.35527
ልናል	-9.35574
▁፴፬	-9.35588
በላ	-9.35596
▁ቅርንጫፍ	-9.35645
▁ወታደሮች	-9.35652
▁እህት	-9.35688
▁አፈፃፀም	-9.35801
▁የሰጠው	-9.35806
▁በአጠቃላይ	-9.35812
><	-9.35867
የው	-9.36039
▁ተራ	-9.36062
▁አለመ	-9.36069
▁ኋላ	-9.36226
▁ትምህርቶች	-9.36261
▁የተወሰነ	-9.36315
▁በደንብ	-9.36446
ጢ	-9.36479
▁ለእኛ	-9.36492
ፈር	-9.36522
▁ቀርቶ	-9.36529
▁እንድታ	-9.36544
▁በምት	-9.3666
▁በየአመቱ	-9.36665
▁ወንጌል	-9.36752
▁ደቡብ	-9.3689
▁ሳያ	-9.36911
▁ለእግዚአብሄር	-9.36973
▁እንዳል	-9.36992
▁ጀመሩ	-9.37103
▁መቋቋም	-9.3716
▁ስጋት	-9.37162
መስ	-9.37242
▁ካልሆነ	-9.37263
▁ምናልባት	-9.37274
▁ጥቅስ	-9.3751
▁አመቱ	-9.37718
▁በጎች	-9.37801
▁ኒው	-9.37809
▁ይመጣል	-9.37838
ዌ	-9.37957
▁ንስሀ	-9.37983
ጠው	-9.38021
▁ሰጥቷል	-9.3812
▁ባልና	-9.38142
▁አቢይ	-9.38263
ሂ	-9.38286
▁ለማገልገል	-9.3831
▁በአብዛኛው	-9.38561
▁አባባል	-9.38591
▁ማሰብ	-9.38623
▁ስራው	-9.3873
▁አይሆንም	-9.38739
▁ይጨምራል	-9.38763
▁ምርምር	-9.38764
▁የወይን	-9.38816
▁ሀዘን	-9.38825
▁በትምህርት	-9.38905
▁ባለፈው	-9.3896
▁መውሰድ	-9.38976
▁እቃዎች	-9.39094
▁ነ	-9.39205
ኘ	-9.39366
ሳይ	-9.39454
▁ጉዳዩ	-9.39499
▁የሚሆኑት	-9.39522
▁ማንበብ	-9.39654
▁ባላቸው	-9.39716
▁ሀገረ	-9.39795
▁ተሞክሮ	-9.39816
▁አቆጣጠር	-9.3982
▁መዝ	-9.39879
▁ምሽት	-9.40017
▁የባህር	-9.40022
▁ብሄራት	-9.40044
▁ለመጀመሪያ	-9.403
▁ለማለት	-9.40318
▁መንግስቱ	-9.40415
▁ነገድ	-9.40438
▁ጎዳና	-9.40567
▁የላቀ	-9.40589
▁ምስራች	-9.40625
▁ነጥብ	-9.40633
▁በእሳት	-9.40683
▁መልአክ	-9.40843
ማን	-9.40866
▁ይረዳናል	-9.40911
▁ተብለው	-9.40931
ሄ	-9.40989
▁ነበረው	-9.40991
▁ልደት	-9.41028
▁እናንተም	-9.4111
▁የሚሆነው	-9.41225
▁ስል	-9.41237
▁ቁጥጥር	-9.41238
▁አስራ	-9.41282
▁ባለስልጣናት	-9.41391
▁እውነትን	-9.41512
▁መሄድ	-9.41583
▁የሚገባው	-9.41607
▁ዘወትር	-9.41689
▁እነርሱም	-9.41784
▁የሚችሉት	-9.41844
▁ዘይት	-9.41877
ውያን	-9.4195
▁ባለፉት	-9.41965
▁ማገልገል	-9.42069
ሏቸው	-9.42083
▁ለመረዳት	-9.42101
▁ዋ	-9.42268
▁እንዳሉ	-9.42281
▁የሚገልፅ	-9.42336
▁ንቁ	-9.42338
▁ብዙዎቹ	-9.42462
▁የቤት	-9.42554
▁በማንኛውም	-9.42618
ሁት	-9.42624
▁ህጎች	-9.42637
▁እንዳለበት	-9.42729
▁በአንዳንድ	-9.42776
ዋለሁ	-9.42798
▁ሁለተኛው	-9.42837
▁ነበረች	-9.42873
▁የእግዚአብሄርን	-9.42933
▁ፍፃሜ	-9.42972
ችል	-9.43046
▁ጓደኛ	-9.43062
▁የሚገባ	-9.43084
ወቅ	-9.43144
▁ባህል	-9.43178
▁እንደሚገባ	-9.43262
▁ያደርጋሉ	-9.43292
▁የያዘ	-9.43374
ቀበል	-9.43537
▁መስክ	-9.4365
ያን	-9.43676
▁ሚኒስትሩ	-9.43681
▁አዎ	-9.43705
▁መመሪያዎች	-9.43788
▁ሆ	-9.43845
ለቅ	-9.43862
▁ግብፅ	-9.43901
▁የሚከተለውን	-9.44013
▁፴፯	-9.44041
▁ሰነድ	-9.44086
▁መማር	-9.4421
▁ይህች	-9.44216
▁አገዛዝ	-9.44307
▁ቅድስት	-9.44347
▁ክርስቲያናዊ	-9.44408
ቫ	-9.44464
▁ማስጠንቀቂያ	-9.44468
▁ጥንታዊ	-9.44557
▁አንደኛው	-9.44585
▁የነበሩትን	-9.44611
▁ደግነት	-9.44646
▁ንግድ	-9.44858
ጥር	-9.44878
▁አይገባም	-9.449
▁ስታ	-9.44975
▁ክርስቲያናት	-9.44996
▁ዘመነ	-9.45065
▁ያውቃል	-9.45097
▁ዋነኛ	-9.45115
ባሉ	-9.45159
ሳት	-9.45192
▁ክንድ	-9.4547
▁እግዚአብሄርም	-9.45701
▁አጠቃላይ	-9.4572
▁ከክርስቶስ	-9.45723
▁አድርገዋል	-9.45741
ነሱ	-9.45816
▁በአካባቢው	-9.45823
መሰ	-9.45895
▁የታ	-9.45924
▁አድ	-9.45932
▁ፓ	-9.45952
▁ከነ	-9.46032
▁ፃድቅ	-9.46139
▁አድናቆት	-9.46155
▁ጉዳዩን	-9.46296
▁አድርገን	-9.46321
▁ፅድቅ	-9.4636
ሳቸው	-9.46364
▁ከሰው	-9.46401
▁ይኸው	-9.46412
▁ልጁን	-9.46464
▁በእጅጉ	-9.46486
▁ፈ	-9.46498
▁ሰጠ	-9.46502
▁የሚያደርጉ	-9.46661
▁ሀላፊዎች	-9.46706
ነቱን	-9.46767
▁በነበረው	-9.46775
▁ዳርቻ	-9.46821
▁አለቆች	-9.46856
▁በክርስቶስ	-9.46884
▁ግብዣ	-9.47045
▁ሜ	-9.47049
ቭ	-9.47079
ከው	-9.47083
▁መጠየቅ	-9.47119
▁ለብዙ	-9.47135
▁ቀይ	-9.47182
ሯ	-9.47265
ረዱ	-9.47372
▁ሀይሎች	-9.47384
▁እንዳት	-9.47574
▁ድንቅ	-9.47618
▁ዘፍጥረት	-9.47654
▁የሚሉ	-9.47756
▁ሜዳ	-9.47863
ክር	-9.47891
▁ህጉ	-9.47928
▁የትኛው	-9.48102
▁የተገኘ	-9.48176
▁ነቢዩ	-9.48186
▁ማቴ	-9.48266
ቀርብ	-9.48276
▁የአየር	-9.48301
▁መለስ	-9.48321
▁ያሳ	-9.48329
▁እንዳያ	-9.48351
▁የሚያደርገው	-9.48384
▁አድርጉ	-9.48476
▁መደበኛ	-9.48491
▁ይሁዳ	-9.48513
▁ኢየሱስን	-9.48584
▁ሊቃውንት	-9.48626
ጠቀም	-9.48649
▁አባቱ	-9.48672
ጠፉ	-9.48795
▁ለመጠበቅ	-9.48872
በው	-9.48873
▁ጠ	-9.48917
▁በሁለት	-9.48942
▁ያለን	-9.49232
▁የሂሳብ	-9.49308
ወድ	-9.49349
▁እንድና	-9.49403
▁ያላ	-9.49426
▁እነሱን	-9.49469
▁የማያ	-9.49638
▁ተነስቶ	-9.49661
▁ቁጣ	-9.49704
▁ወይ	-9.49772
▁ታላቁ	-9.49773
▁የሆኑትን	-9.49808
▁ያስፈልጋል	-9.49821
ቆም	-9.49937
▁በነበረበት	-9.50156
▁ታክስ	-9.50228
▁ፅቤት	-9.50288
▁ገባ	-9.50325
▁መፈፀም	-9.5034
▁ዝ	-9.50403
ኳ	-9.50463
▁የሚከተሉት	-9.50465
ሻል	-9.50539
ስታ	-9.50551
▁መሆናቸው	-9.50559
▁ጠጅ	-9.50572
▁በህዝብ	-9.50697
▁፷	-9.50875
▁በእኛ	-9.50926
▁ገብቶ	-9.50975
▁የጋራ	-9.5114
▁እነ	-9.51147
▁ኢያሱ	-9.51228
▁ቀድሞ	-9.51294
ዶች	-9.51361
▁ሁኔታው	-9.51384
▁ተከታዮች	-9.51431
▁ለሰዎች	-9.51464
▁ለእናንተ	-9.51529
▁ጳጳስ	-9.51621
▁በፍጥነት	-9.51723
▁ልጄ	-9.51725
▁መምህር	-9.51817
ታይ	-9.5185
▁ወጥቶ	-9.51947
▁ተማሪ	-9.51987
▁ከቤት	-9.51998
▁ድ	-9.52015
▁በማይ	-9.52027
▁የሌላቸው	-9.52043
▁ጥላቻ	-9.5207
▁ከሁለት	-9.52181
▁በፀሎት	-9.52271
▁ፅህፈት	-9.52296
▁ወሳኝ	-9.52325
▁ከእንግዲህ	-9.5236
▁እዳ	-9.52418
▁ተገልጿል	-9.52536
▁ዶላር	-9.52537
▁ምስራቹን	-9.52585
ርስ	-9.52601
▁በእውነት	-9.52623
▁አጭር	-9.52632
▁የሀሰት	-9.52635
▁ከንቱ	-9.52701
▁እብራውያን	-9.52802
▁መድሀኒት	-9.52811
▁እንዲኖር	-9.5284
▁የልማት	-9.52879
▁በፍቅር	-9.52894
▁ተከትሎ	-9.52907
▁ሆኜ	-9.53015
▁ፅኑ	-9.53037
▁ብሎም	-9.53123
▁ጊዜም	-9.53135
▁በማሰብ	-9.53212
▁እናገኛለን	-9.53226
▁ሀዋርያት	-9.53247
ፈው	-9.5325
▁ትግል	-9.53259
▁ሮም	-9.53331
▁ሰለሞን	-9.53387
▁አስፈፃሚ	-9.53419
▁የጉባኤ	-9.53474
▁በተግባር	-9.53519
ገዛ	-9.53576
▁፳፻፲፩	-9.53612
▁ስላሴ	-9.53618
ገኙ	-9.53626
ዎቻቸው	-9.53689
▁ለመቀበል	-9.53692
▁እንዳላቸው	-9.53722
▁እንዲያደርጉ	-9.53727
▁እናቴ	-9.53886
ቻቸው	-9.53942
▁እንደምን	-9.5402
▁በአንተ	-9.54078
▁ሊሆኑ	-9.54113
▁የይሁዳ	-9.54188
▁መሀል	-9.54207
▁እንደሚችሉ	-9.54216
▁ስልጣንና	-9.54226
ሯቸው	-9.54342
ሰር	-9.54451
▁ዘላቂ	-9.54466
ስተ	-9.54468
▁አባታችን	-9.54477
▁መስከረም	-9.54482
▁ከእ	-9.54534
▁የማድረግ	-9.54544
ፈሩ	-9.54558
▁በይሁዳ	-9.54568
▁እኛን	-9.54597
ሰሙ	-9.54635
▁እረፍት	-9.54641
▁ድንግል	-9.54684
▁እርግጠኛ	-9.54757
▁ይኖርባቸዋል	-9.54792
▁እንግዳ	-9.54859
▁ሰማያዊ	-9.55004
▁የተፈጥሮ	-9.5514
▁በእድሜ	-9.55159
ተኞች	-9.5517
▁ባለሙያዎች	-9.55193
ዥ	-9.55237
▁ተልእኮ	-9.5532
▁የምግብ	-9.55335
ላይ	-9.55355
▁በጋራ	-9.55386
▁ለህዝብ	-9.55463
▁በተባለው	-9.55511
▁ምሁራን	-9.55544
▁ረ	-9.55621
▁ካሉ	-9.55638
ስብ	-9.55666
▁በእምነት	-9.5582
▁የሚደረግ	-9.55851
▁ለሁሉም	-9.56021
ሄዱ	-9.56026
ሰብ	-9.56049
▁ረጅም	-9.56095
▁ራስህን	-9.56153
▁ከጥቂት	-9.56223
▁ዴ	-9.56257
▁አጥ	-9.56285
▁እህቶች	-9.56312
▁ማታ	-9.56352
▁በሚለው	-9.5651
▁የአካል	-9.5654
▁እየጨመረ	-9.56545
ሰሩ	-9.56572
▁ዜጎች	-9.56578
▁ልታ	-9.56598
▁ቁ	-9.56618
▁ሰሎሞን	-9.56666
▁የለበትም	-9.56811
▁አቅኚ	-9.56921
▁ልጆችን	-9.56979
▁አስብ	-9.57003
▁በታማኝነት	-9.57043
▁ለመከላከል	-9.57203
▁የደም	-9.57227
ለህ	-9.57247
ቃል	-9.57265
▁የቀን	-9.57286
▁ኮሚሽን	-9.57308
▁የተሰራ	-9.57386
▁ምክንያታዊ	-9.5744
▁ራስን	-9.57471
▁ካሳ	-9.5751
▁በአግባቡ	-9.57533
▁ራ	-9.57584
▁ምርት	-9.57586
▁በሚመለከት	-9.57638
▁ቀለም	-9.57645
▁በጥንቃቄ	-9.57654
ሾ	-9.57662
▁ቅቧን	-9.57756
ከር	-9.57773
▁የተባሉ	-9.57842
▁አደረጉ	-9.57897
▁ቅድሚያ	-9.57973
▁እኩል	-9.58015
▁ጠላት	-9.58028
▁ህንፃ	-9.58209
▁በዘመነ	-9.58212
ጁ	-9.58273
ጄ	-9.58284
▁ይፋ	-9.58284
▁አእምሮ	-9.58296
▁የዚህን	-9.58541
ደርስ	-9.58585
▁የጊዜ	-9.58586
▁ደብረ	-9.5862
▁የተለያየ	-9.58654
▁በውጭ	-9.58659
▁ግንዛቤ	-9.58703
▁የሰ	-9.58734
▁ሀይለኛ	-9.58765
▁ማብራሪያ	-9.58766
▁ከግብፅ	-9.58879
▁ያልሆኑ	-9.589
▁ወዳጅ	-9.58904
▁መቅደሱ	-9.58929
▁ቤ	-9.58983
▁መዝገብ	-9.59067
በራ	-9.59082
▁በፅሁፍ	-9.59099
▁ምናልባትም	-9.59237
▁ሇ	-9.59239
▁የተዘጋጀ	-9.59286
▁ሙሴን	-9.59382
ጩ	-9.59451
▁ከመፅሀፍ	-9.59458
ግባ	-9.59513
▁ሞተ	-9.59598
ድን	-9.59666
ከረ	-9.59695
▁ትዳር	-9.59715
▁ያለንን	-9.59839
▁ንጉሥ	-9.59939
ቴን	-9.59946
▁ሽማግሌ	-9.59958
▁የራሱን	-9.59984
▁ጋራ	-9.60022
ሶች	-9.60032
▁አደርጋለሁ	-9.6012
▁መጥተው	-9.6013
▁ቅን	-9.60204
▁ሪ	-9.60235
▁መከላከያ	-9.60251
▁መምህራን	-9.60312
▁በዚያው	-9.60334
▁እስራት	-9.60409
▁የተሰጠ	-9.60502
▁በቃል	-9.60513
▁ሚካኤል	-9.60523
ዞ	-9.60549
▁የሚባለው	-9.60552
ሰጣቸው	-9.6065
▁መርሀ	-9.60654
▁ያደረጉት	-9.60723
▁ስላለው	-9.60849
▁ቃለ	-9.60854
▁ይደረጋል	-9.60865
▁ስትል	-9.60881
▁ቀኝ	-9.60904
▁ርቀት	-9.60917
▁አለን	-9.6092
▁ለእ	-9.60948
መል	-9.60955
▁እስር	-9.61078
▁ቴ	-9.61097
▁እውቅና	-9.61114
▁የመንግስቱ	-9.61116
▁ብን	-9.61119
▁እንስሳ	-9.61265
መረ	-9.61302
ወጡ	-9.6133
▁ዝግጁ	-9.6139
▁ከሰማይ	-9.61423
▁የሚሰራ	-9.61431
▁ስራዎችን	-9.6149
▁ተሳትፎ	-9.616
▁በሰዎች	-9.61757
ዯ	-9.61773
ጠጣ	-9.61776
▁መጠበቂያ	-9.61778
በሩ	-9.61796
▁ከሚያ	-9.61937
▁ኪ	-9.61963
▁ግጭት	-9.61964
▁የአፍሪካ	-9.61992
▁ዲያብሎስ	-9.62021
▁መገኘት	-9.62023
በል	-9.62031
▁ጥራት	-9.62073
ብል	-9.62186
▁የተለመደ	-9.62255
▁ሽ	-9.62291
▁ጥቅምት	-9.62381
▁በሚገኙ	-9.62449
▁ለእሱ	-9.62454
▁የሰራዊት	-9.6249
▁ሱ	-9.62533
▁ቢኖር	-9.62638
▁ይሄ	-9.62712
▁ማስተማር	-9.62789
▁ኤልያስ	-9.6281
▁በማስ	-9.62859
▁ሳን	-9.62906
▁የሚኖር	-9.62916
▁ኩ	-9.62936
ወራ	-9.62985
▁ልና	-9.63029
▁የኢ	-9.63044
▁የቀረበ	-9.63045
▁፸	-9.63211
▁ወዳጅነት	-9.63256
▁የወንጀል	-9.63262
▁አንተን	-9.63274
▁ገደብ	-9.63325
▁መርዳት	-9.63432
▁ዮሀ	-9.63509
▁ድንጋጌዎች	-9.63518
▁ለመፈፀም	-9.63538
▁በውሀ	-9.63561
▁እንዳለባቸው	-9.63593
▁ፍጥረታት	-9.63606
▁ጤናማ	-9.63739
▁መቀበል	-9.63774
▁በየእለቱ	-9.63783
▁ሰይፍ	-9.63783
▁የምስክር	-9.63795
▁አሰ	-9.6383
ኸው	-9.63887
▁በግብፅ	-9.63902
▁የቅዱስ	-9.64017
▁አማልክት	-9.6413
▁አብይ	-9.64132
▁መግቢያ	-9.64144
▁ዘመናዊ	-9.64159
▁ሄ	-9.64175
▁መከተል	-9.64209
▁ችላ	-9.64259
▁እርሱን	-9.64315
▁ሌሎቹ	-9.64355
▁የተደረገ	-9.64369
▁ማጥናት	-9.64378
ሞች	-9.64511
▁ሳይቀር	-9.6454
ጣሉ	-9.64744
ያችን	-9.64759
▁ታሪካዊ	-9.64976
▁የሚኖረው	-9.6498
መድ	-9.65008
▁ሰር	-9.65061
▁ፕሮፌሰር	-9.65123
▁ቴክኖሎጂ	-9.65159
▁ዝቅ	-9.65189
▁አመፅ	-9.65204
▁ገበያ	-9.65248
ታት	-9.65325
ቺ	-9.65383
,	-9.65506
▁አስተማማኝ	-9.65515
▁አሳልፎ	-9.6552
▁ተጠቃሚ	-9.65578
ከተ	-9.65653
▁የከተማ	-9.6567
ቦች	-9.65736
▁አመ	-9.65774
▁በመሄድ	-9.65793
▁የታሪክ	-9.65884
▁ጀመርኩ	-9.65914
▁ድርጊቶች	-9.65921
▁በመሆናቸው	-9.65956
▁ተናገረ	-9.66007
ላንድ	-9.6601
19	-9.6603
▁ተወካዮች	-9.66031
▁ከስራ	-9.66069
▁ሆነዋል	-9.66106
▁የማስ	-9.66142
▁ጥንቃቄ	-9.66212
▁ወደሚ	-9.66226
▁ከአለም	-9.66276
ሉት	-9.66304
▁ሰሜን	-9.66319
▁ከሁሉም	-9.66361
▁ይባላል	-9.66412
ወደ	-9.66466
▁አይችሉም	-9.66485
ሚያ	-9.6658
ፁ	-9.66593
▁እሁድ	-9.66631
▁አነጋገር	-9.66656
▁አይኖርም	-9.66669
ማት	-9.6668
▁ወሬ	-9.66727
ቷን	-9.66751
▁የሀ	-9.66824
▁ታዋቂ	-9.66896
▁ምንጮች	-9.66948
▁በየጊዜው	-9.66972
▁እንጨት	-9.66993
▁ቅር	-9.67133
▁በእናንተ	-9.67134
▁ማበረታቻ	-9.67217
▁በራሳቸው	-9.67235
▁ለአንተ	-9.6724
ኒያ	-9.67253
▁ሲታይ	-9.67319
▁መብቶች	-9.67323
▁ኬ	-9.67354
▁እንግዲያው	-9.67373
▁እኮ	-9.6743
▁ርስት	-9.67533
▁በመጨረሻ	-9.67579
▁ተነሳ	-9.67581
ረስ	-9.67596
▁አላት	-9.67704
▁ቡድኖች	-9.67708
▁ገብረ	-9.67733
▁ልጆቻቸው	-9.67735
▁ቦ	-9.678
▁ነጭ	-9.67851
▁ይኖር	-9.67854
▁ጆሮ	-9.67896
▁ሳኦል	-9.67908
▁ውል	-9.67916
▁ሰራ	-9.67979
▁መነሻ	-9.68017
▁ዳግመኛ	-9.68153
▁በያህዌ	-9.68202
▁መጡ	-9.68223
▁ማንነት	-9.68231
ከተል	-9.68235
▁ወደኋላ	-9.68263
ችበት	-9.68283
▁ተጠያቂ	-9.68314
▁መስማት	-9.684
▁ሰውየው	-9.6841
▁ስደት	-9.68453
ታለች	-9.68465
ኙ	-9.68478
▁መስቀል	-9.68516
ሮቹ	-9.68522
▁ዋናው	-9.6866
▁ሀገራት	-9.68699
▁በሚገኝ	-9.68738
▁አና	-9.68811
▁አፍቃሪ	-9.68812
▁ቲ	-9.68986
▁ሳት	-9.69001
▁ኳስ	-9.6911
▁ይገኙበታል	-9.69139
⁠	-9.69167
▁አዲሱ	-9.69216
▁ይኖረዋል	-9.69323
ደራ	-9.69361
▁ቃሉን	-9.6937
ዕ	-9.6938
▁ሪፐብሊክ	-9.69386
▁በሁለቱ	-9.69511
▁ባለስልጣኑ	-9.69519
▁ሽልማት	-9.69576
ማቸው	-9.69612
▁ጨለማ	-9.69711
▁እንዲያገኙ	-9.69758
▁ፅሁፎችን	-9.69884
ዎችና	-9.69891
▁የቀድሞ	-9.69902
▁ቶሎ	-9.69923
▁ምልክቶች	-9.69947
ገድ	-9.69947
▁አቤቱታ	-9.6998
▁አንድን	-9.70041
▁አድርጌ	-9.70199
▁እንጀራ	-9.70267
▁አንዱን	-9.70302
▁ሰልፍ	-9.70315
ውል	-9.70416
▁ድሀ	-9.70426
▁ላለው	-9.70473
▁ሂ	-9.70477
▁መንጋ	-9.70514
መለከት	-9.70628
▁ተከሳሽ	-9.70676
ሃ	-9.70708
▁ኢትዮጵያዊ	-9.70728
▁በጥንት	-9.70746
▁ፅሁፋዊ	-9.70773
▁አስተማሪ	-9.7078
▁ታቦት	-9.70912
▁መስመር	-9.70981
▁ጉባኤዎች	-9.71045
ፈረ	-9.71071
▁ማስታወቂያ	-9.71089
▁ችሎት	-9.71217
▁በሉ	-9.71238
▁ወስዶ	-9.71352
▁የኤ	-9.71378
▁ዝናብ	-9.714
ለም	-9.71403
▁ነፋስ	-9.71445
▁በወ	-9.71462
ጠብቅ	-9.71469
▁ቁርጥ	-9.71503
▁ጠቅላላ	-9.71539
▁ጥላ	-9.71563
▁እነማን	-9.71572
▁ዞን	-9.71649
ሇ	-9.71726
▁ባቢሎን	-9.7173
▁እጣ	-9.71747
ቀድ	-9.71824
▁አሜን	-9.71896
▁ይኖራሉ	-9.71987
▁ስለማ	-9.72034
▁አማራጭ	-9.72093
ዘን	-9.72141
▁መስፈርቶች	-9.72158
▁ምኞት	-9.7218
▁አሳዛኝ	-9.7225
▁ትችላላችሁ	-9.72374
▁ፆታ	-9.72398
▁በአንድነት	-9.72433
ጽ	-9.72475
▁ጠዋት	-9.72507
▁ጳጳሳት	-9.7255
▁ለማረጋገጥ	-9.72705
▁ያለባቸው	-9.72742
▁፡	-9.72752
▁ተቀ	-9.7277
▁ነቢያት	-9.72893
▁ለማሳየት	-9.7298
▁የኢኮኖሚ	-9.72985
▁ቡ	-9.73005
▁የሰጠውን	-9.73014
▁ኢን	-9.73035
▁ሄዶ	-9.73049
▁ድንኳን	-9.73087
▁አቤቱ	-9.73097
ዘጋ	-9.73102
ላቸውን	-9.73104
▁እንቅልፍ	-9.7325
▁ሊያደርግ	-9.73373
▁ነዉ	-9.73391
▁ዘግቧል	-9.73477
▁አውራ	-9.73499
▁ይዟል	-9.73511
▁ይታወቃል	-9.73536
▁ወታደራዊ	-9.73658
▁ድፍረት	-9.73738
▁እህል	-9.73768
▁ከእግዚአብሄር	-9.73807
▁ቆ	-9.73946
▁የመንፈስ	-9.74002
▁ሆና	-9.74014
ረን	-9.74119
▁ባለቤቴ	-9.74139
▁ነጥቦች	-9.74264
▁የገዛ	-9.74344
▁የሚከተሉትን	-9.74351
ፋቸው	-9.74356
▁የሚፈልጉ	-9.74414
▁ቀና	-9.74456
▁ለህዝቡ	-9.74489
▁ወዲያው	-9.74496
▁ምድብ	-9.7455
ችሁን	-9.74613
ካል	-9.74668
▁ይኖሩ	-9.74669
▁ደረሰ	-9.74705
▁አምላካችን	-9.74796
▁ሶ	-9.74804
▁በሀ	-9.74818
▁መታ	-9.74898
▁ዩ	-9.74928
▁አንቺ	-9.74964
ፖ	-9.75011
▁ዘመቻ	-9.75067
ብራ	-9.75084
▁ሙዚቃ	-9.75203
▁ተግሳፅ	-9.75387
ጥሩ	-9.75435
▁ከምድር	-9.75447
▁ተርፎ	-9.7546
▁ለመሆኑ	-9.75535
▁አየ	-9.75565
▁ጄ	-9.75569
▁ለረጅ	-9.75598
▁ኑ	-9.75603
ዳቸው	-9.7561
▁የመሬት	-9.75676
▁በእነሱ	-9.75725
▁ዋስትና	-9.75788
▁ለፊት	-9.75864
▁የምትችለው	-9.759
▁ሌ	-9.75965
▁እጁን	-9.76009
▁በኢ	-9.76013
▁የሚሰጡ	-9.76051
▁፴፰	-9.76056
▁ጣቢያ	-9.76079
ከብ	-9.76102
▁የመጡ	-9.76117
▁ለማቅረብ	-9.76165
ለመ	-9.76166
▁የሚገቡ	-9.76245
▁የኢየሱስን	-9.76267
▁ምስል	-9.76295
▁ክርስቶስን	-9.76312
▁ክቡር	-9.76314
▁ከነበረው	-9.76353
▁የመጣው	-9.76439
ቀመጥ	-9.76439
▁መላው	-9.76461
▁ህፃን	-9.76525
▁ናችሁ	-9.76573
ሰጠው	-9.76633
▁ነቢይ	-9.76726
▁ስብከቱ	-9.76752
▁ከኢትዮጵያ	-9.76774
ልክ	-9.76831
▁አይነቶች	-9.76856
▁ጭ	-9.76857
▁የሚያሳዩ	-9.76869
ብረ	-9.76922
▁፵፭	-9.76922
▁፴፮	-9.76932
▁ቦርድ	-9.76946
▁ከእነርሱ	-9.77031
▁ገዥ	-9.7714
▁በግል	-9.77141
▁ቀርቦ	-9.77257
▁ዮርክ	-9.77271
▁እንቅፋት	-9.773
▁መንግሥት	-9.77315
▁ልጆቻቸውን	-9.77378
ጋል	-9.77448
▁ፖለቲካ	-9.7751
▁እንዱ	-9.77547
▁አው	-9.77627
▁እኔና	-9.77648
▁ስምንት	-9.7765
e	-9.77702
▁የፍርድ	-9.77723
▁በታላቅ	-9.77737
▁የጥናት	-9.77744
▁አካሄድ	-9.77808
▁እንግሊዝኛ	-9.77833
▁ሲመጣ	-9.77854
ቃቸው	-9.77877
ቶቻቸው	-9.77879
▁ውጥረት	-9.7788
▁ድንጋጌ	-9.77888
▁የግድ	-9.77915
▁ታማኝነት	-9.77923
▁በሰሜን	-9.78021
▁አካላዊ	-9.78088
▁ሊያስ	-9.78151
▁አድርገህ	-9.78206
▁የፍቅር	-9.78273
▁ሚስቱ	-9.78314
▁ዲሞክራሲያዊ	-9.78315
▁በብዛት	-9.78329
ዷ	-9.7837
ፈት	-9.78383
▁✔	-9.78462
▁ካላ	-9.78501
▁ከብዙ	-9.7855
▁ቤቱን	-9.78661
አቸው	-9.78797
▁ደግ	-9.78839
▁ጥምቀት	-9.78841
ገረ	-9.78868
ደረ	-9.78881
ረግ	-9.79025
▁የመረጃ	-9.79033
▁አስኪያጅ	-9.79045
▁በውስጡ	-9.79253
ውንም	-9.79326
▁የልብ	-9.79356
ንድ	-9.79397
▁ክህነት	-9.79416
▁ሸለቆ	-9.79551
▁ፎቶ	-9.79596
▁የመጠበቂያ	-9.79669
▁የስጋ	-9.79689
▁መግባት	-9.79748
▁ግርማ	-9.79754
▁ቅርፅ	-9.79766
▁ካላቸው	-9.79807
▁ታላላቅ	-9.79822
▁ሲሄድ	-9.7983
▁ክልሎች	-9.79878
▁ቡና	-9.79885
▁በቅርብ	-9.8004
▁ነገስት	-9.80115
▁እንቅስቃሴዎች	-9.80148
▁በቀስ	-9.80228
▁ፊ	-9.80275
▁የትኞቹ	-9.80318
ዳን	-9.80343
ደርግ	-9.80351
ቀበሉ	-9.80375
ራሉ	-9.80515
▁መንደር	-9.80713
▁የቅርብ	-9.8074
▁ሄዱ	-9.80749
በቃ	-9.80819
▁ፍቅራዊ	-9.80879
ልቅ	-9.80898
▁ሲደርስ	-9.80906
▁እንዲችሉ	-9.80918
ጆ	-9.80993
▁መስሎ	-9.80998
▁በየቀኑ	-9.81003
፻	-9.81018
▁በሚቀጥለው	-9.81045
▁መሰል	-9.81106
▁ኦቭ	-9.81298
▁በድጋሚ	-9.81348
▁ወይን	-9.81354
ጠሩ	-9.81387
▁ተወ	-9.81604
▁ሰማያት	-9.81637
ያዊ	-9.81643
ላሉ	-9.81675
▁እሷ	-9.81692
▁የሚሰሩ	-9.81741
መጡ	-9.81771
▁ያህዌን	-9.8183
ለኝ	-9.8184
▁የወ	-9.81887
▁ዓክልበ	-9.81914
በስ	-9.81932
▁ማህበር	-9.81962
▁ከሆኑ	-9.81969
▁ግቢ	-9.82096
ፈልግ	-9.82257
▁አህዛብ	-9.82328
▁ግንቦት	-9.82351
▁ከሆነው	-9.82407
▁አንድም	-9.82412
▁ስና	-9.82431
▁ጌታችን	-9.82479
▁ጨ	-9.82489
▁ባለሙያ	-9.82528
▁የሚያደርጉት	-9.82597
ፈን	-9.82671
▁ያቀርባል	-9.8277
▁ችሏል	-9.82771
▁ተደ	-9.82834
▁ማናቸውም	-9.82848
ጠበቅ	-9.82851
▁አስታወቀ	-9.82856
▁የሚያስችሉ	-9.82877
▁ራሳቸው	-9.82879
▁ለመሄድ	-9.82903
▁ሙከራ	-9.82919
ደግ	-9.82937
ግብ	-9.8294
▁ግድ	-9.82956
ራችሁ	-9.82968
ሰል	-9.82987
▁ተመ	-9.83028
ብር	-9.83031
▁በዩናይትድ	-9.83081
▁ባሻገር	-9.83084
▁መረጃዎችን	-9.83136
▁ልምድ	-9.83137
▁ሶስተኛ	-9.83139
▁ምዝገባ	-9.83187
▁ምእራብ	-9.83198
▁ሻ	-9.83271
▁ኤስ	-9.83292
▁ወደዚህ	-9.83346
▁በመከራ	-9.83356
ሯል	-9.83403
▁የእኔ	-9.83551
ገለ	-9.83599
▁ፒ	-9.83611
▁ስለመ	-9.83623
▁በመካከላቸው	-9.83633
ረገ	-9.83646
▁የአስተዳደር	-9.83706
▁ወልደ	-9.83813
▁አንዳች	-9.83871
▁በማቅረብ	-9.83937
▁ለማጥፋት	-9.84
ሆኑ	-9.84015
ዎን	-9.84049
▁ዘሮች	-9.84055
▁መላ	-9.84065
▁አሳይቷል	-9.84071
ወስድ	-9.84078
ከፍ	-9.84096
ዳል	-9.84111
▁በነፃ	-9.84214
▁ርእሶች	-9.84286
▁ዛፎች	-9.84288
▁የራሱ	-9.8431
▁ማረጋገጥ	-9.84379
▁አማ	-9.8438
▁ብልግና	-9.84389
ነትን	-9.84433
▁ዝርያዎች	-9.84451
▁መጨረሻው	-9.84498
▁ሰኔ	-9.84545
▁የምርጫ	-9.84554
ሰጡ	-9.84567
▁ተገቢውን	-9.84577
▁ፋ	-9.84672
▁ውሎ	-9.84685
ስራ	-9.84698
▁መሰረተ	-9.84754
▁ላከ	-9.84817
▁ግፍ	-9.84828
▁ገዳም	-9.84856
▁ጣ	-9.84876
▁ሄዋን	-9.8489
ፈፀሙ	-9.8491
ሰረ	-9.84984
▁የዘር	-9.85002
▁መኮንን	-9.8509
▁ይፈልጋል	-9.85235
ቀረ	-9.85274
▁የተባበሩት	-9.85299
▁በቅዱስ	-9.85313
▁በትእግስት	-9.85382
▁በየትኛው	-9.85382
▁የጎደለው	-9.85384
ጥል	-9.85488
▁ካህናቱ	-9.85508
ጠየቅ	-9.85522
▁ወደዚያ	-9.85524
▁እርካታ	-9.8553
▁የተጠቀሰው	-9.85531
▁እውን	-9.85535
▁ሁኔታውን	-9.85587
▁ካልተ	-9.85603
▁ሂሳብ	-9.85606
▁በገዛ	-9.85641
ሊን	-9.85662
ጠረ	-9.85688
▁ዶ	-9.85717
▁አቅራቢያ	-9.85801
▁ቆዳ	-9.85808
▁አይቻልም	-9.85899
▁ጥናቶች	-9.85964
▁ለመናገር	-9.85973
▁ግፊት	-9.8605
ስማማ	-9.86101
▁ተቀምጦ	-9.86194
▁ፓትርያርክ	-9.8621
▁ከነበሩት	-9.86242
▁ጫና	-9.86243
▁የሚበልጡ	-9.86268
▁ለሁለት	-9.86268
▁መደምደሚያ	-9.8629
▁አመራሮች	-9.86309
▁በቀን	-9.86347
▁ሮሜ	-9.86347
▁እንዳሉት	-9.86358
ዘር	-9.8636
▁ስለነበረ	-9.86472
▁ግንባር	-9.86551
▁ከእስራኤል	-9.86558
a	-9.86566
▁ህሊና	-9.86596
▁እንክብካቤ	-9.86639
▁ያውቃሉ	-9.86643
▁የሚሉት	-9.86648
▁እርሻ	-9.86671
▁ድረ	-9.86681
▁ክፋት	-9.86708
▁እባክህ	-9.86714
▁የወርቅ	-9.86741
▁በአገልግሎት	-9.86744
▁የመንግስቱን	-9.8676
▁ረቂቅ	-9.86785
▁ነበራቸው	-9.86792
▁እር	-9.86825
▁ተክል	-9.86856
ዳር	-9.86866
▁በእንግሊዝኛ	-9.86898
▁ሊኖር	-9.86947
▁መቃብር	-9.86953
▁የቀ	-9.86979
▁የራሳቸውን	-9.87022
▁ከልክ	-9.87027
▁ቁሳዊ	-9.87165
▁ይጠይቃል	-9.87167
▁ኣ	-9.87169
▁የፍትህ	-9.87201
ፈጠሩ	-9.87215
ሊያ	-9.87246
ገል	-9.87248
▁የሀገር	-9.8729
▁ቢሆኑ	-9.87297
▁ተብሏል	-9.87311
▁ለእርሱ	-9.87368
ሀለሁ	-9.87407
▁አድሮ	-9.87449
▁ውብ	-9.87471
▁እሷም	-9.8749
ፍር	-9.87552
▁ስልክ	-9.87584
▁ይሰማቸዋል	-9.87617
▁ስርጭት	-9.87618
▁መድረክ	-9.87623
▁የተባለች	-9.87642
ወሰዱ	-9.87648
▁ልመና	-9.87681
▁እርምጃዎች	-9.87722
ፈለ	-9.87729
▁ይታያል	-9.87763
▁ኤጀንሲ	-9.8788
▁ሀያ	-9.87945
ኖሩ	-9.87956
▁፹	-9.87983
▁ሰንበት	-9.87984
▁መዝሙሮች	-9.87988
ወር	-9.87993
▁ሎ	-9.88007
▁የሙዚቃ	-9.88063
▁መንግስታዊ	-9.88097
▁እንዲሰጥ	-9.88124
ተካ	-9.88175
▁ዳይሬክተር	-9.88219
▁ጆን	-9.88227
▁ያሰ	-9.883
▁ሶስቱ	-9.88329
▁ሆነን	-9.88332
▁ያለብን	-9.88342
▁ህይወታቸውን	-9.88354
▁እውነተኛው	-9.884
▁አፈር	-9.88402
ፈፅም	-9.88437
ሼ	-9.88474
▁ነሀሴ	-9.88487
▁ቆሞ	-9.88504
ውቅ	-9.88559
▁እርግጠ	-9.88588
ነብ	-9.88647
▁አለች	-9.88654
▁አልባ	-9.88721
▁እንዳን	-9.8873
▁መለኮታዊ	-9.88743
▁ጥንካሬ	-9.88745
▁መገናኛ	-9.88762
▁ኖሀ	-9.88863
▁ጥቅሶች	-9.88934
▁ባለበት	-9.89023
▁ጨርሶ	-9.89052
▁የተረጋገጠ	-9.89081
ቨር	-9.89093
▁ደስተኞች	-9.89095
▁ይሰ	-9.89196
▁ማሀበራዊ	-9.89202
▁ይሰራል	-9.89205
▁ይቀ	-9.89223
▁አዳ	-9.8932
▁ኢየሱስም	-9.8934
▁ያለፈ	-9.89353
▁ሉ	-9.89358
▁እንደሌለ	-9.89379
▁ትናንት	-9.8939
▁ላለ	-9.89433
▁ለሚያ	-9.89437
ግራ	-9.89481
ሾች	-9.89484
▁ብርታት	-9.89546
ፊያ	-9.89602
▁ጉዳዮችን	-9.89618
▁የተሳሳተ	-9.89648
▁ርኩስ	-9.89663
▁ሮ	-9.89749
▁ተነስተው	-9.89823
▁ፓትርያርኩ	-9.89828
▁ማረፊያ	-9.89881
▁ብዙሀን	-9.89894
▁ደሴት	-9.89986
ጣቸው	-9.90024
ሩን	-9.90163
ሩት	-9.90167
▁ሀያል	-9.90197
▁ተመልሶ	-9.903
ኳቸው	-9.90347
▁እንዲኖራቸው	-9.90412
ከት	-9.90418
ጠር	-9.90436
▁የክርስቲያን	-9.90438
▁ቁልፍ	-9.90445
▁ጌ	-9.90452
▁ይህንኑ	-9.9047
▁ጀ	-9.9047
▁አመታዊ	-9.90483
▁አሳቢነት	-9.90484
ፔ	-9.90489
▁አውቃለሁ	-9.90511
▁የተያያዙ	-9.90523
▁ህይወቱን	-9.90528
▁ፖለቲካዊ	-9.90617
▁ትእግስት	-9.90628
▁የሀዋርያት	-9.90664
▁ምስክርነት	-9.90722
ያህ	-9.90773
▁ጤንነት	-9.9082
ዓ	-9.90822
▁አንደኛ	-9.90882
ሏ	-9.90941
▁እረኛ	-9.90946
▁በስጋ	-9.90955
ዮች	-9.91021
▁ጊዮርጊስ	-9.91025
▁ልባዊ	-9.91061
▁ወለደ	-9.91086
▁ቅጥር	-9.91114
▁የተወሰኑ	-9.91131
▁ጫፍ	-9.91154
▁በርሳቸው	-9.91205
▁ጥብቅ	-9.91208
ባር	-9.91231
ይዝ	-9.91288
▁ደርሶ	-9.91305
▁ለማስወገድ	-9.91366
▁ብርቱ	-9.91492
▁መግዛት	-9.91504
▁የከፋ	-9.91548
▁ሰጪ	-9.91561
▁ቪ	-9.91572
ረት	-9.91609
▁በቀለ	-9.91634
የስ	-9.91651
▁የሚቀርብ	-9.91656
▁ይችል	-9.91709
▁በስፋት	-9.91913
▁ለመቋቋም	-9.91931
ረፍ	-9.9196
▁አምላክህ	-9.92
▁ጋብቻ	-9.92044
ደርሱ	-9.92062
▁ይሰጠናል	-9.92069
▁አጋ	-9.92078
▁ለእስራኤል	-9.92124
▁እትም	-9.92136
▁ባለመ	-9.92192
ረሳ	-9.92235
▁አላህ	-9.92235
▁ሆስፒታል	-9.92256
▁መቆጣጠር	-9.92277
ኞቹ	-9.92417
ጠን	-9.92461
ገባቸው	-9.92524
▁ስያሜ	-9.92541
▁አድራሻ	-9.92545
s	-9.92625
▁እንደሚቻለው	-9.92642
▁ማመልከቻ	-9.92671
▁እንደተጠበቀ	-9.92673
▁የማን	-9.92737
▁ኢኮኖሚ	-9.92773
ራችን	-9.92795
▁ወይንም	-9.92801
▁ዩናይትድ	-9.92828
▁ሆን	-9.93006
▁መሪነት	-9.93007
▁የመከላከያ	-9.93038
▁ቱ	-9.93191
ኡ	-9.93222
▁ለመፍታት	-9.93254
መቱ	-9.93294
▁ፀ	-9.93309
▁ሀምሌ	-9.93345
ጓዝ	-9.93354
▁ጎንደር	-9.93367
▁ውጤቶች	-9.93417
▁አመቺ	-9.93423
ጠይቅ	-9.9343
▁ካስ	-9.93469
▁ቅድመ	-9.93511
▁ልቡ	-9.93633
▁በዘመናችን	-9.93639
▁በመግለፅ	-9.93653
▁ተራሮች	-9.93769
▁ዳቦ	-9.93784
ሞላ	-9.93837
መለከቱ	-9.93856
▁እናውቃለን	-9.93893
▁፳፻	-9.93934
▁ከሆኑት	-9.93935
▁መሰዊያ	-9.93946
▁ቆይቷል	-9.93976
▁ጂ	-9.94049
▁፪፻	-9.9406
ፍራ	-9.94085
ናውያን	-9.94134
ቬ	-9.94153
መጥ	-9.94187
▁ተፈታታኝ	-9.94213
መሩ	-9.94231
▁እነዚያ	-9.94287
▁የሚገኙትን	-9.94322
▁ምስጢር	-9.94454
▁ማውጣት	-9.94456
▁ሁኑ	-9.94469
▁ብላችሁ	-9.94489
የን	-9.94501
ኗ	-9.94534
▁የፅድቅ	-9.94671
▁ወላጅ	-9.94688
▁የተባሉት	-9.94691
▁ሰላምና	-9.94694
▁ከሶስት	-9.94697
▁ጥቅሞች	-9.94699
▁አስፈላጊውን	-9.94703
▁በባህር	-9.94726
▁ካርታ	-9.94764
▁በአሜሪካ	-9.94847
▁ወሰን	-9.94864
▁ፈጣን	-9.94915
▁ችለዋል	-9.94947
▁ችግሮችን	-9.94961
▁የገባ	-9.95015
▁አቀረበ	-9.95121
▁ፖ	-9.95156
▁ራሴን	-9.95174
▁ትግራይ	-9.95222
▁ለመመለስ	-9.95247
▁በድፍረት	-9.95344
▁የሚኒስትሮች	-9.95405
▁ጣልቃ	-9.95436
▁ማለቱ	-9.95444
ሚስተር	-9.95461
▁አደባባይ	-9.95477
መልስ	-9.95541
▁ጌታዬ	-9.95558
▁መንስኤ	-9.95585
▁ትንቢቶች	-9.95587
▁ፕሬዝዳንት	-9.95617
ፈታ	-9.95657
ለዋል	-9.95663
▁እንድንችል	-9.95697
▁እፅ	-9.95735
▁ድርጅቱ	-9.95811
▁ይሄዳል	-9.9584
▁ተፈፃሚ	-9.95892
▁ቦርዱ	-9.96002
በዛ	-9.96029
ጋት	-9.96046
▁በቁጥጥር	-9.96077
▁ካህኑ	-9.9614
ያቸውን	-9.96202
ኝም	-9.96202
▁ሀይማኖቶች	-9.96216
▁አስታውቋል	-9.96242
▁ፊደል	-9.96245
ዉን	-9.96264
▁አብረን	-9.96271
ሰላ	-9.96274
▁ተመልካች	-9.9637
▁በጌታ	-9.96394
▁ኢትዮጵያን	-9.964
▁እንዳስ	-9.96409
▁ሁ	-9.9642
▁ስላል	-9.96433
አት	-9.96524
▁ኡ	-9.96531
▁ለኢትዮጵያ	-9.96547
▁ፈርኦን	-9.96556
▁ገፅታ	-9.96597
▁ምሳሌዎች	-9.9664
▁ምድረ	-9.96685
▁ምድራዊ	-9.96698
ኽ	-9.96732
▁ለመግለፅ	-9.96734
ጪ	-9.96767
▁ማከናወን	-9.96776
▁እንደማ	-9.96793
፼፳፻፲፪	-9.96817
▁ታውቋል	-9.96817
▁የሚጠይቅ	-9.96846
በሉ	-9.96874
ሏል	-9.96907
▁መጠጥ	-9.96909
▁ሳይንስ	-9.96931
ፈስ	-9.9694
▁የመሆን	-9.96994
▁በምስራቅ	-9.97011
▁ምርጥ	-9.97027
▁መቅረብ	-9.9703
ቀጣ	-9.97054
▁የተሟላ	-9.97054
▁ክርክር	-9.97068
▁የሚሰጠውን	-9.97132
▁ቀጠሮ	-9.97147
▁ተከታታይ	-9.97148
▁አገልጋዮቹ	-9.97209
▁በድንገት	-9.9723
▁መርከብ	-9.9724
▁ከኢየሱስ	-9.97267
▁በልዩ	-9.97289
▁ማዳበር	-9.97317
ያዙ	-9.97359
▁አያውቅም	-9.97395
▁ችግሩ	-9.97399
▁፴፱	-9.97405
▁ሰጥቶ	-9.97421
ዘው	-9.97456
▁መጋቢት	-9.9746
▁ትብብር	-9.97477
▁ያገኛሉ	-9.97477
▁የሙያ	-9.97523
▁እየሰራ	-9.97579
▁ሊባል	-9.97622
▁ክትትል	-9.97643
▁ሚልዮን	-9.97644
▁በቃ	-9.97673
▁መከላከል	-9.97693
▁ከየት	-9.97698
▁ፍጥነት	-9.97745
▁ትሁት	-9.97761
▁ፈር	-9.97781
▁ሙታን	-9.97803
▁በመባል	-9.97822
▁በተወሰነ	-9.9786
▁ዘዴዎች	-9.9787
▁ክርስቲያናችን	-9.97878
▁ወቅታዊ	-9.97893
▁የመሰለ	-9.97916
▁ውስጣዊ	-9.97976
▁በምድረ	-9.97985
▁ጃ	-9.98033
▁ሰማ	-9.98042
▁ዮ	-9.98046
ባይ	-9.98082
▁ሰውነት	-9.98084
▁ልጆቻችሁ	-9.98133
▁ታስ	-9.98139
▁በግለሰብ	-9.98143
▁ግለሰቡ	-9.98232
▁አጠቃቀም	-9.98287
▁ቆሮ	-9.98398
ቀን	-9.98445
ያዝ	-9.98489
▁በመከተል	-9.98567
ዘጋጅ	-9.98601
▁ማሳ	-9.98656
▁ኤፌሶን	-9.9873
▁፵፪	-9.98733
▁ተጠ	-9.98798
▁መዋጮ	-9.98832
▁፵፬	-9.98864
ደረግ	-9.98898
▁ፔ	-9.98921
ረድ	-9.98969
▁በመስራት	-9.98972
▁አማርኛ	-9.98983
ክል	-9.99005
▁በጥሩ	-9.99018
▁ግብረ	-9.99045
▁የነበራቸው	-9.99127
▁መኖሩን	-9.99132
▁ለእነሱ	-9.99137
▁ማመን	-9.99211
▁እጥፍ	-9.99249
▁መቀጠል	-9.99282
▁ማሻሻያ	-9.99327
ስር	-9.99329
▁ብቻውን	-9.99354
▁የሀጢአት	-9.99355
ቧ	-9.99365
▁የእሱ	-9.99391
▁ፅ	-9.99478
▁ንድፍ	-9.995
ዪ	-9.99544
ቃሉ	-9.99576
▁የጌታ	-9.99634
▁አንዳቸው	-9.99713
ሰዋል	-9.99734
▁ተስማሚ	-9.99737
▁ለማከናወን	-9.99762
▁ሏላዊው	-9.99795
▁የሚመራ	-9.9983
▁19	-9.99852
▁ይዘት	-9.99865
▁ረዳት	-9.99906
▁ሚዛናዊ	-9.99912
▁እንባ	-9.99985
▁ስርአቱ	-10
▁ደረጃዎች	-10.0001
▁አልቻለም	-10.0008
▁የክልል	-10.0008
▁ትህትና	-10.0022
▁የእሱን	-10.0023
▁እያንዳንዳቸው	-10.0025
▁የፀጥታ	-10.0025
▁መታሰቢያ	-10.0028
▁ለያህዌ	-10.0034
▁የአእምሮ	-10.0034
፦	-10.0035
▁አስተዳዳሪ	-10.0037
▁በሁለተኛው	-10.0037
▁ዛ	-10.0042
▁በረከቶች	-10.0045
▁በፊቱ	-10.0049
▁የተሰሩ	-10.0051
▁ቅዳሜ	-10.0052
▁ደራሲ	-10.0057
▁ሄደው	-10.0058
▁በሶስት	-10.006
ቤቱ	-10.0069
▁ለእነዚህ	-10.0072
ርቅ	-10.0082
▁የጠበቀ	-10.0082
▁ኤል	-10.0083
▁ለየት	-10.0084
▁የሚኖሩት	-10.0085
▁የሳይንስ	-10.0085
ልኛል	-10.0086
▁ጠባቂ	-10.0091
ነግ	-10.0091
▁በስነ	-10.0102
▁ፀረ	-10.0105
▁የሚረዱ	-10.0106
▁ለማስ	-10.011
▁የኦሮሞ	-10.0111
▁ፍጥረት	-10.0111
▁የጥፋት	-10.0119
ሰለ	-10.0127
▁እንዲኖረው	-10.0128
▁የእብራይስጥ	-10.0128
▁የቻለው	-10.013
ጣት	-10.013
▁ያደርግ	-10.0134
▁መመለስ	-10.0138
▁ክርስቲያንን	-10.014
▁፳፻፰	-10.0147
ጠላ	-10.0158
▁መዝሙራዊው	-10.0159
▁ተመራማሪዎች	-10.016
ደሰት	-10.0164
▁እዘአ	-10.0171
ድሩ	-10.0173
▁ብልፅግና	-10.0176
ጠቃ	-10.018
▁እንደዚያ	-10.018
▁ደካማ	-10.018
▁የላቸውም	-10.0193
▁በሀይል	-10.0196
▁ያሳያሉ	-10.0197
▁የምንለው	-10.0198
▁ያምናሉ	-10.0198
▁ለመድረስ	-10.0198
▁ለማስፈፀም	-10.0206
የር	-10.0207
▁ሳቢያ	-10.0212
▁ብቁ	-10.0213
▁የተገኘው	-10.0213
▁ካህን	-10.0214
▁፵፩	-10.0222
▁ማህበረሰብ	-10.0224
▁ጠባይ	-10.0226
ቻል	-10.0227
ገብ	-10.023
▁ስለሚያ	-10.024
ያለሁ	-10.0241
▁ስፋት	-10.0245
▁ተክለ	-10.0245
▁እንዴ	-10.0247
▁ሳል	-10.0252
▁ደቂቃ	-10.0253
▁አዘጋጅ	-10.0255
▁ሰዎቹ	-10.0264
ነካ	-10.0265
▁የተሞላ	-10.0279
ኀ	-10.0282
▁ታውቃለህ	-10.0285
▁፺	-10.0285
▁ዘላለማዊ	-10.0291
▁በፈቃደኝነት	-10.0293
ያስ	-10.0294
ላችን	-10.03
▁ታሪኮች	-10.0303
▁ብረት	-10.0306
▁ያስገኛል	-10.0311
▁ምቹ	-10.0315
▁ባሪያዎች	-10.0326
▁ጉድጓድ	-10.0331
▁በሬ	-10.0332
ለሁ	-10.0339
▁ሀኪም	-10.0341
▁ሚኒስቴሩ	-10.0346
ነታችን	-10.0347
መት	-10.0347
▁ህልውና	-10.0349
ግር	-10.0355
ሙት	-10.0363
▁ልጃችሁ	-10.0363
ርያ	-10.0364
▁የራስ	-10.0365
መታ	-10.0366
▁በአፍሪካ	-10.0368
▁ስለማይ	-10.0368
▁በመያዝ	-10.0371
▁አገራት	-10.0373
▁ሁኔታዎችን	-10.0374
ረሱ	-10.0375
▁መዳን	-10.0378
▁በማሳየት	-10.0379
▁ችግሩን	-10.0381
▁ተከ	-10.0382
▁ሚስቶች	-10.0384
▁አንተስ	-10.0385
▁የሰውነት	-10.0389
▁አደጋዎች	-10.0389
ገነባ	-10.0389
▁በተለየ	-10.039
▁ጊዜያዊ	-10.039
▁በሙሴ	-10.0391
▁በሰ	-10.0394
▁የሙሉ	-10.0395
ራን	-10.0395
▁በራስ	-10.0398
▁ጥቁር	-10.0399
▁አወጣ	-10.0401
ወለድ	-10.0403
▁ሌላውን	-10.0416
▁ንጉሱም	-10.0417
ጎዳ	-10.0423
▁አልጋ	-10.0427
ነጋገር	-10.0427
▁ጨዋታ	-10.0428
▁ይዞታ	-10.0429
▁የሚደርስ	-10.0432
▁የፀና	-10.0432
▁እንዲኖሩ	-10.0435
ሳሉ	-10.0438
▁ያገኘነው	-10.0448
▁በህይወታችን	-10.0448
ገነዘብ	-10.0451
ዲያ	-10.0451
▁፭፻	-10.0451
▁ሹ	-10.0453
በረታታ	-10.0455
▁ቅሬታ	-10.0457
▁የለሽ	-10.046
ገልፅ	-10.0462
▁የኦ	-10.0467
▁ይመስል	-10.0468
▁ውጊያ	-10.0472
▁፫፻	-10.0473
ከፋ	-10.0475
▁=	-10.0478
▁አገኘ	-10.0487
▁ቢሊዮን	-10.0488
▁በይፋ	-10.0491
ቂያ	-10.0495
▁ማድረጉ	-10.0506
▁የመኖር	-10.0507
▁ፃድቃን	-10.0512
ከስ	-10.0513
▁ለሌላ	-10.0513
ስል	-10.0517
ነስ	-10.052
▁በሀገር	-10.0521
ሞቱ	-10.0522
▁እንደነዚህ	-10.0524
▁ከወ	-10.0526
▁ያስፈልገናል	-10.0533
▁በሰይፍ	-10.0533
▁መውጣት	-10.0533
▁ልባቸው	-10.0537
▁ይዘ	-10.054
▁የሚደረገው	-10.054
▁ወፎች	-10.0543
▁ማድረጋችን	-10.0551
▁በቅ	-10.0553
▁መፃህፍትን	-10.0554
▁ከማድረግ	-10.056
▁፳፻፲	-10.0561
▁ኮሚቴው	-10.0566
ያት	-10.0568
▁በቤተሰብ	-10.058
▁መሀመድ	-10.0583
▁ሳራ	-10.0584
▁ድንበር	-10.0588
▁የካቲት	-10.0592
▁ከውጭ	-10.0597
▁እዚያው	-10.0603
▁ቃሉ	-10.0604
▁ጠላቶች	-10.0604
ከብር	-10.0605
▁ሀሴት	-10.0607
▁ይፈልጋሉ	-10.061
▁ፈቃደኞች	-10.0614
▁የቆየ	-10.0614
▁የምክር	-10.0616
ቆሙ	-10.0616
▁ያላት	-10.0617
▁ትርፍ	-10.0619
▁የሌለበት	-10.0622
ታው	-10.063
▁አሰጣጥ	-10.0632
▁ገብተው	-10.0634
ነፃ	-10.0635
▁የአይሁድ	-10.0641
▁አዎንታዊ	-10.0644
ታዘዝ	-10.0644
▁የፋይናንስ	-10.0645
ቃት	-10.0649
▁የሰብአዊ	-10.065
▁እጥረት	-10.0652
▁ሰነዶች	-10.0654
▁ቴሌቪዥን	-10.0655
ሐ	-10.0664
▁መፅሀፉ	-10.0665
▁የሚፈልግ	-10.0665
▁ይፈ	-10.0667
▁ሂድ	-10.067
▁የሆነችው	-10.0675
▁ቆይታ	-10.0679
▁ይጠ	-10.0681
▁የሰውን	-10.0682
ካፈል	-10.0684
ዎት	-10.0684
▁ተናግራለች	-10.0686
ርቶ	-10.0691
ቸዋለሁ	-10.0695
▁ቁጥራቸው	-10.0696
▁ማስረጃዎች	-10.0696
▁አደራ	-10.0697
▁እያስ	-10.0703
▁የተያያዘ	-10.0704
ፋት	-10.0705
▁የሚመጣ	-10.0713
▁ጠብቆ	-10.0717
▁የማት	-10.0724
▁እንዲያደርግ	-10.0726
▁ለስራ	-10.0727
▁ፖሊሲ	-10.073
▁አስፈላጊነት	-10.073
▁የማይችል	-10.073
▁ተከታይ	-10.0734
▁ቀጥ	-10.0741
▁ምሁር	-10.075
▁ያገኘው	-10.0752
▁በመቀጠል	-10.0752
▁የጀመረው	-10.0752
▁የሚያገለግሉ	-10.0754
▁ከተማዋ	-10.0756
▁በዝርዝር	-10.0759
▁በከፊል	-10.076
▁ህዝቡም	-10.0767
▁አንበሳ	-10.0772
▁እየሆነ	-10.0784
▁እንደሚመጣ	-10.0793
ጠጡ	-10.0793
▁ስራቸውን	-10.0794
ቷቸው	-10.0795
▁ቶ	-10.0798
▁በሰጠው	-10.0799
▁ሊቃነ	-10.0805
▁ቅዱሳዊ	-10.0806
▁አድርጋችሁ	-10.0808
ብስ	-10.0809
▁ግዙፍ	-10.0815
የም	-10.0828
▁ዘመኑ	-10.0831
▁በእያንዳንዱ	-10.0833
▁የአውራጃ	-10.0833
▁ጩኸት	-10.0833
▁አስተ	-10.0839
g	-10.084
▁የኮ	-10.0849
▁ከሰዎች	-10.0849
ህንም	-10.0852
▁የእድሜ	-10.0855
▁መቼም	-10.0856
▁ገዢ	-10.0856
▁የሚቻለው	-10.0859
▁አስታውስ	-10.0861
▁የብር	-10.0862
▁እንደተናገረው	-10.0864
▁አቅርቦት	-10.0867
▁ከቤተ	-10.0868
▁የደቡብ	-10.087
▁የእስራኤልን	-10.0874
▁የጥምቀት	-10.088
▁በህዝቡ	-10.0887
መለሱ	-10.0888
▁አክሎ	-10.0889
▁የተናገረውን	-10.089
▁መገንዘብ	-10.09
▁ትላልቅ	-10.0907
▁ኢንዱስትሪ	-10.0911
▁ባስ	-10.0911
▁ከተለያዩ	-10.0924
ደረጉ	-10.0924
▁ወላጆቼ	-10.0926
▁ውድድር	-10.0928
▁ብታ	-10.0939
▁ላሉት	-10.0942
i	-10.0952
▁ገለፀ	-10.0954
ፇ	-10.0954
▁የተደረገው	-10.0955
ዣ	-10.0959
▁ተፈጥሮ	-10.0964
ገሩ	-10.0973
▁የመሳሰሉ	-10.0983
▁በታሪክ	-10.0983
▁ቤታቸው	-10.0983
በርካታ	-10.0989
መኝ	-10.0991
▁ውበት	-10.0991
▁አመጣ	-10.0996
▁ክብደት	-10.1001
▁ማዶ	-10.1002
▁ስለሆኑ	-10.1011
▁ጉልበት	-10.1013
▁የምርመራ	-10.102
▁ሰጥተዋል	-10.1021
▁ዝርያ	-10.1025
ረዋል	-10.1029
▁ዝቅተኛ	-10.1029
▁ከሞተ	-10.103
▁ዘጠኝ	-10.1032
▁እንድንሆን	-10.1043
ገፋ	-10.1046
▁ማስወገድ	-10.1049
▁ምልአተ	-10.1049
▁ፈተናዎች	-10.1052
ለፍ	-10.1052
▁ለቤተ	-10.1052
▁የልጅ	-10.1057
▁ዘገባዎች	-10.1061
▁አለመሆኑን	-10.1063
ሳችሁ	-10.1068
▁አክ	-10.1071
▁የተገኙ	-10.1072
▁ከአዲስ	-10.1076
▁ለራሱ	-10.1076
▁የሚናገረው	-10.1076
▁እናደርጋለን	-10.1077
ሰኝ	-10.1077
▁አንችልም	-10.1086
▁መቅ	-10.1089
▁ይደ	-10.1089
▁ውሳኔዎች	-10.1092
ቲክ	-10.1093
▁ተያይዞ	-10.1096
▁እንዳለብን	-10.1098
▁ሁን	-10.1112
▁የማግኘት	-10.1114
▁ፍፅምና	-10.1115
▁ፓርቲዎች	-10.1118
▁ጎጂ	-10.1119
▁ተወዳዳሪ	-10.112
▁ስሞች	-10.1123
▁ስኬታማ	-10.1124
▁ተደርገው	-10.1124
▁እኤአ	-10.1125
▁ዳዊትን	-10.1129
ጠቁ	-10.113
▁ኢኮኖሚያዊ	-10.1133
▁ለጊዜው	-10.1134
ፈፀም	-10.1137
▁አግኝተዋል	-10.1145
▁በተደረገው	-10.1152
▁የመጨረሻው	-10.1156
▁በሽታዎች	-10.1157
▁የጠቅላይ	-10.1157
▁ያደርጉ	-10.1157
▁ተመልካቾች	-10.1162
▁የአካባቢው	-10.1163
▁ኒ	-10.1163
▁ለመያዝ	-10.1166
ሱን	-10.1175
▁ውሸት	-10.1182
ስተር	-10.1195
▁የአካባቢ	-10.1198
▁ፍለጋ	-10.12
▁ፀንቶ	-10.1201
▁ወቅዱስ	-10.1201
ሕ	-10.1202
▁ያዘ	-10.1207
▁ያደረጉ	-10.1213
▁መቀ	-10.1218
▁አዋቂ	-10.1221
▁መን	-10.1225
▁ጊ	-10.1225
▁አያያዝ	-10.1227
▁የስብከት	-10.1229
▁ቢሆኑም	-10.1231
▁ነዋሪ	-10.1233
▁በፍርድ	-10.1235
▁ጠቀሜታ	-10.1239
▁ለእያንዳንዱ	-10.1239
▁አግባብነት	-10.1247
▁ተለይቶ	-10.1249
▁ኩባንያ	-10.126
▁ታዛዥ	-10.1263
▁ከመጠን	-10.127
▁ይህንንም	-10.1275
ዮን	-10.1275
▁ይጠበቃል	-10.1278
▁በትጋት	-10.1278
▁ባዶ	-10.1278
▁፶፭	-10.1286
▁የሚያሳየው	-10.1286
▁የሰዎችን	-10.1287
ኋቸው	-10.1295
▁ሊያስከትል	-10.1298
▁በመንገድ	-10.1299
▁ሊያደርጉ	-10.1301
▁በተለያየ	-10.1307
▁ስሙን	-10.1315
ደም	-10.1315
▁የመጡት	-10.1316
▁ሸክም	-10.1317
▁የሚሰራው	-10.1318
▁እንዲቀጥል	-10.1324
▁የተሰጠውን	-10.1328
o	-10.133
▁የሚያስፈልገውን	-10.1332
▁አንዷ	-10.1339
ቶችን	-10.1341
▁የእኛ	-10.1343
▁የክልሉ	-10.1343
▁የፖሊስ	-10.1345
▁ለዚህም	-10.1346
ጠቀሙ	-10.1347
ርድ	-10.1347
▁በምሳሌ	-10.1358
ፈልጉ	-10.1361
▁እንዲያስ	-10.1364
▁እንድናደርግ	-10.1366
▁ዓመት	-10.1369
▁ባህላዊ	-10.1375
▁ነገሩ	-10.1377
▁ወዳጆች	-10.1377
▁ክፍት	-10.1378
ገኘ	-10.1382
▁ወዳድነት	-10.1382
▁፵፫	-10.1384
ቀል	-10.1386
▁መፀለይ	-10.1391
▁ያወጣ	-10.1394
▁ተደርጓል	-10.1394
:	-10.1403
▁የሳይበር	-10.1404
▁1	-10.141
▁እችላለሁ	-10.1414
▁የግንባታ	-10.1414
ቤት	-10.1415
▁ተናገሩ	-10.1415
▁ገብርኤል	-10.1418
▁እላችኋለሁ	-10.1418
▁በአማራ	-10.142
▁ለፍርድ	-10.1422
▁በትኩረት	-10.1424
▁የሀሳብ	-10.1426
ማሉ	-10.1427
ቀለ	-10.1429
▁ደመወዝ	-10.1438
▁ወደሚገኘው	-10.1444
▁ወጥተው	-10.1448
ይቱ	-10.1455
▁የሰማይ	-10.1456
▁የሌሎች	-10.1456
ተኛው	-10.1461
ሰቡ	-10.1462
▁የካ	-10.1465
▁ፍቺ	-10.1467
▁ትተው	-10.147
ሣ	-10.1473
ሟላ	-10.1478
ገባው	-10.1478
ጧ	-10.1481
ደለ	-10.1481
▁ለመስማት	-10.1483
ነፍ	-10.1484
ነገር	-10.1484
▁እያደገ	-10.1486
▁በቤት	-10.1486
▁ለመውሰድ	-10.1487
▁ትቶ	-10.1491
▁ሊይ	-10.1491
▁ሀሰተኛ	-10.1502
▁የካቶሊክ	-10.1502
▁የታክስ	-10.1504
▁የሰዎች	-10.1507
▁የሚበልጥ	-10.1508
▁የሁሉ	-10.151
ላን	-10.1513
▁አምላኬ	-10.1513
ፏ	-10.1514
▁ይገባናል	-10.1514
ደነ	-10.1517
ቤል	-10.1521
ገራ	-10.1522
▁ከሚገኘው	-10.1526
▁መዛግብት	-10.1528
ቶቹን	-10.1529
▁አምላካዊ	-10.1532
▁ይታ	-10.1532
ባብ	-10.1537
▁ለሚገኙ	-10.154
▁መግለፅ	-10.1542
▁̈	-10.1542
▁ትርጓሜ	-10.1552
▁ይሻላል	-10.1552
▁አስገራሚ	-10.1557
ወች	-10.1561
▁እውነተኛውን	-10.1563
▁ከምን	-10.1565
▁አውሮፕላን	-10.1566
ነታቸውን	-10.1569
ረብ	-10.157
▁ጉብኝት	-10.1572
▁ለመፍጠር	-10.1572
▁የሚረዳ	-10.1573
▁አጋጣሚዎች	-10.1575
▁የሞት	-10.1576
▁ሴራ	-10.1576
ታመን	-10.1582
▁ቫይረስ	-10.1585
▁ይተ	-10.1591
ሰስ	-10.1591
▁እንዲኖረን	-10.1592
መደብ	-10.1592
▁ሀብታም	-10.1593
▁አማካሪ	-10.1594
▁ነክ	-10.1597
▁ክርስቲያኒቱ	-10.1598
▁ዳዊትም	-10.1606
▁ሲገልፅ	-10.1607
▁የኦሮሚያ	-10.1612
▁ደን	-10.1612
ርክ	-10.1615
▁ዳኛ	-10.1621
▁በፅናት	-10.1622
▁●	-10.1622
▁ከሚገኙ	-10.1623
▁በተሻለ	-10.1624
▁ወልድ	-10.1631
▁ግድያ	-10.1637
▁በጥብቅ	-10.1642
▁ለማስተማር	-10.1642
▁እብ	-10.1643
ሸን	-10.1647
▁ሊኖረው	-10.165
▁የተጠቀሱት	-10.1651
▁ማሀበረሰብ	-10.1652
▁ሙቀት	-10.1652
▁ሚያዝያ	-10.1653
▁ከተማው	-10.1653
ኖቹ	-10.1655
▁ቤተሰቡ	-10.1655
▁በመጣ	-10.1656
▁እንዳላ	-10.1657
ፋል	-10.1666
▁እንድትሆን	-10.1668
ነዋል	-10.1673
▁የደ	-10.1677
▁ፆም	-10.168
ዠ	-10.1681
▁ዓመታት	-10.1682
▁ይሰማኛል	-10.1683
▁ወጥመድ	-10.1683
▁እንደሚሉት	-10.1691
ቈ	-10.1694
ሪዎች	-10.17
▁ማህበራዊ	-10.17
▁ህዝባዊ	-10.1702
▁የባ	-10.1709
መለከተው	-10.1715
ጓጓ	-10.1718
የት	-10.1724
ነን	-10.1724
▁ንባብ	-10.1725
▁አዛዥ	-10.1733
▁የተፃፈ	-10.1735
ቆይ	-10.1742
▁እንደገለፀው	-10.1743
አለሁ	-10.1743
ነቃ	-10.1744
ጠቀ	-10.1745
▁የሚከተለው	-10.1749
▁ሩት	-10.1751
▁እስከሚ	-10.1753
▁የግብፅ	-10.1754
▁ወጡ	-10.1756
▁የዳዊት	-10.1757
▁ወግ	-10.1757
▁ርዝመት	-10.1763
▁በላ	-10.1764
▁ውሀው	-10.1766
▁የሞ	-10.1767
ብኛል	-10.1769
p	-10.1773
▁ፋንታ	-10.1776
▁ኤሊ	-10.1778
▁በገንዘብ	-10.1782
▁ሀይሉ	-10.1783
▁የአገር	-10.1785
ጣራ	-10.1789
ለይ	-10.1791
▁ይታወሳል	-10.1793
▁ዝግጅቶች	-10.1794
ዘጋጁ	-10.1794
ደገ	-10.1796
መላለስ	-10.1797
▁ተጠቅሞ	-10.1803
▁ተአምራት	-10.1803
ኪያ	-10.1804
▁የሚገባውን	-10.1823
▁ወዳለው	-10.1824
▁እናቱ	-10.1825
▁ማሳሰቢያ	-10.183
▁ፊልም	-10.1835
▁በሰፊው	-10.184
▁የኤርትራ	-10.1841
▁በትህትና	-10.1844
▁ንቅናቄ	-10.1844
▁ይቀጥላል	-10.1844
ኮች	-10.1847
▁ከሌላ	-10.1848
ለማ	-10.185
▁አሸናፊ	-10.1851
▁ጫማ	-10.1862
▁እንዲያገኝ	-10.1863
▁ሬ	-10.1864
▁ህወሀት	-10.1865
ድረ	-10.1866
ራዊ	-10.1869
ፈል	-10.1873
▁ትእዛዛት	-10.1874
▁አለማ	-10.1874
ኸኝ	-10.1876
ነር	-10.1876
ዘመ	-10.1878
▁መለያ	-10.1882
▁የሚታየው	-10.1883
▁ሶስተኛው	-10.1884
▁የእጅ	-10.1885
▁ዙፋን	-10.1885
▁አስፋፊዎች	-10.189
▁በተፈጥሮ	-10.1891
ወርድ	-10.1894
ቀመጡ	-10.19
▁አቀፉ	-10.1903
ባችን	-10.1903
▁ከገፅ	-10.1904
▁መስፈርት	-10.1906
▁ያደርገዋል	-10.1906
ካቸው	-10.1906
▁ሚዲያ	-10.1911
▁አብዛኛው	-10.1913
▁በአላት	-10.1914
▁የወረዳ	-10.1916
▁በአስራዎቹ	-10.1918
▁ናቸው።	-10.1922
▁3⁄4	-10.1923
▁በደ	-10.1926
▁ሰጠው	-10.1933
▁ቻይና	-10.1938
▁ያገኙ	-10.194
ቻችን	-10.1942
▁አዝ	-10.1944
▁ተሀድሶ	-10.1944
ጋባ	-10.1945
▁አፄ	-10.1946
▁አላውቅም	-10.1947
▁ያጣ	-10.1947
▁ወደሆነው	-10.1948
▁ቻይ	-10.1952
▁ድንኳኑ	-10.1953
▁የባቢሎን	-10.1957
▁ቦታው	-10.1959
▁ባለቤቱ	-10.1962
▁ጐ	-10.1966
ወልድ	-10.1966
ከበሩ	-10.1967
▁ህይወታቸው	-10.1967
▁ደሴቶች	-10.1969
▁፲፱፻፲፬	-10.197
▁ጓደኞች	-10.1973
▁የሰጠ	-10.1974
▁ጥበበኛ	-10.1976
▁ቀረ	-10.1979
▁ዱ	-10.1979
በለ	-10.1986
▁የትግራይ	-10.1987
ግስ	-10.1992
▁ምትክ	-10.1993
▁በሚሊዮን	-10.1999
ችውን	-10.2001
▁በሀይማኖት	-10.2008
▁ቆሻሻ	-10.2011
▁ለመጠቀም	-10.2017
▁የደህንነት	-10.202
▁በእነርሱ	-10.2031
መኑ	-10.2031
▁ባላ	-10.2034
▁የደረሰ	-10.2034
▁ቅጂ	-10.2041
ወሰድ	-10.2041
▁በአዲሱ	-10.2041
▁ለማድረስ	-10.2042
▁ንጥረ	-10.2043
▁ለማዳን	-10.2045
▁ወንድሞቻችን	-10.2046
▁ይግባኝ	-10.2051
ኝነት	-10.2053
▁እንደምታ	-10.2054
▁አስፀያፊ	-10.2056
▁ተገለፀ	-10.2061
▁ማስታወሻዎች	-10.2061
ሟል	-10.2066
▁፷፭	-10.2072
▁ይሰጣሉ	-10.2073
ገን	-10.2073
▁ሆናችሁ	-10.2074
▁ይሉ	-10.2077
▁የሚስማማ	-10.2078
ሪስ	-10.2085
▁ኤፍሬም	-10.209
▁ጀርመን	-10.209
▁መምጣት	-10.2093
▁ዘርፎች	-10.2106
▁ትልቁ	-10.2108
▁ከዋክብት	-10.2109
▁ንፅህና	-10.211
▁ያውቅ	-10.2111
▁ጎላ	-10.2112
▁የተገለፀው	-10.2113
▁ልጆቹን	-10.2114
▁አልቻሉም	-10.2114
▁መስተዳድር	-10.2115
▁የሚወዱ	-10.2116
▁በአመት	-10.2118
▁ህዝቅያስ	-10.2124
▁በካ	-10.2125
ፈለግ	-10.2127
ሰሩት	-10.2128
▁መፍጠር	-10.2135
ላክ	-10.2143
▁ቅንአት	-10.2146
▁ስማ	-10.2152
▁ነች	-10.2155
▁ለመቆጣጠር	-10.2158
ላዊ	-10.2161
▁ስርአተ	-10.2167
▁ይገባዋል	-10.2169
▁ከታች	-10.2172
▁ዮናታን	-10.2172
▁በአጭር	-10.2183
▁መለየት	-10.2187
▁፵፰	-10.2188
ዎቻቸውን	-10.2189
▁ገዛ	-10.2191
▁የግሪክኛ	-10.2191
▁አገልግሎቶች	-10.2192
▁ጠብ	-10.2196
▁ሰሚ	-10.22
መለ	-10.2207
▁አነሳሽነት	-10.2209
▁በነበሩት	-10.2209
▁ሆነች	-10.2211
▁ያው	-10.2215
▁ያንን	-10.2216
▁ማሀበረ	-10.2219
▁ለማምጣት	-10.222
ላስ	-10.2222
▁የጎ	-10.2225
▁የወደፊት	-10.2225
▁ከሚገኙት	-10.2228
▁ፅዋ	-10.2232
▁ማክበር	-10.2233
ቶቻችን	-10.2234
▁ይለ	-10.2235
▁የሚታይ	-10.224
ፀና	-10.2241
▁ሞክር	-10.2245
▁ሀገራዊ	-10.2245
▁በጉ	-10.2249
ፈለጉ	-10.2251
▁ልውውጥ	-10.2251
▁ሞትን	-10.2255
ሠ	-10.2257
ገነ	-10.2259
▁የመጀመሪያዎቹ	-10.226
▁በሚስማማ	-10.226
▁በአገሪቱ	-10.2263
ገኘው	-10.2264
▁በታ	-10.2265
▁ለውጦች	-10.2266
▁ሰፈር	-10.2269
▁የሰይጣን	-10.227
▁በክርስቲያናዊ	-10.2273
▁ሰጣቸው	-10.2274
▁ስለዚህም	-10.2274
ራራ	-10.2275
▁የሚያመለክት	-10.2277
▁እንደመሆኑ	-10.2279
▁አምባሳደር	-10.228
▁መክብብ	-10.2282
▁ማሳደግ	-10.2283
▁የሞተ	-10.2287
▁የኤሌክትሪክ	-10.2293
ደረስ	-10.2294
ገዙ	-10.2298
▁ያሳየው	-10.2301
▁እንደነበረው	-10.2307
▁መምሪያ	-10.2307
▁ኦሮሞ	-10.2313
▁እድሜው	-10.2317
ላችኋል	-10.2319
▁ሀሳቦችን	-10.232
▁አበ	-10.2326
▁ሳምንታት	-10.2328
▁ኖ	-10.2331
▁አንዴ	-10.2333
▁በመግባት	-10.2337
▁ተእለት	-10.2337
ግረ	-10.2338
▁እንደሆነና	-10.2348
▁አየሁ	-10.235
ዷል	-10.2356
ማይ	-10.2357
▁በደም	-10.236
▁ትርጉሙ	-10.2368
▁ጥርጣሬ	-10.2369
ፎች	-10.2373
▁እረኞች	-10.2374
▁አለችው	-10.2379
▁የሚመጣው	-10.2391
▁ተደረገ	-10.2408
▁ሊረዳን	-10.2417
▁ነበረበት	-10.2418
▁አራቱ	-10.2419
▁ግድብ	-10.2421
▁ይልቁንም	-10.2423
▁የደረሰው	-10.2423
▁የሰራ	-10.2425
ብናል	-10.2426
ታችንን	-10.2427
ቀዋል	-10.2428
▁የዱር	-10.2435
ለዩ	-10.244
ቱም	-10.244
▁በበኩላቸው	-10.2445
▁ገፆች	-10.2445
▁ራሳችሁን	-10.2447
ታዘዙ	-10.2457
▁ይደረግ	-10.2458
ታዩ	-10.2464
▁ነጠላ	-10.2465
▁አጥብቆ	-10.2467
▁ለይቶ	-10.2469
▁ማጥፋት	-10.2469
▁በአለ	-10.2473
▁በመውሰድ	-10.2476
▁ለተወሰነ	-10.2487
▁ከፍታ	-10.2488
ሰብክ	-10.249
▁አስከፊ	-10.2491
▁በዚህች	-10.2493
▁ኤርትራ	-10.2494
▁በማገልገል	-10.2503
ከናወኑ	-10.2505
▁መሰ	-10.2512
▁መመርመር	-10.2518
ፈጠር	-10.2518
ግል	-10.2519
▁ቀረጥ	-10.2519
▁አምላካችሁ	-10.2521
▁አሮን	-10.2521
መረጥ	-10.2523
▁ያለበትን	-10.2525
▁ከማንኛው	-10.2525
▁በሞ	-10.2526
▁በዋና	-10.2526
ታወቁ	-10.2528
▁ርሀራኄ	-10.2528
ገደሉ	-10.2528
▁ለሆኑ	-10.2529
▁ያስችለናል	-10.2532
ረዱት	-10.2534
ጠይቀው	-10.2535
ራለች	-10.2538
ነቅ	-10.2538
ከል	-10.2539
▁ከቅርብ	-10.2542
▁መመስረት	-10.2543
▁ደመና	-10.2548
▁ሊሰጥ	-10.255
ደስ	-10.2551
ያችሁ	-10.2551
▁ምስ	-10.2553
▁አርአያ	-10.2554
▁ተቀብሎ	-10.2557
▁የቀረበው	-10.2557
ንዳ	-10.2558
▁እንደሚያደርግ	-10.2559
▁የተፃፈው	-10.256
▁ላሉ	-10.2561
▁በኤ	-10.2573
▁አረጋዊ	-10.2574
▁የመስጠት	-10.2574
ባባ	-10.2576
ሀት	-10.2576
▁የክርስትና	-10.2576
▁አውጥቶ	-10.2576
▁ግማሽ	-10.2582
▁አራ	-10.2583
▁ኮሌጅ	-10.2587
▁ያገኘ	-10.2587
ጫወት	-10.2587
▁በዘመኑ	-10.2588
▁ይነ	-10.259
▁ጆ	-10.2597
▁ቢኖርም	-10.2602
መዝ	-10.2602
ዮስ	-10.2604
▁መካፈል	-10.2604
▁ማዘጋጀት	-10.2609
▁ለሆኑት	-10.2612
▁ቀጥተኛ	-10.2613
▁እያደረገ	-10.2613
▁የሚናገር	-10.2614
▁ክርስቲያኑ	-10.2615
▁ቴዎድሮስ	-10.2618
▁ያገኛል	-10.2622
▁የተናገሩት	-10.2624
▁እስራኤላውያንን	-10.2625
▁የአገሪቱ	-10.2626
▁በምትገኘው	-10.2627
▁ከብር	-10.2627
ገናኝ	-10.2628
▁ሳሉ	-10.263
▁በቀጣይ	-10.2632
ኹ	-10.2641
▁አደ	-10.2642
▁ሲናገሩ	-10.2643
▁የትኛውን	-10.2645
ብሮ	-10.2647
▁መንገዱ	-10.2648
▁ዋነኛው	-10.2649
▁ከህዝቡ	-10.2649
ምባ	-10.265
▁ጥፋተኛ	-10.2654
▁ደሀንነት	-10.2654
▁ለማሻሻል	-10.2655
▁፵፮	-10.2656
ከፋፈል	-10.2659
▁ህይወቱ	-10.2662
▁እንደሚለው	-10.2664
▁አወ	-10.2671
▁ይረዳል	-10.2672
▁ሲሰማ	-10.2676
ጻ	-10.2678
▁ተፈ	-10.2688
ደብ	-10.2689
▁©	-10.2689
▁ተአምር	-10.2694
▁ተመለሱ	-10.2703
▁ስሜ	-10.2706
▁ሚስዮናውያን	-10.2708
ደሩ	-10.2711
▁በእስር	-10.2711
▁ማውጫ	-10.2711
▁የሌሎችን	-10.2712
▁የተደነገገው	-10.2713
▁ኮን	-10.2719
▁አቅኚዎች	-10.2719
▁እውነቱን	-10.272
▁አቀፋዊ	-10.272
▁ደርሷል	-10.2721
▁ተገ	-10.2723
▁የያዘው	-10.2727
▁አይነቱን	-10.2733
▁ዮናስ	-10.2737
▁የሚመለከት	-10.2742
▁ዝሙት	-10.2744
ስቱ	-10.2744
▁ሼር	-10.2744
▁በአካል	-10.2745
▁ዜጋ	-10.2747
▁መብላት	-10.2751
▁በጥልቅ	-10.2752
▁የአብርሀም	-10.2754
▁በተቻለ	-10.2755
ፈፅሙ	-10.2756
▁፬፻	-10.2756
ዳችሁ	-10.2757
▁በከተማዋ	-10.2762
▁፵፯	-10.2766
▁አሊ	-10.2775
▁ድንገት	-10.2777
▁ካንሰር	-10.2777
ጮ	-10.2778
▁ሸዋ	-10.278
▁በዘ	-10.278
▁ትላለች	-10.2782
ኮር	-10.2786
▁፲፱፻፺	-10.2787
▁ለመግባት	-10.2788
▁ተናግሮ	-10.2788
▁ለማጠናከር	-10.2789
▁ዚ	-10.2792
▁አድርጋ	-10.2792
▁ወንድሜ	-10.2794
▁የወጣው	-10.2802
ሶቹ	-10.2804
▁ኮከብ	-10.281
▁ደንቦች	-10.2814
▁በክብር	-10.2816
▁እገዛ	-10.283
▁እምብዛም	-10.2833
▁ለሶስት	-10.2833
▁ፅፈዋል	-10.2833
▁ብቸኛ	-10.2836
ዶቹ	-10.2843
▁በንጉሱ	-10.2844
▁ያደረገውን	-10.2844
▁ስምኦን	-10.2847
▁ሳይሆኑ	-10.285
▁የቅዱሳን	-10.2852
▁ቄስ	-10.2855
▁መል	-10.2856
▁ለመወጣት	-10.2858
▁የተስፋ	-10.2859
▁ተመልሰው	-10.286
▁አመስጋኝ	-10.2866
ወል	-10.2868
▁የሀይል	-10.2868
ቆላስይስ	-10.2873
▁ሌላኛው	-10.2883
▁እንበል	-10.2887
▁በጉጉት	-10.2889
▁መቀመጫ	-10.289
ቀባ	-10.2899
▁ስብሰባው	-10.2899
▁እንደገለፁት	-10.2901
▁የሚያገኙት	-10.2905
ሰማው	-10.2905
▁ለመወሰን	-10.2907
▁የሚታወቀው	-10.2908
ክሩ	-10.291
ሷ	-10.291
▁የቃል	-10.2912
▁የመማር	-10.2915
አይ	-10.292
▁ለሆነው	-10.292
▁እንጅ	-10.2923
▁በመናገር	-10.2924
▁ልባም	-10.2924
▁ሽፋን	-10.2924
▁ለመቀጠል	-10.2925
▁ለሌላው	-10.2925
ዊው	-10.2926
ገላ	-10.2926
▁ግቦች	-10.2927
ሏት	-10.2928
በረታ	-10.2929
▁ይመልከቱ	-10.2935
▁የእሳት	-10.2938
አልና	-10.2945
▁ሁለቱን	-10.2948
ችኋለሁ	-10.2951
▁ጋዜጠኛ	-10.2956
ለትን	-10.2958
▁ሀረግ	-10.2958
▁ነገዶች	-10.2961
▁የተሞላበት	-10.2964
18	-10.2965
▁ወዘተ	-10.2969
▁መጥቷል	-10.297
▁እንደምንችል	-10.2971
▁ህዝበ	-10.2972
▁ግዴታዎች	-10.2972
▁መደብ	-10.2978
ጸ	-10.2984
▁ተወዳጅ	-10.2994
ገደ	-10.2995
▁እየተደረገ	-10.2996
▁የውስጥ	-10.2996
▁ስላለ	-10.2998
ልሽ	-10.3
▁ኤልሳእ	-10.3004
▁ከቶ	-10.3014
▁የሚረዳን	-10.3019
u	-10.302
▁አርብ	-10.3023
▁ፍልስፍና	-10.3025
▁ሰላምታ	-10.3026
▁አልቀረም	-10.3028
እንደ	-10.303
ዎቻችን	-10.3032
▁በተደረገ	-10.3035
ፅናና	-10.3036
መካ	-10.3037
▁የሰንበት	-10.3038
▁ወዴት	-10.3038
▁ከማስ	-10.3038
▁ቀዶ	-10.3052
▁ሀይለ	-10.3058
▁እንዲሰሩ	-10.3058
ሜን	-10.306
▁ይገ	-10.3062
▁የእለት	-10.3063
▁የሴት	-10.3063
▁የምትኖር	-10.3064
▁ተናገር	-10.3065
▁የያዙ	-10.3065
▁ውስብስብ	-10.3073
፼፳፻፲፩	-10.3073
▁የሚያሳዝነው	-10.3074
ረዳው	-10.3081
ጠብ	-10.3083
▁ይችሉ	-10.3086
▁እናንተን	-10.309
▁ባለፈ	-10.3094
▁ላለመ	-10.3094
▁ቀርበው	-10.3097
ሳብ	-10.3098
▁ሰቅል	-10.3099
▁ስንት	-10.3102
▁በመልካም	-10.3104
ጀመር	-10.3105
▁ታሀሳስ	-10.3108
▁ይበ	-10.3109
▁ከፊት	-10.311
▁ከመንግስት	-10.3111
▁ፍትሀዊ	-10.3115
▁ልማዶች	-10.3115
▁በማናቸውም	-10.3116
▁ዲግሪ	-10.312
▁ወፍ	-10.3121
▁ቅርብ	-10.3126
▁የወጡ	-10.3126
▁ይኖሩታል	-10.3127
▁የከተማው	-10.3132
ዋት	-10.3137
ቃችሁ	-10.3138
ጠየቁ	-10.3139
ا	-10.3141
ተማመን	-10.3144
▁ውዳሴ	-10.3146
ክት	-10.3146
▁ይል	-10.3148
▁ተሽከርካሪ	-10.315
▁ቤቴል	-10.3151
▁ያዝ	-10.3152
▁የሚፈፀም	-10.3153
ራቱ	-10.3154
▁በክርስቲያን	-10.3155
▁በጥ	-10.3156
ማዊ	-10.3156
▁ታህሳስ	-10.3158
▁ስትሆን	-10.3161
▁ጋሻ	-10.3163
ኮን	-10.3168
ዋቸው	-10.3168
ካት	-10.3169
▁ፈታኝ	-10.3169
▁የሞቱ	-10.3169
▁የእነዚህ	-10.3172
▁በቅዱሳን	-10.3173
▁ጀርባ	-10.3175
ጨነቅ	-10.3175
▁አውሮፓ	-10.3182
▁ፈንታ	-10.3184
ረቡ	-10.3186
▁አቅርበዋል	-10.319
▁በእጁ	-10.3191
▁ስራቸው	-10.3193
ጋራ	-10.3194
▁የሴቶች	-10.3196
▁መድሀኒቶች	-10.3197
▁ማጣት	-10.3201
▁ያቀረበው	-10.3202
▁ሌሎችም	-10.3205
▁ሙሴም	-10.3206
▁አጣ	-10.3209
ልኩ	-10.3211
ከናወን	-10.3214
▁፳፻፱	-10.3215
ዋጋ	-10.3215
▁በዛ	-10.3217
▁የተገኙት	-10.3219
ኋ	-10.322
▁ክርስቲያኖችን	-10.3222
▁ዘመድ	-10.3225
▁መብራት	-10.3226
▁ቤታችን	-10.3229
▁ሲሄዱ	-10.323
ደል	-10.323
▁አካ	-10.323
▁ለሞት	-10.3235
▁ድካም	-10.3236
ሷል	-10.3239
▁ብቅ	-10.3241
▁የአሰራር	-10.3242
ነበብ	-10.3246
▁ፊልጵስዩስ	-10.3248
▁ተመልከቱ	-10.3248
▁ቀርቧል	-10.3248
▁እንደማያ	-10.3249
▁የተዘጋጁ	-10.3251
▁ዴሞክራሲያዊ	-10.3251
▁መዋቅር	-10.326
▁ምሳሌያዊ	-10.3266
▁ቅርስ	-10.3269
▁አስተዋይ	-10.3271
▁ፈሪሳውያን	-10.3271
▁እስራኤልን	-10.3272
▁የዛሬ	-10.3273
▁በአገር	-10.3274
ጠቅ	-10.3276
▁የያህዌን	-10.3277
▁የኔ	-10.3279
ጳ	-10.3279
ወቁ	-10.3281
▁በኦሮሚያ	-10.3283
▁ዞር	-10.3284
▁በጊዜው	-10.3285
▁ቅጂዎች	-10.3288
▁የጥንት	-10.3289
▁በተሰጠው	-10.3292
ጎች	-10.3295
▁የመነጨ	-10.3295
▁ገላ	-10.3296
▁ቆመ	-10.3297
▁አለመግባባት	-10.3298
▁ለማሳደግ	-10.3298
▁ልባችን	-10.3299
▁ራሴ	-10.3301
ዘረጋ	-10.3302
ባህ	-10.3302
▁ራቅ	-10.3304
▁ሀቅ	-10.3306
▁ከያህዌ	-10.3307
▁ትስስር	-10.3307
▁የጠ	-10.3309
▁ቢል	-10.3313
ኑን	-10.3313
▁በሰማያት	-10.3319
▁ለመቀነስ	-10.332
እንዲህ	-10.3321
▁የሚያገለግል	-10.3321
▁ግሪክኛ	-10.3322
▁ባልሆነ	-10.3324
ደሰቱ	-10.3328
▁ሀብረት	-10.3328
▁ይወ	-10.333
▁ለአለም	-10.333
▁፲፱፻፹	-10.3331
▁በሀገሪቱ	-10.3334
▁በምእራብ	-10.3337
ስቡ	-10.3342
▁እንደተናገሩት	-10.3342
▁አያውቁም	-10.3343
ቋቋሙ	-10.3343
▁ፕሮግራሞች	-10.3343
▁አፅና	-10.3344
ዳይ	-10.3346
ሰጣችሁ	-10.3346
t	-10.335
▁የሚናገረውን	-10.335
▁የሚገልፁ	-10.3352
ለጥ	-10.3353
▁ድንጋዮች	-10.3354
▁ልቤ	-10.3354
ከለ	-10.3359
▁አግኝቶ	-10.3363
ሽም	-10.3365
▁ቀር	-10.3368
ቀጠ	-10.3369
▁በከተማ	-10.337
ቆጥ	-10.337
ስበው	-10.3371
▁የሰጡት	-10.3374
ሰበ	-10.3375
▁ተፈፃሚነት	-10.3375
ልሀል	-10.3376
▁የበግ	-10.3377
▁የሚያህሉ	-10.3379
▁የሚደርሱ	-10.3379
▁በአይነ	-10.338
ሰባ	-10.3383
▁አሳብ	-10.339
▁ቤዛ	-10.3392
ድያ	-10.3395
▁ደር	-10.3398
▁ኀ	-10.34
▁ህይወታችን	-10.3402
▁የእንስሳት	-10.3405
▁እንዲያውቁ	-10.3406
▁ያረጋግጣል	-10.3414
▁ለመማር	-10.3414
▁በተገቢው	-10.3415
▁ባደረጉት	-10.3417
ተኝነት	-10.3423
▁የነ	-10.3423
ቀኝ	-10.3425
▁የመገናኛ	-10.3427
▁የሚሰጡት	-10.3427
ቀሩ	-10.3432
▁እድ	-10.3435
▁እድሜያቸው	-10.3436
ل	-10.3436
▁የኑሮ	-10.3438
▁መምራት	-10.3439
▁ተከታዮቹ	-10.3439
ረክ	-10.3441
▁ተቀመጠ	-10.3441
ደላ	-10.3443
▁ፀጥታ	-10.3449
▁አረ	-10.345
▁በኦ	-10.3453
ሾም	-10.3454
▁ብርሀኑ	-10.3458
▁መለሰ	-10.3459
▁በጉዳዩ	-10.3461
▁ሳለሁ	-10.3462
▁ተጋ	-10.3463
ሁበት	-10.3468
▁ጠየቀ	-10.3473
▁ሆነህ	-10.3477
▁ቂጣ	-10.3478
ቀበለው	-10.348
▁የሚቃጠል	-10.348
መልክ	-10.3481
▁መደ	-10.3482
▁የተመለከተው	-10.3483
▁መወጣት	-10.3483
▁ሰፈሩ	-10.3484
ጋጠ	-10.3487
▁ተነ	-10.3497
▁የእግር	-10.3497
”	-10.3498
▁ጠብቁ	-10.35
▁በአንዱ	-10.35
ሟቸው	-10.3502
▁ያስፈልጋቸዋል	-10.351
▁መስበክ	-10.351
▁ይሰጠዋል	-10.3511
▁እንዲሰጡ	-10.3513
▁ሴቶችን	-10.3513
▁እንደማይችል	-10.3513
ላላ	-10.3518
▁አርባ	-10.352
ያዘ	-10.3521
▁አይነ	-10.3521
▁እንመለከታለን	-10.3522
▁በትዳር	-10.3523
▁የበ	-10.3524
ርት	-10.3525
▁መለወጥ	-10.3533
ኰ	-10.3535
▁ወተት	-10.3536
▁የሌላ	-10.3536
▁መክ	-10.3537
▁ትናንሽ	-10.3538
ሰበሰቡ	-10.3538
▁ጨረቃ	-10.3538
▁በስብከቱ	-10.3546
▁ዝውውር	-10.3546
ዘራ	-10.3548
▁ፌ	-10.3548
ሙን	-10.3552
▁በማግኘት	-10.3558
▁በፍርሀት	-10.3559
▁ፍጡር	-10.3559
▁ጉጉት	-10.3559
▁እንቁ	-10.356
ቋል	-10.3569
▁ነጋዴ	-10.357
▁በቅድሚያ	-10.3571
ድስ	-10.3572
▁አላማው	-10.3575
▁በጥበብ	-10.358
▁ጠቁመዋል	-10.3583
▁በመጥቀስ	-10.3583
▁ዘላለም	-10.3583
▁፳፻፯	-10.3585
ሻገር	-10.3595
▁ቆመው	-10.3597
▁ቁም	-10.3598
▁የሚመራው	-10.3611
▁እንዲችል	-10.3615
ከበር	-10.3618
ጡት	-10.3619
▁አካሉ	-10.362
▁አረጋውያን	-10.363
▁እንዲሰራ	-10.3632
▁አውጪ	-10.3633
▁ፕሮጀክት	-10.3636
▁ለማክበር	-10.364
▁የአንተ	-10.364
▁ባይሆንም	-10.3642
▁ቢሮዎች	-10.3642
▁ኔ	-10.3653
▁መጥ	-10.3655
َ	-10.3656
▁መጠ	-10.3659
▁ልጆቻችን	-10.3659
▁ተማሪዎችን	-10.3662
▁በሺህ	-10.3665
ግዳ	-10.3667
▁በሀገራችን	-10.3669
▁ተሰማ	-10.367
▁አዋ	-10.3673
▁ባሏ	-10.3676
▁ተባለ	-10.3677
▁የግሪክ	-10.3679
ቦቹ	-10.3679
ሞን	-10.3681
=	-10.3682
▁እንዳለን	-10.3685
▁የምናገኘው	-10.3686
▁በሆኑት	-10.3687
ቀረው	-10.3689
ሰጣት	-10.3691
▁እንዲወጣ	-10.3696
▁አስተባባሪ	-10.3697
ላቸውም	-10.37
▁ህልም	-10.37
▁በሌሊት	-10.3703
▁ኢሳ	-10.3705
▁ስንል	-10.3707
ቃጠል	-10.3711
▁አባቶቻችን	-10.3712
▁መመሪያዎችን	-10.3714
▁የአልኮል	-10.3718
ካፈሉ	-10.3721
▁ያመጣል	-10.3725
ዟ	-10.3726
ሰጧቸው	-10.3729
▁ተሸ	-10.3734
ጀምር	-10.3741
▁ፌዴራላዊ	-10.3742
▁ተገኘ	-10.3744
ታወቅ	-10.3745
ደሰ	-10.375
▁ጌታቸው	-10.3753
▁ምስሎች	-10.3754
▁ለማውጣት	-10.3755
▁ከአምስት	-10.3755
▁የማስተማር	-10.3756
▁ፍፃሜውን	-10.3757
▁እየተባለ	-10.3758
▁ቢስ	-10.3759
▁የሳ	-10.3766
▁አሳሳቢ	-10.3767
▁ምስክሮቹ	-10.3768
▁አስተማሪዎች	-10.377
ኔት	-10.377
ቸውም	-10.3771
▁ፓርክ	-10.3771
▁አይቶ	-10.3773
▁በግዞት	-10.378
▁እንዲወጡ	-10.3781
▁ቁጭ	-10.3785
▁ጥሎ	-10.3788
ወለዱ	-10.3789
ሰጠ	-10.3789
ጀር	-10.3789
ችም	-10.3792
▁አይሁድ	-10.3792
ስፋፋ	-10.3793
▁ፅናት	-10.3794
▁በመመልከት	-10.3794
ፈፀመው	-10.3794
▁ፀሀፊዎች	-10.3795
▁የተዘጋጀው	-10.3797
ላው	-10.3801
▁እንደሚቻል	-10.3803
▁ገቡ	-10.3803
▁የሚናገሩ	-10.3804
▁አግኝቷል	-10.3805
▁መሳሪያዎችን	-10.3805
▁በረዶ	-10.3808
▁በከንቱ	-10.3809
▁እያንዳንዱን	-10.3815
▁እፈልጋለሁ	-10.3817
▁የስእል	-10.3817
▁አቅርቦ	-10.3819
▁በአውሮፓ	-10.3822
▁ተጠቃሚዎች	-10.3823
▁ከባ	-10.3824
▁ለራሳቸው	-10.3825
ርሱ	-10.3827
▁አሉታዊ	-10.3828
▁ሀይ	-10.3833
▁ኤን	-10.3837
ኚ	-10.3837
▁የዘ	-10.3842
ሎት	-10.3846
▁የክብር	-10.3848
ራቅ	-10.385
▁በሶስተኛው	-10.3852
▁እያደረጉ	-10.3854
▁ጁ	-10.3858
▁ማስታወስ	-10.3858
ፈቀድ	-10.3863
▁ዘገባው	-10.3869
▁በቃሉ	-10.3873
ሻው	-10.3875
▁ተገኝተው	-10.3878
ቅድስት	-10.3882
▁የለ	-10.3886
▁አአት	-10.3891
?	-10.3892
▁ህብረት	-10.3893
▁2	-10.3894
ርግ	-10.3899
▁መታየት	-10.3899
▁ደዌ	-10.3901
▁በምድሪቱ	-10.3903
▁ነገሩን	-10.3904
▁መአዛ	-10.3905
▁ወንድሞቹ	-10.3905
▁የእህል	-10.3905
▁አምድ	-10.3908
▁ማለዳ	-10.3912
▁እስረኞች	-10.3912
▁ዶሮ	-10.3915
▁አገልግሎቱን	-10.3916
ጦች	-10.3918
▁ዩኒቨርስቲ	-10.3919
ወሩ	-10.3919
▁በሀዘን	-10.3919
▁እንደሚገኝ	-10.3921
▁አሏቸው	-10.3922
ዋሉ	-10.3923
ለብ	-10.3927
▁ባደረገው	-10.3928
ራለሁ	-10.393
▁ይኖርብሀል	-10.393
ለፉ	-10.3939
▁በህገ	-10.3939
ታችሁን	-10.3939
▁የጥበብ	-10.394
▁በክልሉ	-10.3942
▁በፊትህ	-10.3943
▁ሊባኖስ	-10.3944
▁እንደሌለው	-10.395
▁ሏላዊነት	-10.3951
ያው	-10.3953
▁የሚመለከቱ	-10.3954
▁ማትያስ	-10.3955
▁ይደርሳል	-10.3955
▁የፅሁፍ	-10.3956
▁ከበደ	-10.3956
▁እንደሆንኩ	-10.3957
ረካ	-10.3959
▁ተስፋዎች	-10.3965
▁እንግዶች	-10.3968
▁ኦዲተር	-10.3968
▁ኪሳራ	-10.3972
▁ጠበቃ	-10.3975
▁እናቶች	-10.3976
▁መጓዝ	-10.3976
ናቸውን	-10.3978
▁ፍቅርና	-10.3979
▁ታውቃላችሁ	-10.398
▁አስታውቀዋል	-10.398
▁መንግስቱን	-10.3981
▁ረሀብ	-10.3981
▁ሰአታት	-10.3981
▁ይመስልሀል	-10.3983
▁የአውሮፓ	-10.3983
▁ብፁአን	-10.3983
▁የማይችሉ	-10.3985
ፉት	-10.3986
ክሮ	-10.3993
▁ይሄዳሉ	-10.3994
▁በንግድ	-10.3994
▁ተወላጅ	-10.3995
▁ነበረባቸው	-10.3996
ማሩ	-10.4001
ዋለች	-10.4003
ኸ	-10.4004
ጊያ	-10.4008
▁በሚልዮን	-10.4008
ዋለ	-10.4008
▁ፎ	-10.4014
▁አገኘሁ	-10.4017
▁ግምገማ	-10.4018
▁አመፀኛ	-10.4018
▁አደረጃጀት	-10.4018
ለቁ	-10.402
ዝን	-10.4021
ሰራው	-10.4023
▁የሚመስል	-10.4025
▁እንደመሆናች	-10.4026
▁መረ	-10.4032
▁ሱዳን	-10.4033
▁በህይወታቸው	-10.4038
▁ታይቶ	-10.4039
▁ባህሩ	-10.404
▁የተጀመረው	-10.4043
▁በቅንአት	-10.4044
▁መሆናችንን	-10.4049
▁በሲ	-10.4051
ጠል	-10.4058
መች	-10.406
▁በራእይ	-10.4063
▁የገባው	-10.4064
▁በባ	-10.4065
▁ስለምን	-10.4066
▁የሚያስፈልጉ	-10.4067
▁ሊኖረን	-10.4069
▁ጥርስ	-10.4072
▁የሚሄድ	-10.4075
▁ሆንኩ	-10.4081
▁ፈሳሽ	-10.4082
▁መወሰን	-10.4083
▁የሮም	-10.4085
▁የተሰኘው	-10.4087
▁አቅ	-10.4089
▁ምድሪቱን	-10.4089
ቆዩ	-10.409
▁መሳ	-10.4091
▁አውራጃ	-10.4091
▁በሀሰት	-10.4093
▁ሰላምን	-10.4094
▁ነፍሳት	-10.4095
▁የባህል	-10.4095
▁አጀንዳ	-10.4096
ዘጋጀ	-10.4097
▁ይስሀቅ	-10.4103
▁ህይወቴን	-10.4104
▁የትኞቹን	-10.4106
▁እንደነበሩ	-10.4108
▁ይወሰናል	-10.4108
▁ገብቷል	-10.4109
▁አያስ	-10.411
▁የቀድሞው	-10.4113
ቆች	-10.4116
▁ሰብሳቢ	-10.4119
▁በላቸው	-10.4119
▁በማስገባት	-10.412
▁ቆይተዋል	-10.4121
▁የምንኖረው	-10.4123
▁ዝና	-10.4125
▁ጉድለት	-10.4126
▁አመቷ	-10.4127
▁የሚጠጉ	-10.4128
▁አይሁዳዊ	-10.4133
▁የጋብቻ	-10.4134
▁ያለምን	-10.4136
▁ከመሆን	-10.4137
▁አላስ	-10.4137
▁ፕሮ	-10.4138
1	-10.4138
▁ተቃዋሚ	-10.4145
▁ይወጣል	-10.4148
▁ሰኞ	-10.4149
▁ሰበር	-10.4149
▁ብራ	-10.415
▁በትር	-10.4152
▁ድር	-10.4152
▁አነ	-10.4156
▁ለመገንባት	-10.4159
▁ለእስራኤላውያን	-10.4159
▁በዋነኝነት	-10.4159
▁ጣኦት	-10.4159
▁ሲገባ	-10.416
፴	-10.416
▁በቁጣ	-10.4161
ኑት	-10.4161
▁ህንፃዎች	-10.4162
▁እነሆም	-10.4162
▁ተናጋሪ	-10.4163
▁ኮሪያ	-10.4168
▁በመነሳት	-10.417
▁መዛሙርቱን	-10.417
▁የጉባኤው	-10.4174
▁በህይወቴ	-10.4176
ደመ	-10.4177
ጕ	-10.4179
▁በፅድቅ	-10.4181
▁ቀዳሚ	-10.4184
ኅ	-10.4185
ከናውን	-10.4189
▁እነርሱን	-10.4194
▁መተ	-10.4194
ለስ	-10.4194
▁በልቡ	-10.4196
▁ይመ	-10.4197
▁መስዋእትነት	-10.4198
▁በተባለ	-10.4198
▁ስልት	-10.4202
▁በመፈፀም	-10.4206
ረኛ	-10.4207
▁መውደድ	-10.4211
▁መናገሩ	-10.4212
▁የገቢ	-10.4218
▁ራስህ	-10.422
ኖረው	-10.4222
ي	-10.4223
▁ሆቴል	-10.4224
▁የሚሉትን	-10.4229
▁ወጣቱ	-10.423
ራይ	-10.4233
▁ሞቱ	-10.4237
▁ይበልጣል	-10.4237
ትስ	-10.4239
▁አዘጋጅቶ	-10.4242
▁፲፻	-10.4243
ፍረ	-10.4243
ፈቀደ	-10.4245
▁ሾ	-10.4245
ፍት	-10.4246
▁ወረደ	-10.4248
▁በአዋጁ	-10.425
▁ስጋዊ	-10.4254
▁መክፈል	-10.4255
ጠናቀቁ	-10.4256
▁አራዊት	-10.4263
▁በሮም	-10.4265
▁የኢንዱስትሪ	-10.427
ገለጥ	-10.427
ወግ	-10.4274
▁ለኢየሱስ	-10.4281
▁በድንጋይ	-10.4289
መስል	-10.4289
▁ኤንድ	-10.4291
▁መቀነስ	-10.4295
ውያኑ	-10.4297
▁መሲህ	-10.4302
▁የሚጠራ	-10.4306
▁የካህናት	-10.4307
ቀስ	-10.4309
▁ታም	-10.4309
▁የብዙ	-10.431
▁በመሰዊያው	-10.4311
ልያ	-10.4313
ቻለሁ	-10.4314
▁ይመስለኛል	-10.4315
▁ወዲያ	-10.4315
▁ማሀበሩ	-10.4315
ብሽ	-10.4319
▁አዋጁ	-10.432
▁አደረ	-10.4321
▁መድ	-10.4323
▁ዘዳግም	-10.4324
ቆር	-10.433
▁ጠርቶ	-10.4333
▁አኗኗር	-10.4341
▁ካቶሊክ	-10.4341
ውሉ	-10.4342
▁ማራኪ	-10.4342
▁በመስ	-10.4343
▁አስፈሪ	-10.4345
▁እጃቸውን	-10.4347
ተዉ	-10.4347
▁መጨመር	-10.4349
ዳችን	-10.435
ቆየ	-10.4355
ግሬ	-10.4358
▁የምትገኝ	-10.4358
▁የእንግሊዝ	-10.436
ሀን	-10.4366
▁ስፍራዎች	-10.4368
▁የሚነካ	-10.4368
ቋረጥ	-10.4369
▁ደፋር	-10.4371
▁ሰባ	-10.4373
▁፼	-10.4375
▁በተቃራኒ	-10.4376
ቻሉ	-10.4376
ባቸውም	-10.4377
ስኮ	-10.4379
ተመ	-10.438
▁ወንድሞቼ	-10.4381
▁ሀብረተሰብ	-10.4381
▁እንዲደርስ	-10.4383
÷	-10.4391
▁እያየ	-10.4392
ገው	-10.4394
▁ተመለሰ	-10.4394
▁ከተማዋን	-10.4396
▁የሚሆነውን	-10.4398
▁3	-10.4407
▁ለማጥናት	-10.4407
▁ከሌላው	-10.4411
▁ሀና	-10.4413
ዝር	-10.4416
▁ኮሚሽኑ	-10.442
▁ሲሰጥ	-10.4422
▁አለዚያ	-10.4428
ይን	-10.4431
ወጣው	-10.4433
▁አገላለፅ	-10.4434
ቨ	-10.4434
▁ግብይት	-10.4435
▁የሚያውቅ	-10.4435
ጮች	-10.4435
▁ለደቀ	-10.4437
▁ንጉሱን	-10.4446
▁በፌዴራል	-10.4447
▁ቆየ	-10.4451
▁ኢህአዴግ	-10.4453
▁ተዋ	-10.4455
▁የፃፈው	-10.4456
▁ይጠቁማል	-10.446
▁ግድም	-10.4463
ሥ	-10.4465
ሳካ	-10.4466
▁ሊቅ	-10.4466
▁ፈቃዱ	-10.4469
▁የማወቅ	-10.4472
ፃፈው	-10.4473
▁ምድሪቱ	-10.4474
▁እንዳደረገ	-10.4475
▁የወንድ	-10.4475
▁ቆም	-10.4476
▁ታደሰ	-10.4479
▁ዘካርያስ	-10.448
▁የአምልኮ	-10.4482
▁እሺ	-10.4482
▁ነገሰ	-10.4484
▁ልጆቼ	-10.4485
▁የያእቆብ	-10.4485
▁የለኝም	-10.449
ከሰ	-10.4492
መላለሱ	-10.4495
▁አለምን	-10.4496
▁ወሰደ	-10.4499
▁የቀረ	-10.4499
▁ጀመረች	-10.4499
▁የለብንም	-10.45
▁ሚስቱን	-10.4502
▁የሴ	-10.4506
ኞ	-10.4506
▁ነጋ	-10.4507
▁ሲኖዶሱ	-10.451
▁ሄኖክ	-10.4511
▁በደግነት	-10.4514
▁መፃፍ	-10.4515
ውስ	-10.4518
▁ምር	-10.4521
▁የመጀመሪያውን	-10.4521
▁ኤፍ	-10.4523
ይዙ	-10.4527
ነገሩ	-10.4528
▁ፀጉር	-10.4531
ወሰን	-10.4532
▁በአሉ	-10.4533
▁የሚያስደስት	-10.4534
ርጉ	-10.4543
▁ለሆነ	-10.4544
▁ይቀጣል	-10.4545
▁የበላይነት	-10.4546
▁የጀርመን	-10.4549
▁ንግስት	-10.4551
▁ትክክለኛው	-10.4552
1892	-10.4554
▁ለመንግስት	-10.4554
▁የሚጠቁም	-10.4554
▁ጨርቅ	-10.4555
▁ያደ	-10.4555
ሬን	-10.4557
▁ፀሀፊው	-10.4559
▁ፅዮን	-10.456
▁መንገዱን	-10.4564
▁ገልፀው	-10.4565
▁የወጣቶች	-10.4567
▁ለማመልከት	-10.4568
▁ለመግዛት	-10.457
▁ወሮ	-10.4574
▁ያመጣ	-10.4578
▁በእጅ	-10.458
▁የሚያስገኝ	-10.4581
ፑ	-10.4584
▁የቻለ	-10.4588
ቆጠር	-10.4588
▁የግ	-10.4588
ዝም	-10.4588
▁የሚያረጋግጥ	-10.4591
▁በነገሰ	-10.4595
ስቲ	-10.4595
▁የእውነት	-10.4596
▁ብንሆን	-10.4597
▁የአር	-10.46
▁እንከን	-10.46
ቡት	-10.4606
▁ወንጀሎች	-10.4607
ሬት	-10.4608
▁በስብሰባው	-10.4612
▁አባቱን	-10.4613
▁የሚያደርጉትን	-10.4613
ስተምር	-10.4615
▁ይስ	-10.4619
▁ግዜ	-10.462
▁ትሆናለች	-10.4621
▁የተቀደሰ	-10.4622
▁ሳር	-10.4622
▁ከሀ	-10.4624
ስቶች	-10.4626
ከን	-10.4627
▁በጀርመን	-10.4628
▁ይዘን	-10.4631
ብሩ	-10.4638
▁ሀሳቡን	-10.4644
▁አዲሱን	-10.4644
▁በኮ	-10.4644
ፈቱ	-10.4645
▁ወታደር	-10.4647
▁ማድረጋቸው	-10.4651
▁በጠቅላይ	-10.4653
▁ተው	-10.4656
▁ዘፍ	-10.4657
▁ለመንፈሳዊ	-10.4662
▁ልቦና	-10.4662
▁፳፻፮	-10.4663
▁ወለድ	-10.4665
ዋም	-10.4667
ፃፍ	-10.4668
ተራ	-10.4674
▁የፈጠረው	-10.4676
▁መናፍስት	-10.4677
▁በመተባበር	-10.4679
▁ከኢ	-10.468
▁በምና	-10.4681
ሱት	-10.4682
ጨት	-10.4683
▁ሲሞት	-10.4685
ላከ	-10.4686
▁መለ	-10.4687
▁የክርስቶስን	-10.4689
▁ወንድሙ	-10.4692
▁መውጫ	-10.4692
▁የሆነች	-10.4693
ቀና	-10.4694
▁የሀገሪቱ	-10.4694
ማማ	-10.4695
ንጋ	-10.4697
▁“	-10.4698
▁በሮች	-10.4701
▁ሰርቶ	-10.4705
▁የእንግሊዝኛ	-10.4706
▁ኤጀንሲው	-10.4714
▁አስበው	-10.4715
▁ቆጠራ	-10.4716
▁ዱቄት	-10.4716
▁ሰሞኑን	-10.4716
▁ዳግም	-10.4718
▁የቴክኖሎጂ	-10.473
▁መገመት	-10.473
▁ሲጋራ	-10.4732
▁ባያ	-10.4732
▁የአይን	-10.4739
▁የህፃናት	-10.474
▁ስሜታዊ	-10.4745
▁ህጉን	-10.4747
▁ዮሐንስ	-10.475
ነጋ	-10.4754
▁አገ	-10.4754
▁ይነገራል	-10.4757
▁ተችሏል	-10.4757
▁አስተዳደራዊ	-10.4757
▁ተገኝተዋል	-10.4759
▁ያወጣል	-10.4761
ፆ	-10.477
▁ተጠንቀቁ	-10.4771
▁ኢፕድ	-10.4771
▁ለመምራት	-10.4771
ገደል	-10.4771
▁ዳይሬክተሩ	-10.4771
▁መዘዝ	-10.4774
ቻት	-10.4774
▁አብን	-10.4778
▁ፈጣሪያችን	-10.4783
ቶቻቸውን	-10.4783
▁ሌባ	-10.4783
▁በእርግጠኝነት	-10.4784
▁መፍራት	-10.4785
▁ህይወትን	-10.4786
▁የተወሰደ	-10.479
▁ቅፅ	-10.4794
፻፴፭	-10.4796
▁በከተማው	-10.4796
ለቀቁ	-10.4802
ዚያ	-10.4804
ሲን	-10.4812
▁በዳዊት	-10.4813
▁ነበረ።	-10.4814
▁ኖረ	-10.4823
ላለች	-10.4824
▁በስሜ	-10.4824
▁ግጭቶች	-10.4826
▁ባልደረባ	-10.4826
▁የፈፀመው	-10.4828
ፈቅ	-10.4832
ግደ	-10.4833
▁ያገኙት	-10.4834
▁በዘር	-10.4835
▁የገ	-10.4836
▁ሀዋርያቱ	-10.4837
ተናል	-10.4839
▁የስሜት	-10.4839
ፈርስ	-10.4841
ሪት	-10.4842
ኩበት	-10.4846
▁ቀሳውስት	-10.4847
▁በምታ	-10.4855
ሳተፍ	-10.4856
▁በአንቀፅ	-10.4859
ፈቅድ	-10.4861
▁አላማዎች	-10.4864
ክሌ	-10.4867
▁ሞቅ	-10.4867
▁ማሸነፍ	-10.4872
▁ጦርነቱ	-10.4874
▁ተፈጥሯዊ	-10.4879
▁የእርሻ	-10.4882
ንቀሳቀስ	-10.4882
▁ያውቁ	-10.4884
▁የተመሰረቱ	-10.4884
▁ፈረንሳይ	-10.4889
▁መፅሀፉን	-10.4893
▁ዘፀአት	-10.4896
▁በቦታው	-10.4898
▁ጉልህ	-10.4903
▁የአሳ	-10.4909
▁መቁረጥ	-10.4911
▁አስቸኳይ	-10.4914
▁ያየ	-10.4915
▁ከሚለው	-10.4916
ንዴ	-10.4916
▁የንጉሱ	-10.4917
ቁት	-10.4918
ቸዉ	-10.4921
ዋስ	-10.4921
ቻችሁ	-10.4927
▁ትቤቶች	-10.4928
▁በሚወጣ	-10.4933
▁ትክክለኛውን	-10.4933
ችሉ	-10.4933
ቀት	-10.4934
ሸሽ	-10.4936
▁ለመመስረት	-10.4937
ወገዱ	-10.4939
ሳው	-10.4941
▁የኢትዮጵያን	-10.4942
ጠሩት	-10.4943
▁በአደባባይ	-10.4943
n	-10.4944
▁የሆ	-10.4948
▁የአቋም	-10.4951
ዱን	-10.4953
▁ቀውስ	-10.4954
ጠብቁ	-10.4955
▁እንግሊዝ	-10.4957
▁ሃ	-10.4958
▁በቀጣዩ	-10.4961
ራቸውን	-10.4963
▁አገራቸው	-10.4963
▁በቁም	-10.4964
▁አጋማሽ	-10.4964
▁ልብህ	-10.4966
ፈነ	-10.4973
▁እንዳይሆን	-10.4978
▁ይሰማ	-10.498
ስፔ	-10.499
ተባበሩት	-10.4994
▁እንደዚሁ	-10.4995
▁እውነታ	-10.4997
ርታ	-10.4999
ዞር	-10.5
▁አህያ	-10.5006
▁ይሰራ	-10.5006
▁ምግቦች	-10.5007
▁እንዲሄድ	-10.5007
▁የወጣውን	-10.5008
▁እንደሚገኙ	-10.5013
▁ትዝ	-10.5017
ሆነ	-10.5021
▁እየተሰራ	-10.5022
▁ፈቃዱን	-10.5025
▁እንዳደረገው	-10.5027
ብላ	-10.5027
ተህ	-10.5029
ካር	-10.5031
▁መርከቦች	-10.5031
▁ሀዳር	-10.5033
▁ፋብሪካ	-10.5034
▁ክስተት	-10.5035
▁/	-10.5036
▁ስኬት	-10.5037
▁ከጥፋት	-10.5039
▁ለጥቂት	-10.5039
ወዱ	-10.5042
ዋር	-10.5042
▁በሚደረገው	-10.5044
ገና	-10.5045
ናዊ	-10.5049
ዳሉ	-10.5054
▁የትውልድ	-10.5057
▁የሚመ	-10.5057
በዙ	-10.5059
▁ስብ	-10.5059
ሳድ	-10.506
▁ተማሪዎቹ	-10.506
▁ማህበራት	-10.506
▁አቀባበል	-10.5061
▁ሆድ	-10.5063
ሁም	-10.5064
▁ገፅታዎች	-10.5066
▁እንዲደረግ	-10.507
ቮ	-10.5075
ሳዩ	-10.5077
▁ገዳይ	-10.5082
▁አውሬ	-10.5084
▁በጊዜ	-10.5085
ነህ	-10.5085
▁ጣፋጭ	-10.5087
▁የሚያስከትለው	-10.5087
▁ይህችን	-10.5088
▁ህዝቅኤል	-10.509
▁እናድርግ	-10.5091
▁በስልክ	-10.5091
▁ከመሆናቸው	-10.5094
▁የእርሱ	-10.5098
y	-10.5102
▁የገለፁት	-10.5103
▁ሰምቶ	-10.5105
▁በተስፋ	-10.5105
ገለፀ	-10.5108
▁ድህነት	-10.5109
▁በድ	-10.5111
▁መታዘዝ	-10.5112
▁ነጋዴዎች	-10.5114
▁ተፈላጊ	-10.5119
▁አቅርቧል	-10.5119
▁፶፩	-10.512
▁የሚወድ	-10.5121
▁ይሰማሀል	-10.5121
▁አለማዊ	-10.5122
▁በምንም	-10.5124
▁የሚያስፈልገው	-10.5124
▁እላለሁ	-10.5125
▁አግ	-10.5128
ኒክ	-10.513
▁ማክ	-10.513
ለወጡ	-10.5132
▁መሰብሰብ	-10.5134
▁የመኖሪያ	-10.5134
ዩት	-10.5134
▁ጥያቄዎችን	-10.5137
ነውን	-10.5138
▁የዩናይትድ	-10.5139
▁ሰጥቶናል	-10.5139
▁መልአኩ	-10.5147
▁ተቃራኒ	-10.5148
▁በፖለቲካ	-10.5153
ጠይቁ	-10.5153
ታር	-10.5157
ወረደ	-10.5161
▁-	-10.5162
ቋቋም	-10.5164
ግሩ	-10.5164
▁ማጨስ	-10.5167
ደድ	-10.5167
▁ሀያላን	-10.5168
ደረሰ	-10.517
ዋለን	-10.5173
▁ተጨባጭ	-10.5176
▁ያስከትላል	-10.5176
▁ለማስረዳት	-10.5177
ረፉ	-10.5184
ሎቹ	-10.5186
▁መድረስ	-10.5188
▁የእነ	-10.5189
ስማሙ	-10.519
ጬ	-10.5191
▁ይነግረናል	-10.5191
▁ክስተቶች	-10.5191
▁ካርድ	-10.5192
ƒ	-10.5197
ገለፅ	-10.5199
▁ሚስዮናዊ	-10.5205
▁ትርጉሞች	-10.5205
▁ማስተካከያ	-10.5206
▁ግራም	-10.5207
▁ሀገራችን	-10.5208
▁በርሳችሁ	-10.5208
▁ቢሮው	-10.5209
▁የሚባሉ	-10.5211
▁ስለመሆኑ	-10.5213
ገጥ	-10.5216
ጠመ	-10.5217
▁በሌላው	-10.5219
ቿ	-10.5222
ፀልይ	-10.5223
▁የተቀነጨበ	-10.5234
▁ፖሊሶች	-10.5237
ማችሁ	-10.5243
▁በቀ	-10.5244
▁ለነበሩት	-10.5245
▁በአማርኛ	-10.5248
▁መጠጣት	-10.5249
▁ተጓዥ	-10.525
▁በማን	-10.5252
▁እጣን	-10.5255
መለከተ	-10.5255
ሳችን	-10.5256
ሪው	-10.5257
▁በማውጣት	-10.5262
▁ጳጳሱ	-10.5267
▁የባለ	-10.5267
ስኪ	-10.5269
ወድቅ	-10.5269
▁የአብን	-10.5272
ዱት	-10.5273
▁መመ	-10.5273
▁ከስጋ	-10.5275
▁ጠራ	-10.5278
▁በቤቱ	-10.5279
▁ሩቅ	-10.5282
▁ሀይሌ	-10.5283
▁እይታ	-10.5285
▁ሊኖራቸው	-10.5287
▁ምስክሮችን	-10.5287
▁ውጣ	-10.5288
▁የባቡር	-10.5291
▁መኖሩ	-10.5293
▁በመካከላችሁ	-10.5293
▁ከምት	-10.5294
▁የዩኤስ	-10.5294
▁በሚሆንበት	-10.5298
▁መሀላ	-10.5301
▁የብቃት	-10.5302
▁ክፍተት	-10.5306
▁ዉስጥ	-10.5306
▁ሀጢአተኛ	-10.5306
▁ካናዳ	-10.5306
▁ኖር	-10.5308
▁ለማዘጋጀት	-10.531
ማስ	-10.5311
▁ቻ	-10.5312
▁ለመጠየቅ	-10.5313
'	-10.5313
▁የሚችለውን	-10.5313
በቁ	-10.5313
ወሰደ	-10.5318
▁አመልክቷል	-10.532
▁ክፉዎች	-10.5326
ካራ	-10.5332
▁ዋልታ	-10.5333
▁ቫ	-10.5333
▁እንደሆነች	-10.5335
▁ብሩህ	-10.5337
ቆመ	-10.5339
▁መና	-10.5341
ሼር	-10.5342
▁የኋላ	-10.5343
▁እንዲያገለግሉ	-10.5343
▁የአይ	-10.5343
▁በጦርነት	-10.5344
ትሮ	-10.5347
▁ተሰብስበው	-10.5349
▁የምርምር	-10.5349
▁ህያዋን	-10.535
ቅል	-10.535
▁ድራማ	-10.5351
▁፵፱	-10.5353
▁መራቅ	-10.5355
▁ቀጠለ	-10.5359
፻፳፩	-10.5359
▁ፍልስጤማውያን	-10.5364
ሰብኩ	-10.5364
▁የተውጣጡ	-10.5364
▁የቀረው	-10.5365
▁ከራሱ	-10.5367
▁መፈለግ	-10.5368
ነሳሳ	-10.537
ጋለ	-10.5372
▁እርሷ	-10.5375
▁ሲገኝ	-10.5377
▁የየ	-10.5377
▁፲፱፻፺፫	-10.538
▁ልኮ	-10.538
▁ያለመ	-10.5383
▁ሴትየዋ	-10.5386
▁አስረድተዋል	-10.5393
ሀቸው	-10.5393
ፈለገ	-10.5396
▁ፅድቅን	-10.5399
ድግ	-10.5409
ተሩ	-10.541
▁ስንዴ	-10.5411
▁ተቋሙ	-10.5411
▁ቀኑን	-10.5411
▁ሲያደርግ	-10.5412
▁ጨው	-10.5413
▁የሚቀርቡ	-10.5413
ረጋገጡ	-10.5422
▁ሚሊየን	-10.5422
ቀጥ	-10.5423
▁ፈልጎ	-10.5423
▁ምኒልክ	-10.5425
ረም	-10.5425
▁የቅ	-10.5426
ገስ	-10.543
በጥ	-10.5432
▁የስልጣን	-10.5435
▁የተለዩ	-10.5436
▁ይለኛል	-10.5439
▁ባህሪ	-10.5441
▁እኛስ	-10.5442
▁ሲያደርጉ	-10.5443
▁በህይወቱ	-10.5446
▁ለእነርሱ	-10.5447
▁በመጨረሻው	-10.5447
መረምር	-10.5448
▁በቁጥር	-10.5452
▁ስውር	-10.5452
▁ጀልባ	-10.5453
▁ከእነዚህም	-10.5458
▁አቀ	-10.546
▁የሚያስከትለውን	-10.5462
▁እንዲገባ	-10.5463
▁እንፈልጋለን	-10.5466
▁አልነበሩም	-10.5466
ወደድ	-10.5467
▁አዘዘ	-10.5471
▁ገብ	-10.5471
▁ይከ	-10.5472
▁አይተው	-10.5473
ኛለህ	-10.5477
▁ዳን	-10.548
▁የሚመጡ	-10.5481
▁ለማሟላት	-10.5481
▁የሚታዩ	-10.5484
▁ዕለት	-10.5487
d	-10.549
▁በጨለማ	-10.549
ቀዳ	-10.549
▁ስእሎች	-10.5493
▁ማእከላዊ	-10.5494
▁ጄኔራል	-10.5497
▁የሚገልፀው	-10.55
ገነዘቡ	-10.5505
በሰ	-10.5508
▁ቤቴ	-10.5508
▁ጴጥ	-10.551
▁ይጠፋል	-10.5511
▁ኩራት	-10.5513
▁ማወቃችን	-10.552
ዲስ	-10.552
▁የሩሲያ	-10.5525
▁ኤም	-10.5525
▁የላ	-10.553
▁ሊደርስ	-10.5531
▁ጓደኛዬ	-10.5531
▁ብሮሹር	-10.554
▁እንዳልተ	-10.554
▁የከተማዋ	-10.554
▁መጠሪያ	-10.5542
▁ይሰራሉ	-10.5549
▁በሰጡት	-10.555
▁ሹም	-10.5551
▁በመጠበቅ	-10.5553
▁ተስ	-10.5554
ብራራ	-10.5556
▁የሚያክሉ	-10.5558
▁አማኞች	-10.5558
ለወጥ	-10.5567
▁ዘውዴ	-10.557
▁እስካ	-10.5572
▁፮፻	-10.5575
ጋር	-10.5576
ኗቸው	-10.5577
▁የእቃ	-10.5577
▁ተኩል	-10.558
▁በሚደርስ	-10.558
▁ፕሬዝደንት	-10.558
ወዳ	-10.5584
▁ድሮ	-10.5585
▁አናት	-10.5586
▁አስቦ	-10.5587
ርሳ	-10.5588
ሿ	-10.5589
ገናኙ	-10.5589
ፏል	-10.5591
▁በጥቂት	-10.5593
▁እባብ	-10.5598
▁ያላችሁ	-10.5598
▁የጉምሩክ	-10.5599
▁ጢሞ	-10.5599
▁አምላኪዎች	-10.5606
▁ትራንስፖርት	-10.5607
▁ማሟላት	-10.5614
▁ቀጣይ	-10.5618
▁ደጋፊ	-10.5618
m	-10.5619
▁የአባ	-10.5622
ግድ	-10.5627
ወጡት	-10.5629
ራር	-10.5631
▁በወንጀል	-10.5631
▁የተጠ	-10.5632
▁የነበረችው	-10.5636
▁የብልግና	-10.5641
▁ለመገኘት	-10.5643
▁የድምፅ	-10.5643
ጠቀስ	-10.5645
ጣለ	-10.565
▁ሀሰት	-10.5655
f	-10.5659
▁ፅንሰ	-10.5659
▁ላለፉት	-10.5659
▁መርምሮ	-10.566
▁ሹመት	-10.566
▁ወስደው	-10.566
▁ሰበብ	-10.5661
▁ገር	-10.5662
▁ለማቋቋም	-10.5662
ግሪ	-10.5663
ሮስ	-10.5669
▁መከታተል	-10.5671
▁ሱስ	-10.5672
▁ማፅናኛ	-10.5674
ደዱ	-10.5674
በጀ	-10.5675
▁ሩጫ	-10.5678
▁አጋር	-10.5678
እኔ	-10.5679
▁ሰብ	-10.5683
▁ከሌለ	-10.5684
▁ለህይወት	-10.5688
▁ብል	-10.5689
▁በአንፃሩ	-10.5689
▁ሩሲያ	-10.5689
▁እውነቱ	-10.569
▁ዘይቤ	-10.569
ቀርቡ	-10.5692
ፐ	-10.5692
ቍ	-10.5693
▁የሚያስፈልጋቸውን	-10.5693
▁እየተካሄደ	-10.5697
ፈዋል	-10.5703
▁ተር	-10.5703
▁የህወሀት	-10.5704
▁ረድቶኛል	-10.5704
▁በጥሞና	-10.5704
▁የምችለው	-10.5705
▁ከእስር	-10.5705
▁ከታ	-10.5706
▁የሚያስከትል	-10.5707
▁የሰማ	-10.5708
▁ሲያስ	-10.5714
መሰረት	-10.5715
▁ነፍሰ	-10.5716
ሞክር	-10.5716
▁ከክፉ	-10.5716
▁ቤቶችን	-10.5716
ቸዋለን	-10.572
▁የተዘጋጀውን	-10.572
▁የራቀ	-10.5722
▁በፈረንሳይ	-10.5724
ይድ	-10.5724
▁ቀኑ	-10.5724
▁የቋንቋ	-10.5726
ታሪ	-10.5734
▁መሞት	-10.5737
ተሮች	-10.5738
ደቅ	-10.5741
ስማ	-10.5742
▁ትቤት	-10.5744
ወቀ	-10.5748
▁በአክብሮት	-10.5749
ታለሁ	-10.5749
▁ቀጥሏል	-10.575
▁ባር	-10.5751
ፋሉ	-10.5752
▁የጥንቶቹ	-10.5759
▁ገለፁ	-10.5759
ረፈ	-10.576
▁የገለፀው	-10.576
▁የሚባሉት	-10.5764
▁ኹሉ	-10.5766
▁ለመለየት	-10.5768
▁የተተረጎመው	-10.5768
▁እንዲያው	-10.5769
ጠባ	-10.5771
▁የተወ	-10.5773
▁የብሄራዊ	-10.5775
▁ከይሁዳ	-10.5775
▁ከወጣ	-10.5775
▁ግል	-10.5776
▁ሰን	-10.5778
▁የሚያሳ	-10.5778
▁ሰጥቷቸዋል	-10.5779
▁ሲመለከት	-10.5782
ዋለህ	-10.5786
▁በብሄራዊ	-10.579
▁ይወስዳል	-10.5795
▁ያስችላል	-10.5795
▁ስጡ	-10.5795
▁አስርተ	-10.58
▁ሙስና	-10.5803
▁የሚታወቅ	-10.5803
▁ተማ	-10.5803
ጫወቱ	-10.5806
ጠመቅ	-10.5809
▁በአጭሩ	-10.581
ሳዊ	-10.5811
▁በነፃነት	-10.5817
▁ሀጢአትን	-10.5817
▁እቃዎችን	-10.5822
▁፶፪	-10.5822
▁መራ	-10.5825
▁በመካከለኛው	-10.5825
▁ስደተኞች	-10.5825
▁ክህደት	-10.5825
▁ሰንደቅ	-10.5825
▁ወንበር	-10.5827
▁ስማቸው	-10.583
▁የሚውል	-10.583
መዋል	-10.583
▁ማል	-10.5831
▁በዙሪያው	-10.5834
▁ነገረው	-10.5834
▁ይሁኑ	-10.5837
ችሁት	-10.5838
▁በመገናኛ	-10.5842
▁ጓደኝነት	-10.5843
▁ለመከተል	-10.5849
▁ማለፍ	-10.5855
▁ኢዮአብ	-10.5856
▁ሰላሳ	-10.5856
▁በማስተማር	-10.5856
▁ቁጥሩ	-10.5857
▁ጉድ	-10.5858
ርፍ	-10.5863
ጠበቁ	-10.5864
ካተቱ	-10.5866
▁ተመራማሪ	-10.5866
▁በክ	-10.5872
▁የገባውን	-10.5873
▁ኛው	-10.5877
ነግረው	-10.588
▁የኖረው	-10.5881
▁የተፈፀመው	-10.5885
▁ይመራል	-10.5885
▁ባሉበት	-10.5889
▁ነበርኩ	-10.5895
▁ገዳማት	-10.5897
▁እንመረምራለን	-10.5901
▁የከፍተኛ	-10.5901
▁ልብሱን	-10.5909
ቀኑ	-10.5911
▁ሰራሽ	-10.5912
▁አዳራሾች	-10.5917
▁ከስድስት	-10.5917
▁ወኪል	-10.5917
▁ይዛ	-10.5918
▁ጥቃቶች	-10.5918
▁ዕ	-10.5921
▁ال	-10.5926
ሾሙ	-10.5927
▁አበው	-10.593
▁ውጤቱ	-10.5931
▁መታወቂያ	-10.5932
▁የፍጥረት	-10.5932
ለፈ	-10.5935
ባለ	-10.5943
▁በቤቴል	-10.595
▁ለመግደል	-10.5952
▁በመቀበል	-10.5953
ንጎ	-10.5954
ጨው	-10.5957
▁ከየ	-10.5959
ሳተፉ	-10.5961
▁ደሳለኝ	-10.5963
▁ቀዳማዊ	-10.5963
▁መቃ	-10.5965
ሳምንት	-10.5968
▁ቃ	-10.5971
ነጋገሩ	-10.5971
▁ጠየቀው	-10.5972
▁ከትምህርት	-10.5974
▁በሰባተኛው	-10.5979
▁እባካችሁ	-10.5979
▁ይቆጠራል	-10.5979
▁በማጥናት	-10.5979
▁በጉባኤው	-10.5979
ባቢ	-10.5981
ባታል	-10.5982
ሻለሁ	-10.5982
▁ኢየሩሳሌምን	-10.5986
▁በማድረጉ	-10.5987
▁ጲላጦስ	-10.5988
መደ	-10.5989
▁መሆኗን	-10.5993
▁ህግጋት	-10.5994
▁ሰለባ	-10.5994
▁ለማስደሰት	-10.5995
▁በስብሰባዎች	-10.6001
▁እስኪያ	-10.6002
▁ከገባ	-10.6003
ንያ	-10.6005
ዘዘ	-10.6005
▁የፈረንሳይ	-10.6008
▁ላላቸው	-10.601
▁ጦርነቶች	-10.601
▁ለማንኛውም	-10.6011
ረዥም	-10.6012
▁ለመካፈል	-10.6016
▁ጠር	-10.6018
▁ተለይተው	-10.6021
ጎድ	-10.6025
▁ለዳዊት	-10.6025
▁ሲኦል	-10.6025
▁አልችልም	-10.6025
▁ገላትያ	-10.6027
ነቷ	-10.6028
▁አስገ	-10.6029
▁የሲ	-10.6029
▁የሚያበረታታ	-10.6033
▁ለተጨማሪ	-10.6037
▁ስለነበረው	-10.6037
ሮን	-10.6042
▁ልጃቸው	-10.6043
▁ማዳን	-10.6045
▁የምስራቅ	-10.6046
▁የሮማ	-10.6049
▁ስጦታዎች	-10.6054
ንቀሳቀሱ	-10.6055
▁ሩ	-10.6055
▁አጥብቀው	-10.6056
▁መሳፍንት	-10.6061
ጣለች	-10.6063
ወደው	-10.6066
ራም	-10.6068
ከፍል	-10.6071
▁የኖሩ	-10.6071
▁መስፈሪያ	-10.6072
▁መለኪያ	-10.6072
▁ከንቲባ	-10.6073
ፂ	-10.6074
▁ተከተል	-10.6075
▁የዳ	-10.6077
▁ሰራዊቱ	-10.6078
ብሪ	-10.6078
▁የሚቀ	-10.6079
ፅፍ	-10.6081
ጠባበቅ	-10.6082
ስታውስ	-10.6084
▁ፈጠራ	-10.6084
▁ብትሆን	-10.6084
በደ	-10.6085
አንዳንድ	-10.6086
▁ናቡከደነፆር	-10.6086
መላ	-10.6087
▁መሲሁ	-10.6087
▁ተጠቅመው	-10.6088
▁የቻሉት	-10.6093
▁ችሎ	-10.6095
▁የበጎ	-10.6096
▁ባየ	-10.6097
▁ያወ	-10.6097
ቶቿ	-10.6098
ዘገ	-10.6099
▁ፈት	-10.6101
ጠኑ	-10.6102
▁ከዘአበ	-10.6103
▁ተጨ	-10.6103
▁ተሳታፊ	-10.6104
▁ከዛሬ	-10.6107
▁የመኪና	-10.6111
ገኛ	-10.6117
▁ይታያሉ	-10.6119
▁መረብ	-10.6119
▁👉	-10.6125
▁ድምፁን	-10.6128
ዋይ	-10.6131
▁የተፈጠረው	-10.6132
ከበረ	-10.6132
▁ተቀብለው	-10.6133
▁ዋይ	-10.6134
▁ተመዝግቦ	-10.6134
▁የስኳር	-10.6134
ጎበኙ	-10.6134
▁አህጉረ	-10.6135
▁ዋሻ	-10.6136
▁ለማስተካከል	-10.6136
▁ከፈለግን	-10.6136
▁ብሏቸዋል	-10.6136
▁አውሎ	-10.6138
▁የቀሩት	-10.6139
ቀጥል	-10.6143
ጋን	-10.6144
▁ምንዝር	-10.6144
▁አስቀ	-10.6145
▁ሀላፊነቶች	-10.6148
ታን	-10.6148
▁አምባ	-10.6149
▁ጓደኛህ	-10.615
ቡን	-10.615
▁ሰንጠረዥ	-10.615
▁በባቢሎን	-10.615
▁የግብርና	-10.615
▁ርምጃ	-10.615
▁ራሳችን	-10.6155
▁ከብ	-10.6155
ግለ	-10.6155
ማችን	-10.6155
ቀደ	-10.6157
▁በማዘጋጀት	-10.6159
▁ይገባ	-10.6163
▁አድርጎታል	-10.6165
▁ተአምራዊ	-10.6166
▁አቀረቡ	-10.6167
▁እስያ	-10.6167
ስክ	-10.617
▁በአስቸኳይ	-10.6171
▁ጅ	-10.6171
ገኛቸው	-10.6173
▁ተግባራትን	-10.618
▁አይደለሁም	-10.6182
▁በፊቴ	-10.6182
▁የቻይና	-10.6183
▁በሆ	-10.6184
ቀረቡ	-10.6186
▁ጥሬ	-10.6189
▁የአትክልት	-10.619
▁ክር	-10.6192
▁አበበ	-10.6192
ፏቸው	-10.6192
▁ጊዜው	-10.6194
ቾች	-10.6195
የሚ	-10.6198
▁ተነሳስቶ	-10.6198
▁ስርአቱን	-10.6199
▁ለመላው	-10.6205
▁አንደበት	-10.6206
ታላችሁ	-10.6207
ጣቱ	-10.6212
▁ውቅያኖስ	-10.6213
▁ነሽ	-10.6217
ጣጣ	-10.6224
▁የሚያበቃ	-10.6225
ከታተ	-10.6225
▁ነቀፋ	-10.6226
▁ጀመርን	-10.6227
▁መዝናኛ	-10.6228
ራውያን	-10.6231
▁በሰማ	-10.6236
▁ክብረ	-10.6237
ፍቅ	-10.6237
ጠራቸው	-10.6243
▁መበለት	-10.6245
ችኝ	-10.6246
▁ክለብ	-10.6246
ለር	-10.6248
▁ከሀጢአት	-10.625
▁እንደሚያሳየው	-10.625
▁አስቴር	-10.6251
▁እንደሚሰጥ	-10.6254
b	-10.6255
an	-10.6257
▁በአይን	-10.6259
▁ከአስር	-10.626
▁መገንባት	-10.6261
▁በአማካይ	-10.6261
▁ያለህ	-10.6262
▁ለመደገፍ	-10.6263
▁ያድርጉ	-10.6264
▁በሚሰጠው	-10.6267
ማረ	-10.6269
ይት	-10.627
▁ውሻ	-10.6276
▁ለንጉሱ	-10.6277
▁ካሌንዳር	-10.6277
▁ይጀምራል	-10.6277
▁ፌደራላዊ	-10.6277
▁ቀበሌ	-10.6278
ቁር	-10.6279
▁ጠይቅ	-10.6281
▁ዊ	-10.6282
▁ባልተ	-10.6283
▁የፖ	-10.6284
▁የተሰጣቸው	-10.6287
▁ወንዞች	-10.6291
ፈሪሀ	-10.6292
▁አሰቃቂ	-10.6293
▁ዜ	-10.6294
▁ማሰላሰል	-10.6294
▁በተናገረው	-10.6295
▁የዜና	-10.6298
▁ነበሩት	-10.6301
▁ህገወጥ	-10.6302
ቀረብ	-10.6302
ዎስ	-10.6305
▁በሰንበት	-10.6307
▁ተቀምጠው	-10.6309
ከሰቱ	-10.631
▁ሳታ	-10.6315
▁ስፍር	-10.6317
ረባ	-10.6317
▁ጣቢያዎች	-10.6317
▁ካር	-10.6318
▁ሊሰጠው	-10.6319
▁የእናንተ	-10.6319
▁አካላትን	-10.6323
▁ሌዋውያን	-10.6325
▁ሳይንቲስቶች	-10.6325
መርጡ	-10.6326
▁ወዳ	-10.6328
▁ብልሹ	-10.6329
ከኝ	-10.633
▁የህዝቡን	-10.6331
▁ሲፈፀም	-10.6332
▁ተዋጊዎች	-10.6333
▁ታከለ	-10.6334
መልሱ	-10.6336
▁ኹኔታ	-10.6341
▁የተገባ	-10.6342
በድ	-10.6344
▁ይመጣሉ	-10.6347
▁ሐ	-10.6347
▁በማየት	-10.6347
▁ማሀበራት	-10.6349
▁ቲቪ	-10.635
▁ብድር	-10.6351
መለሰ	-10.6352
▁ሀኪሞች	-10.6357
▁ስነስርአት	-10.6357
▁ሰሌዳ	-10.6357
▁በራሳችን	-10.6358
▁በነ	-10.6358
▁የሰሜን	-10.6358
▁የዩኒቨርሲቲው	-10.636
▁ከመጣ	-10.636
▁አብራ	-10.6362
▁አለሙ	-10.6362
ድኑ	-10.6365
▁የፈጠራ	-10.6368
▁እነዚህም	-10.6369
▁የምናደርገው	-10.637
▁አስኪያጁ	-10.6373
▁ያለማቋረጥ	-10.6373
▁ጓ	-10.6373
▁ከጥንት	-10.6373
ቧል	-10.6373
▁ሁከት	-10.6374
▁ያለህን	-10.6377
▁ከመቶ	-10.6381
▁ይገኝ	-10.6382
ወይ	-10.6382
▁እንዲሰጠው	-10.6386
▁ከኤ	-10.6386
▁በዋናነት	-10.6389
▁የሀብረት	-10.6389
ጣው	-10.6395
▁አዘውትረ	-10.6396
ሰጠኝ	-10.6399
▁ነገራቸው	-10.6401
ድል	-10.6404
▁፸፭	-10.6405
▁ታች	-10.6406
በጎርጎርያ	-10.6407
▁ጠብቀው	-10.6411
ግማሽ	-10.6411
ዝና	-10.6414
መሰክር	-10.6415
▁ይነሳል	-10.6416
ተወ	-10.6416
ነገረ	-10.6421
▁መዋእል	-10.6421
▁ለልጆቻቸው	-10.6421
▁እንደሌላቸው	-10.6422
▁ቢችልም	-10.6422
▁የለባቸውም	-10.6422
ከፈቱ	-10.6425
ፈልገው	-10.6425
▁ማእረግ	-10.6425
▁ይሄን	-10.6426
▁ለሚኖሩ	-10.6429
ነሰ	-10.6432
▁አላማውን	-10.6433
c	-10.6434
▁የሚያሰኝ	-10.6435
በኩር	-10.6436
▁ጓደኞቼ	-10.6437
▁ፍፁማን	-10.6437
▁እሴቶች	-10.6437
▁ረቡእ	-10.6438
▁ማእ	-10.6438
▁አገልጋዮቹን	-10.6441
ርጎ	-10.6443
▁ያደረ	-10.6445
▁መነጋገር	-10.6446
▁መመገብ	-10.6449
▁ህዳር	-10.6452
▁በእግር	-10.6452
መረጡ	-10.6452
ፈርድ	-10.6453
▁የሚገልፀውን	-10.6455
▁መስኮች	-10.6455
▁ሊደረግ	-10.6459
▁ህዝቤ	-10.6461
▁የሚያገኘው	-10.6462
ነግራቸው	-10.6462
▁ስለምት	-10.6464
▁የሚቀጥለው	-10.6466
▁ፕሬስ	-10.6466
▁የከ	-10.647
▁ካገኘ	-10.647
▁ወዳድ	-10.647
ኖራቸው	-10.6473
▁ክፋትን	-10.6473
▁ውድቅ	-10.6474
ጠበ	-10.6479
▁ደግሞስ	-10.6482
▁ጫ	-10.6484
▁እያሳ	-10.6486
▁አንዳንዴ	-10.6486
▁ርቆ	-10.6487
ርቁ	-10.6488
▁፲፱፻፺፯	-10.6488
▁መጠንቀቅ	-10.6491
ለል	-10.6491
ላኩ	-10.6493
በቱ	-10.6494
▁ስለሚችል	-10.6496
▁ቀረበ	-10.6497
▁ይሰማል	-10.6497
ሰቃይ	-10.6497
በተ	-10.6499
▁ደብዳቤዎች	-10.6501
▁አደር	-10.6502
▁የሁለት	-10.6503
▁ማደሪያ	-10.6506
▁በመቃወም	-10.6507
ቆርጥ	-10.6509
ርኩ	-10.6511
ኗል	-10.6512
▁እንዲመለስ	-10.6516
▁መብ	-10.6516
▁ጠቅሷል	-10.6519
▁መሻሻል	-10.6525
▁የሙሴ	-10.6528
▁መደረግ	-10.6529
▁በጋ	-10.653
▁የተሰኘ	-10.6532
ማሪ	-10.6533
▁የሚሰማ	-10.6534
በሚያወጣው	-10.6534
▁ማክሰኞ	-10.6534
▁ለአብርሀም	-10.6535
▁የደስታ	-10.6541
▁አራተኛ	-10.6542
ዋጥ	-10.6544
▁በወጣው	-10.6546
▁ሌዋውያኑ	-10.6551
▁ለማዳበር	-10.6551
▁መልካሙን	-10.6552
ሰማራ	-10.6557
ጣችሁ	-10.6559
ሳስ	-10.656
ጋለጥ	-10.6562
▁ሰጥተው	-10.6564
▁በሰይጣን	-10.6568
ነጋገ	-10.6568
▁ፍየል	-10.6569
▁ምነው	-10.6571
▁ምክሮች	-10.6571
▁ማሻሻል	-10.6571
▁የኢየሩሳሌም	-10.6572
▁ደረቅ	-10.6573
▁በቁ	-10.6574
▁እንደሚኖር	-10.6574
▁ያሬድ	-10.6575
ረታ	-10.6575
ሌት	-10.6575
▁እጁ	-10.6577
ሯት	-10.6579
▁ድን	-10.6581
▁የተትረፈረፈ	-10.6584
▁ያደርገናል	-10.6584
▁ታትሞ	-10.6585
▁አስቡ	-10.6586
▁ተነሱ	-10.6587
ጠመቁ	-10.6591
▁አጥንት	-10.6594
▁ተቆጣጣሪ	-10.6598
▁አግኝተው	-10.66
▁ጠቅሶ	-10.6603
▁የማል	-10.6604
መልከ	-10.6604
▁የቴሌቪዥን	-10.6606
▁ባሎች	-10.6606
▁የማየት	-10.6608
ጧቸው	-10.6608
▁አደረገው	-10.6609
▁አካባቢው	-10.661
▁የፀሀይ	-10.661
▁አዳራሹ	-10.6611
▁ለማዋል	-10.6613
▁ባርነት	-10.6614
▁በቡድን	-10.6617
▁እንዲል	-10.6618
▁ይሰጥ	-10.6622
ቦር	-10.6627
▁በየሳምንቱ	-10.6634
▁ክንውኖች	-10.6634
▁ይታይ	-10.6635
▁እምነቶች	-10.6636
▁ቪዲዮ	-10.6636
▁አቢ	-10.6639
ቲቪ	-10.6641
በብ	-10.6643
▁ጥበብን	-10.6647
▁ኩባንያዎች	-10.6648
▁ያለኝ	-10.665
▁ኤምባሲ	-10.665
▁የጊልያድ	-10.665
ጮኽ	-10.6651
▁ሀላፊነቱን	-10.6651
ተላለፍ	-10.6651
ዋቸዋል	-10.6654
▁ዳይሬክቶሬት	-10.6656
▁ሚክያስ	-10.6656
▁ከኢየሩሳሌም	-10.6659
ሞተ	-10.6661
መዝገብ	-10.6663
▁ከሳ	-10.6664
ላለ	-10.6665
▁ተባባሪ	-10.6665
▁ሰጡ	-10.6666
▁በኢንተርኔት	-10.6667
▁ተመልክቷል	-10.6667
▁ክልላዊ	-10.6667
▁በማንበብ	-10.6667
▁በወጣ	-10.6668
▁በየወሩ	-10.6669
▁መተማመን	-10.6669
▁አልአዛር	-10.667
▁ሲሰራ	-10.6671
▁ይጠብቁ	-10.6673
▁መልሰው	-10.6674
▁እዝራ	-10.6676
▁በውስጣቸው	-10.668
ካን	-10.6682
▁በሺዎች	-10.6684
▁ስልጣናት	-10.6684
▁ትልልቅ	-10.6684
▁በፆታ	-10.6685
▁ያመ	-10.6686
ጆች	-10.6686
ተዳደር	-10.6686
የተ	-10.6688
ዳት	-10.6691
▁ቀኖች	-10.6693
▁ተራራማ	-10.6694
ዳድ	-10.6696
▁መላውን	-10.6696
▁መኳንንት	-10.6698
▁በአፍ	-10.6703
መርጥ	-10.6704
ጥቅ	-10.6706
▁ራሷን	-10.6711
ግን	-10.6712
▁የማሰብ	-10.6713
ሀይ	-10.6713
▁እመ	-10.6713
ካይ	-10.6713
ግዚ	-10.6714
▁ያተኮረ	-10.6717
ደጉ	-10.6721
▁እንደምትችል	-10.6721
ሸነፍ	-10.6722
▁የሚሰማቸው	-10.6724
▁አይኖች	-10.673
ፋን	-10.673
▁ሂዱ	-10.6733
ዊት	-10.6733
▁ጋዜጠኞች	-10.6733
▁ትራክት	-10.6734
▁ከነበረ	-10.6735
ተኩ	-10.6737
▁ገልፆ	-10.6739
መዘገቡ	-10.6739
ገልፁ	-10.6741
▁የተሳካ	-10.6743
ሠራ	-10.6743
▁ምርቶች	-10.6746
ጋቸው	-10.6746
▁ገሞራ	-10.6747
ጥሉ	-10.6747
▁የሌለ	-10.6747
▁ይኖራቸዋል	-10.675
▁ሚዛን	-10.6751
▁ልጆቻችሁን	-10.6752
ነቶች	-10.6753
▁ቬ	-10.6755
በላሽ	-10.6755
ንዲ	-10.6755
▁አቤል	-10.6755
▁ሲመጡ	-10.6755
▁የገበያ	-10.6757
▁መጠለያ	-10.6758
▁በመኪና	-10.6759
▁የሚያደርገውን	-10.6763
ሸት	-10.6764
፺	-10.6765
▁፶፬	-10.6767
▁ማነው	-10.6767
▁አሳቢ	-10.677
▁እስክ	-10.6774
▁መቆም	-10.6774
ለቱ	-10.6777
▁ጀግና	-10.6778
ደፍ	-10.6778
▁እንደሚረዳ	-10.6781
▁ወረራ	-10.6782
ኖስ	-10.6782
▁የውሳኔ	-10.6783
▁ትላንት	-10.6784
▁የባንክ	-10.6784
▁አልነበረውም	-10.6784
ኩም	-10.6785
▁ግሪክ	-10.6786
ቲን	-10.679
ላቱ	-10.6792
ሲስ	-10.6793
▁በማግስቱ	-10.68
️	-10.68
▁በህጉ	-10.6802
ፀው	-10.6803
▁ተካ	-10.6804
▁ኮሎኔል	-10.6804
ጠብቀው	-10.6805
ክራ	-10.6806
ራሪ	-10.6808
▁የወንድማማች	-10.6808
▁ከተደረገ	-10.681
▁ቆይቶ	-10.6811
ጀት	-10.6813
▁ስህተቶች	-10.6817
▁በመርዳት	-10.6817
▁መፍታት	-10.6818
▁ታይቷል	-10.6818
▁ለመመልከት	-10.6818
▁ከራስ	-10.682
ፎቹ	-10.6821
▁የሰራው	-10.6825
▁የመያዝ	-10.6826
▁ከህዝብ	-10.6828
▁በተካሄደው	-10.6828
▁ከማይ	-10.6829
ወዳቸው	-10.6832
▁ተጠቁሟል	-10.6834
▁አውስትራሊያ	-10.6834
▁ኦሮሚያ	-10.6834
▁የበጀት	-10.6835
▁የተነገረው	-10.6835
▁ለአደጋ	-10.6835
▁ኢላማ	-10.6835
▁መንገ	-10.6837
ዲዮ	-10.6839
ተላለፉ	-10.6839
ጥን	-10.684
▁የምትባል	-10.6841
▁ሳይንሳዊ	-10.6841
▁ቀንበር	-10.6843
፵	-10.685
▁ከሰ	-10.685
▁የሚገርመው	-10.6851
▁ባድማ	-10.6851
ወጣቸው	-10.6854
▁ያላትን	-10.6856
▁ወረዳዎች	-10.6859
▁ስድብ	-10.6861
ጋይ	-10.6861
▁ኤድስ	-10.6862
ስታን	-10.6864
▁ሀዋርያ	-10.6866
▁የለውጥ	-10.6866
er	-10.6867
▁ዘጋቢ	-10.6868
▁ሚስጥር	-10.6868
▁እፅዋት	-10.6868
▁ክብ	-10.6871
▁እንድናገኝ	-10.6872
▁ሼ	-10.6873
ጠራጠር	-10.6875
ከታተል	-10.6876
▁ህይወቴ	-10.6878
ፀኑ	-10.6883
▁ህይወታችንን	-10.6885
▁ከአንዱ	-10.6885
▁ሽብር	-10.6886
▁ከፋዩ	-10.6887
▁አሳማኝ	-10.6888
ማርያም	-10.6889
ቻቸውን	-10.6889
ባን	-10.6895
▁ጨካኝ	-10.6902
▁ሲሰሙ	-10.6904
▁ማሰልጠኛ	-10.6905
▁በትንሳኤ	-10.6907
ፐር	-10.6909
▁የእውቀት	-10.691
መደበ	-10.691
ተርፍ	-10.6912
▁ድንገተኛ	-10.6913
ፍሬ	-10.6914
ሚገልፀው	-10.6915
ቸር	-10.6916
▁በመቶዎች	-10.6917
▁በታላቁ	-10.6918
▁፶፫	-10.6919
▁ማእበል	-10.6919
▁የንጉስ	-10.6919
▁ውድቀት	-10.6921
▁መልእክተኛ	-10.6922
▁ላባ	-10.6922
ኮራ	-10.6922
ሰሙት	-10.6923
▁መልሱን	-10.6923
▁ታይምስ	-10.6925
ሰፋ	-10.6926
ረጋ	-10.6928
▁ፈውስ	-10.6928
▁ውስን	-10.6928
▁ወለል	-10.693
ቅር	-10.6933
▁የሚደረጉ	-10.6936
ለቀቅ	-10.6948
ወያዩ	-10.6949
▁የተቀናጀ	-10.6953
▁አያጠራጥርም	-10.6953
▁ለማንበብ	-10.6953
▁በልጁ	-10.6956
ጤን	-10.6957
▁እንደሚያስ	-10.6959
ግዛት	-10.6959
▁አነሳ	-10.696
ጥንቷ	-10.6961
▁በቀረበ	-10.6964
▁የንቁ	-10.6967
▁ፊደላት	-10.697
▁ማዋል	-10.6971
▁የፀረ	-10.6972
▁የመከላከል	-10.6973
ጠዋል	-10.6973
ግቡ	-10.6975
▁የራስን	-10.6976
▁የሚወጣው	-10.6976
▁ቡድኑ	-10.6977
▁አስተዳደሩ	-10.6979
ለያይ	-10.6981
▁ጃዋር	-10.6982
ጠራው	-10.6984
▁በአብ	-10.6985
▁ስምምነቶች	-10.6987
▁መሀሪ	-10.6987
▁በስም	-10.6991
▁ማሳያ	-10.6994
▁ወላጆቹ	-10.6995
▁ማቋቋሚያ	-10.6996
▁ንጉሰ	-10.6998
▁ረዥም	-10.7001
▁፻፳	-10.7003
▁መዳ	-10.7003
▁መግባባት	-10.7004
▁በልብ	-10.7005
▁ጠይቀዋል	-10.7005
▁ከአደጋ	-10.7005
ቀበ	-10.7007
▁የሚፈልገው	-10.7007
▁በአየር	-10.701
፷	-10.7013
ወርዱ	-10.7021
▁ተመስገን	-10.7021
▁መቀጮ	-10.7022
▁በጦር	-10.7024
ለሽ	-10.703
ነዳ	-10.7032
▁በተሞላ	-10.7036
▁ሀውልት	-10.7038
ታውያን	-10.7039
▁ሄዷል	-10.7039
ይል	-10.7039
▁ማሳወቅ	-10.704
▁፷፮	-10.7041
▁ኢራቅ	-10.7043
፻፲	-10.7047
በላው	-10.7052
▁መሆናችን	-10.7054
▁ለህግ	-10.7055
!	-10.7055
፥	-10.7055
▁ይሰጣቸዋል	-10.7055
▁አኳያ	-10.7055
ዋለው	-10.7056
▁ጥገና	-10.7057
▁ይገባቸዋል	-10.7058
ጋገ	-10.706
▁ሰራተኛው	-10.7064
▁ከአራት	-10.7065
፻፲፪	-10.7065
▁ጠቦት	-10.707
▁ተግባሮች	-10.7073
▁መምረጥ	-10.7073
▁እየደረሰ	-10.7073
▁ከሆንክ	-10.7073
▁መስፍን	-10.7073
▁ገለልተኛ	-10.7073
ወስደው	-10.7076
▁የማቅረብ	-10.7076
▁በውስጥ	-10.7078
▁መካከለኛ	-10.7079
▁የኢህአዴግ	-10.7079
▁በጤና	-10.708
▁የኖረ	-10.7084
ባክ	-10.709
▁የምንችልበት	-10.709
▁ኢንተርኔት	-10.709
▁ካምፕ	-10.709
ገድሉ	-10.7091
▁ምክንያቱ	-10.7093
ገዝ	-10.7094
▁ተስፋዬ	-10.7096
▁ካደረገ	-10.7097
▁ከምንም	-10.7099
ሰድ	-10.71
፻፲፮	-10.7101
▁ለወ	-10.7103
ከፈል	-10.7103
ረጋጋ	-10.7105
▁የቴክኒክ	-10.7106
ባሪ	-10.7107
▁እንዳለብኝ	-10.7107
▁ሄሮድስ	-10.7107
▁አወዳድር	-10.7107
▁፲፱፻፺፬	-10.7109
▁እስ	-10.7113
ጥራ	-10.7115
ላታል	-10.7115
▁ተጣ	-10.7116
▁አልኩ	-10.7119
ጠሉ	-10.712
▁ይመጣ	-10.7122
▁የቆዳ	-10.7123
▁ጥልቀት	-10.7125
ቆረጠ	-10.7125
▁በሽታው	-10.7126
▁ገመድ	-10.7129
▁ካህኑም	-10.7129
▁መፈ	-10.7135
ስጠ	-10.7138
▁ይኼ	-10.714
▁ቀንድ	-10.714
▁ይቆ	-10.7141
▁ጠል	-10.7141
▁የዛ	-10.7142
▁ፈረስ	-10.7142
▁እገዳ	-10.7143
▁★	-10.7143
▁ሰምተው	-10.7146
▁በላዩ	-10.7148
▁ያስባሉ	-10.715
▁አርማ	-10.7153
▁ሲደርሱ	-10.7155
▁በቻይና	-10.716
ድሮ	-10.716
▁ኖሯል	-10.716
▁ከመጀመሪያው	-10.7161
▁ባቡር	-10.7161
▁ፈረሶች	-10.7162
▁ከጀመረ	-10.7164
ማውያን	-10.7165
▁እንዲገቡ	-10.7165
▁ከዛ	-10.7166
▁አድራሻዎች	-10.7169
▁የትም	-10.7169
▁እዩ	-10.7169
ንጅ	-10.7171
▁በግድ	-10.7171
▁አባታቸው	-10.7172
▁እንደሚፈልግ	-10.7175
▁ይለናል	-10.7176
ፊት	-10.7176
▁በመዝሙር	-10.7176
▁ዜግነት	-10.7177
ሮቻቸው	-10.7179
▁የራሳቸው	-10.7184
ናይ	-10.7186
የአ	-10.7187
ጊዜ	-10.7191
▁ያገለግላል	-10.7194
ገለግል	-10.7195
▁18	-10.7195
ፄ	-10.7199
▁፶፮	-10.72
▁ደብ	-10.7204
▁ኬንያ	-10.7206
▁ገል	-10.7206
▁ገንዘቡን	-10.7209
ዳግ	-10.7209
▁አገልግሎቱ	-10.7209
▁በጌ	-10.7209
▁ነገረ	-10.7211
▁በጭራሽ	-10.7212
ሰደዱ	-10.7213
▁ሲጀምር	-10.7213
ዘነ	-10.7219
▁እንድትችል	-10.722
2	-10.722
▁ይኽ	-10.7221
ረር	-10.7228
▁ተወላጆች	-10.7229
ቆጠሩ	-10.723
▁ማጠናከር	-10.7233
▁ወይዘሮ	-10.7235
ሸሹ	-10.7238
▁፣	-10.7238
ሰበሰብ	-10.7241
▁እጩ	-10.7246
▁ሪፖርቶች	-10.7247
▁ያብራራል	-10.7247
▁ተመስርቶ	-10.7247
ስቶ	-10.7247
▁አቀባይ	-10.7247
▁ሀጢአተኞች	-10.7248
▁የቅጣት	-10.7248
▁እንዲፈጠር	-10.7249
ወገድ	-10.7251
▁በስሙ	-10.7256
ሸከም	-10.7259
▁የነዳጅ	-10.7264
▁የመጠጥ	-10.7268
▁አረንጓዴ	-10.727
▁ፅሁፉ	-10.727
▁የማታ	-10.7271
▁ቀናተኛ	-10.7271
▁በረ	-10.7272
ከራ	-10.7273
▁ምእ	-10.7274
▁አድን	-10.7275
▁አጋንንት	-10.7276
▁ቸርነት	-10.7277
▁ተሰሎንቄ	-10.7278
▁መዋ	-10.7278
▁ስለነበሩ	-10.7279
▁ጡት	-10.7282
ቲቱ	-10.7283
▁ቅዳሴ	-10.7284
▁ውሰድ	-10.7285
▁እውነቶች	-10.7287
▁ጉባኤውን	-10.7292
ለውጥ	-10.7293
▁ለጥ	-10.7294
ሟሉ	-10.7296
▁የሚመለከተው	-10.7296
ነባ	-10.7297
ፈተን	-10.7297
▁ይገኛል።	-10.7298
▁መስጫ	-10.7301
▁ለማመን	-10.7309
አዊ	-10.731
ጥና	-10.7312
▁ፅሁፉን	-10.7313
▁እንዳታ	-10.7315
▁አይኖረውም	-10.7317
፻፲፫	-10.7322
▁ሞላ	-10.7323
▁ከመሬት	-10.7323
▁የሚያፅናና	-10.7325
▁ጠብቅ	-10.7327
▁በሌለበት	-10.7327
▁ስራችን	-10.7328
▁ኮሚሽነር	-10.7329
▁ከእሷ	-10.7336
▁የሶስት	-10.7336
ፃፉ	-10.734
ሳቱ	-10.7341
▁የሚያምን	-10.7347
▁ፕሮጀክቶች	-10.7352
▁አዳኝ	-10.7352
▁ይረዳሀል	-10.7353
▁ታናሽ	-10.7355
ሀብ	-10.7356
▁፳፻፩	-10.7356
▁በኒው	-10.7359
▁ተመለከተ	-10.736
ምሽቱ	-10.7362
▁ለትምህርት	-10.7363
ልቁ	-10.7363
▁መልእክቱን	-10.7364
▁ጠላ	-10.7365
▁አበል	-10.737
▁ለመስበክ	-10.737
▁የመምረጥ	-10.737
፻፶	-10.7373
ባረ	-10.7375
▁እንዲፈፀም	-10.7375
▁አሳየ	-10.7375
▁የተሰራው	-10.7376
▁ቤተሰቡን	-10.7377
ቾ	-10.7379
▁የተመሰረተው	-10.7379
ر	-10.7388
▁ተነግሯል	-10.7388
▁መገለጫ	-10.7388
▁ሰባኪ	-10.7389
ወዳደር	-10.7389
▁ተባ	-10.7391
ሮት	-10.7399
ብት	-10.7402
▁ጓደኛችሁ	-10.7403
▁አስጨናቂ	-10.7406
▁ወቅቶች	-10.7406
ጠናቀቅ	-10.7412
▁አምኖ	-10.7413
▁አገሩ	-10.7414
▁ልበ	-10.7417
▁ስሜቶች	-10.7418
▁በጎንደር	-10.7419
ብሀል	-10.7419
▁የገጠር	-10.742
ባቱ	-10.7421
▁እንደሚሆኑ	-10.7422
በራቸው	-10.7424
▁መለወጫ	-10.7424
▁ጠይቆ	-10.7424
መስሉ	-10.7426
ወስን	-10.7428
ራስ	-10.7429
▁ሰፋ	-10.7432
▁በንኡስ	-10.7432
▁ባለን	-10.7436
▁አውደ	-10.7437
▁በሚያስ	-10.7437
▁ብቸኛው	-10.7437
ቤቶች	-10.7437
▁ታደርጋለህ	-10.7442
▁የሰፈነበት	-10.7442
▁የሰራተኛ	-10.7443
ዛባ	-10.7445
▁ያሳዩት	-10.7449
▁ሀይማኖትን	-10.745
▁መርህ	-10.7451
▁የሚኖርበት	-10.7452
▁ለምድር	-10.7453
▁ክላ	-10.7455
ሳለች	-10.7456
▁ዜማ	-10.7459
▁ይይዛል	-10.746
ሯን	-10.746
▁አላግባብ	-10.7462
ዘሩ	-10.7465
▁እሴት	-10.7466
▁አስተሳሰ	-10.7466
▁ያጠ	-10.7471
▁ተዳ	-10.7475
ጋሪ	-10.7475
▁ትምክህት	-10.7478
▁ከተገኘ	-10.7478
▁Ã	-10.7479
▁እህቴ	-10.7479
▁እርስዎ	-10.7485
▁ከሌሎቹ	-10.7485
ርሶ	-10.7485
▁ጫካ	-10.7486
▁ያገ	-10.7487
▁የሚፈ	-10.7487
▁የተሰማሩ	-10.7488
ማው	-10.7489
▁ወርዶ	-10.7494
ሸጥ	-10.7495
▁በመንግስቱ	-10.7495
▁መስራች	-10.7496
ደባ	-10.7497
▁የልዩ	-10.7499
▁በተገኙበት	-10.7503
ክረው	-10.7507
▁የሚሄዱ	-10.751
ውጣ	-10.7511
▁ተለ	-10.7512
▁የምዝገባ	-10.7514
▁ጭማሪ	-10.7514
ፈረሰ	-10.7517
▁ዉ	-10.7518
ለያ	-10.7518
▁ማቆም	-10.7519
ገድል	-10.7519
ጣጥ	-10.7519
▁በወንድ	-10.7523
")	-10.7523
▁የተነሳው	-10.7526
▁ጠባብ	-10.7528
▁መከ	-10.7531
▁ለመውጣት	-10.7532
፼፲፱፻	-10.7532
▁በብር	-10.7532
▁ጠቅ	-10.7532
▁ቡክ	-10.7535
ልድ	-10.7537
ድራ	-10.754
▁ወላጆቻቸው	-10.7541
▁አጠ	-10.7544
ዷቸው	-10.7547
ታሰሩ	-10.7548
▁ቅርንጫፎች	-10.755
▁በአንቺ	-10.7552
ናቅ	-10.7553
▁ለማሸነፍ	-10.7553
ስለ	-10.7553
▁ናታን	-10.7554
▁ሌላም	-10.7554
▁የክስ	-10.7555
▁ሬሳ	-10.7557
▁ቁስል	-10.7558
▁ጥቅሱ	-10.7559
ጥላ	-10.756
ቀመ	-10.7562
▁አቀራረብ	-10.7564
▁ባወጣው	-10.7565
▁ፈራ	-10.7566
▁ትሆናለህ	-10.7568
▁በመፍጠር	-10.7568
▁ገበሬዎች	-10.7569
ሷቸው	-10.7577
▁የቤተሰቡ	-10.7577
ረቅ	-10.7584
▁ያከናውናል	-10.7586
ዲን	-10.7586
ታሉ	-10.7587
ካሄድ	-10.7589
ኖራ	-10.759
መዘ	-10.7591
ርዶ	-10.7593
▁ያለባቸውን	-10.7594
▁በሆነችው	-10.7594
ለትም	-10.7595
▁በራስህ	-10.7598
በታ	-10.7598
▁ይለዋል	-10.7598
▁ሲወጣ	-10.76
▁የገፉ	-10.7601
▁በዘመናዊ	-10.7602
▁የድርጅቱ	-10.7602
▁ንብረቶች	-10.7604
▁የድንጋይ	-10.7604
▁ነዳጅ	-10.7604
▁መራራ	-10.7605
ያየ	-10.7605
▁ታድ	-10.7607
▁ዲሲ	-10.7609
▁አቅርቡ	-10.761
▁አስረኛ	-10.761
▁ገዢዎች	-10.7612
▁በእውቀት	-10.7613
▁የመሰረተ	-10.7613
▁አገሪቱ	-10.7614
▁ፎር	-10.7616
▁ቸል	-10.7617
ዘብ	-10.7622
▁አትክልት	-10.7622
▁ማንንም	-10.7623
▁ፅቤቱ	-10.7623
▁ማለ	-10.7624
▁፳፻፫	-10.7625
▁የማምለኪያ	-10.763
▁እንደሚል	-10.763
▁በሁለተኛ	-10.763
▁የፈ	-10.7631
▁ሊያወጣ	-10.7631
▁ፍራ	-10.7632
▁ያነ	-10.7637
▁በአቅኚነት	-10.7641
አደንዛዥ	-10.7641
▁በሀላፊነት	-10.7641
▁ለልጆች	-10.7641
▁፳፻፬	-10.7643
ቷቸዋል	-10.7643
▁ደመቀ	-10.7644
▁በቀል	-10.7647
▁ለሀ	-10.7648
አብ	-10.7649
▁ሞኝ	-10.7654
ካከ	-10.7655
▁የተወለደው	-10.7656
▁ምርኮ	-10.7657
▁እንዳገኘ	-10.7658
▁ቆርጦ	-10.7659
▁ቶማስ	-10.766
ደርገ	-10.7661
▁፲፱፻፺፱	-10.7661
▁ክፉኛ	-10.7662
▁ሥራ	-10.7662
▁በእንግሊዝ	-10.7663
▁ግድግዳ	-10.7665
▁ሰሪ	-10.7665
▁ተዘጋጅቶ	-10.7665
ያል	-10.7669
▁የተሀድሶ	-10.7669
▁መኖራቸውን	-10.7671
▁ክንውን	-10.7672
▁ተገነዘብኩ	-10.7672
▁ኦር	-10.7675
▁የቆየው	-10.7675
▁እንዲጠብቁ	-10.7675
▁ተጠቅሷል	-10.7677
▁ይቀርባል	-10.7678
▁ከመቼው	-10.7678
▁ከሀገር	-10.7679
ሉን	-10.7681
▁ለመፅሀፍ	-10.7683
▁የመከራ	-10.7683
▁ወሮታ	-10.7684
▁የታመነ	-10.7686
▁ቅኝ	-10.769
▁የቤ	-10.7693
▁ታሪኩ	-10.7693
▁ቢኖሩም	-10.7693
▁ከአብ	-10.7693
▁እንደተገለፀው	-10.7696
▁ሀገሪቱ	-10.7697
▁የአመፅ	-10.7698
▁የለንም	-10.7701
▁በክፉ	-10.7701
▁የአመት	-10.7703
▁ማእከላት	-10.7706
▁ለማንም	-10.7707
▁ለምንስ	-10.7708
ጥፋ	-10.7709
▁የሚወጡ	-10.7709
ስላሴ	-10.7712
▁ሏላዊ	-10.7712
ረዳቸው	-10.7713
▁ቍርባን	-10.7714
▁ትንንሽ	-10.7714
▁ኮር	-10.7717
▁መጣል	-10.7717
ነካው	-10.7726
▁መጠጊያ	-10.7726
▁ሊንክ	-10.7727
▁ሲኖር	-10.7727
▁ጓደኞቹ	-10.7728
ዶር	-10.7729
▁ትጠ	-10.7729
▁በልባቸው	-10.773
▁የተካሄደው	-10.7731
▁ማብቂያ	-10.7732
▁ሀሙስ	-10.7733
▁ተገኝቷል	-10.7733
▁ይጨ	-10.7735
▁ደህና	-10.7736
ዎቹም	-10.7738
▁ከእርሱም	-10.7739
ሰጡት	-10.7742
▁በገነት	-10.7744
▁አክአብ	-10.7751
▁በቶሎ	-10.7751
▁ከግምት	-10.7752
▁የሚሰማው	-10.7752
▁ይባላል።	-10.7754
▁ስላላቸው	-10.7758
▁በምርጫ	-10.7759
ፈነዳ	-10.7761
▁ያወጣው	-10.7763
▁ነበሩ።	-10.7763
ብያ	-10.7765
ትር	-10.7767
▁መነኮሳት	-10.7769
▁ስብስብ	-10.777
▁ከመስጠት	-10.7774
▁ወደሚገኝ	-10.7774
▁ክንፍ	-10.7774
ጨነቁ	-10.7777
▁ተቀበሉ	-10.7782
▁ቅኔ	-10.7782
ዩን	-10.7783
ጨፍ	-10.7785
▁ጨዋታዎች	-10.7788
▁በክልል	-10.7789
▁ጥለው	-10.7789
▁የተወለደ	-10.7793
▁አማካይነት	-10.7795
▁ደሙን	-10.7796
▁መላክ	-10.7801
ደግፍ	-10.7801
▁ደጅ	-10.7803
▁የተዋ	-10.7805
▁በእብራይስጥ	-10.7806
▁ጥቃቅን	-10.7806
▁በመገኘት	-10.7806
▁ተከሳሾች	-10.7807
ቆስ	-10.7809
▁ይሆኑ	-10.781
▁ሎጥ	-10.7811
▁የምትኖረው	-10.7811
▁በማቴዎስ	-10.7812
▁ከአሁን	-10.7816
▁የፓ	-10.782
ሪካ	-10.782
ሰት	-10.7821
▁ስጥ	-10.7822
▁ተቃዋሚዎች	-10.7822
ጧል	-10.7822
▁አገባ	-10.7824
▁ሮማውያን	-10.7826
▁ለማሰብ	-10.7834
▁ሲደረግ	-10.7836
▁በኤርትራ	-10.7838
ስትራ	-10.7839
▁ይጠብቃል	-10.7844
▁የሁለተኛ	-10.7844
▁ቃየን	-10.7844
▁ፊቱን	-10.7845
▁፲፱፻፶፬	-10.7846
ታሰር	-10.7846
በጠ	-10.7847
▁የወንጌል	-10.7848
▁የሚጠይቁ	-10.785
▁የኢንቨስትመንት	-10.7854
▁ይጫኑ	-10.7857
▁ከአገር	-10.7859
ጓጉ	-10.7859
▁በየደረጃው	-10.7862
▁ይከታተላል	-10.7862
▁ፍንጭ	-10.7862
፻፲፩	-10.7863
▁ቅጥ	-10.7865
▁አልፈው	-10.7865
መለከታቸው	-10.7867
▁ሀላፊው	-10.787
▁ተሳ	-10.787
▁ሰጥቶታል	-10.7874
▁ይገመታል	-10.7874
ቸዋለህ	-10.7874
▁በሀላ	-10.7874
ነታችሁ	-10.7875
▁ርኩሰት	-10.7881
▁የቦርዱ	-10.7881
▁ችያለሁ	-10.7881
▁ግጥም	-10.7882
▁ፃፍ	-10.7882
▁ፅፎ	-10.7882
▁የሚወጣ	-10.7886
▁የሀገረ	-10.7887
▁ወደብ	-10.789
▁አጥጋቢ	-10.789
▁ማግ	-10.789
▁የጉ	-10.7893
▁ድሆች	-10.7897
▁የመጠቀም	-10.7897
፻፲፭	-10.7899
▁በተሳካ	-10.79
▁ሚንስትር	-10.79
▁እያንዳንዳችን	-10.7901
▁ተበ	-10.7901
▁እልል	-10.7901
ሞቹ	-10.7904
ጥሮ	-10.7907
▁ተዋጊ	-10.791
▁የተደረጉ	-10.7911
አድ	-10.7913
ገነቡ	-10.7914
▁ተጠሪ	-10.7914
▁በኩር	-10.7917
▁በስልጣን	-10.7917
ቴክ	-10.7918
▁ግብፃውያን	-10.7918
▁የሞተው	-10.7918
▁የሀገራችን	-10.7919
▁ሊኖሩ	-10.7924
▁ከብቶች	-10.7926
▁ሲያዩ	-10.7927
▁እስክት	-10.7931
▁የተቀ	-10.7933
▁ከኋላ	-10.7933
▁በወር	-10.7936
▁ልኡካን	-10.7937
▁ሀቀኛ	-10.7937
▁ወስዷል	-10.7937
ነቴ	-10.794
▁፻፶	-10.7942
ገንዘ	-10.7942
▁አገራዊ	-10.7943
ረዳት	-10.7946
ወጣት	-10.7952
▁ተሰማኝ	-10.7952
▁ዩኒቨርሲቲው	-10.7954
▁ምሳሌዎችን	-10.7955
in	-10.7955
▁ጠይቋል	-10.7956
▁አሳስበዋል	-10.7956
▁ተመልክቶ	-10.7956
▁ለቤተሰብ	-10.7958
▁፳፻፲፱	-10.7959
ታማ	-10.7959
▁ቤዛዊ	-10.7962
▁ተቆ	-10.7963
▁በወርቅ	-10.7964
▁ወደፊቱ	-10.7966
▁በአንደኛው	-10.7966
▁ተሽከርካሪዎች	-10.7968
▁የተመካው	-10.7969
▁የተቋቋመ	-10.7971
▁ከቆየ	-10.7975
ኬት	-10.7977
▁ማሳለፍ	-10.7977
▁እጆች	-10.7977
፻፵፪	-10.7978
▁መልሶች	-10.7978
▁ኤሳው	-10.7979
▁ውይይቱ	-10.7979
▁ለሀጢአት	-10.7979
▁በገባ	-10.798
መመ	-10.7981
▁ዳሩ	-10.7982
▁ሶዶ	-10.7982
▁ተጠርጣሪዎች	-10.7987
▁የእውነተኛው	-10.7992
▁በጠቅላላ	-10.7994
ክሪ	-10.7994
▁በተከታታይ	-10.7994
▁ከሁለቱ	-10.7994
▁በመላ	-10.7995
▁ቅርሶች	-10.7996
▁ከአባቱ	-10.7998
▁፸፪	-10.7999
ታገል	-10.7999
▁እንዲሰፍን	-10.8001
ሳለ	-10.8001
ዘመን	-10.8002
▁እምነታቸውን	-10.8004
▁ለመጨረሻ	-10.8005
▁ፍሬዎች	-10.8005
ጵ	-10.8012
▁መኖራቸው	-10.8013
▁የፀሎት	-10.8013
▁አስከሬን	-10.8013
▁አስተያየቶች	-10.8015
3	-10.8015
▁ያነሰ	-10.8018
▁የማያውቁ	-10.8021
▁ስፖርት	-10.8022
አብዛኞቹ	-10.8024
▁አሰፋ	-10.8026
▁ፍንዳታ	-10.8026
▁ማስገባት	-10.8027
▁ሊጠቀስ	-10.8027
▁የሚኖረውን	-10.8027
ነሳው	-10.8027
▁ፀጥ	-10.8028
▁ግቡ	-10.8028
▁ታስቦ	-10.8029
▁ኢዮሳፍጥ	-10.8032
▁አፅ	-10.8032
▁፲፱፻፺፮	-10.8034
▁ማቅ	-10.8036
▁ያካተተ	-10.8037
▁የሚሰሩት	-10.8039
.)	-10.804
▁ከዘ	-10.804
▁አባባ	-10.8041
▁አለህ	-10.8041
መሳሰል	-10.8045
▁መንፈሱ	-10.8045
▁ሀሳባቸውን	-10.8047
▁በአራት	-10.8048
▁ደማቅ	-10.805
▁በግራ	-10.805
▁በፌደራል	-10.8051
▁የታየው	-10.8051
▁የተያዘ	-10.8053
እሱ	-10.8054
▁መፅሄቶች	-10.8055
▁ለመለወጥ	-10.8055
▁አዋቂዎች	-10.8057
▁ይጠራል	-10.8058
ገለጡ	-10.806
▁የሚከናወነው	-10.8062
▁ሊረዳህ	-10.8064
▁እስጢፋኖስ	-10.8066
▁ተወለደ	-10.8068
▁የመሰሉ	-10.8069
▁ይገኙ	-10.8069
በበ	-10.8073
ኋት	-10.8084
▁እንደደረሰ	-10.8087
ጠይቃቸው	-10.8089
ለጠ	-10.8091
ቋቸው	-10.8091
▁ገበሬ	-10.8092
▁ይወጣሉ	-10.8094
ጋቡ	-10.8095
ገት	-10.8097
▁ያስቀ	-10.8097
▁እስካለ	-10.8102
▁አዛ	-10.8103
▁የአባቱን	-10.8103
ለዉ	-10.8105
▁የስልክ	-10.8109
▁ልጃችን	-10.811
▁ፍትህን	-10.8111
▁እንዲውል	-10.8111
ጋጥ	-10.8116
▁እንዲመጣ	-10.8116
▁ደረ	-10.8117
▁ሰዉ	-10.8119
▁መሸ	-10.8122
▁ያሳየ	-10.8125
ሊክ	-10.8125
ነገ	-10.8126
▁ያሏቸው	-10.8126
▁መንደሮች	-10.8128
▁እንደምና	-10.8131
▁የአስ	-10.8132
▁ጠቢብ	-10.8132
▁ፋይዳ	-10.8133
▁ፅንፈ	-10.8133
ጥለው	-10.8134
▁ቀለል	-10.8135
▁ያክል	-10.8136
▁አብራም	-10.8137
▁ከፋይ	-10.8139
ታመኑ	-10.8141
▁እሷን	-10.8142
▁የገና	-10.8143
▁እንደዚሁም	-10.8143
▁ኦርቶዶክሳውያን	-10.8144
▁ወን	-10.8144
▁የኢፌዴ	-10.8146
▁ተሞክሮዎች	-10.8146
▁በአድናቆት	-10.8146
▁አይመስልም	-10.8147
▁ሪፖርቱ	-10.8147
▁የጉዞ	-10.8147
▁ሊገኝ	-10.8148
▁እንደሚያስፈልግ	-10.815
▁በአራተኛው	-10.8154
▁ባህረ	-10.8155
ኤስ	-10.8159
▁ያቀረበ	-10.8159
▁ጠረጴዛ	-10.816
ن	-10.8165
▁ለሰ	-10.8165
▁ሊሰራ	-10.8165
▁መናፍቃን	-10.8166
▁ሳህለ	-10.8166
▁አትችልም	-10.8166
▁በኩራት	-10.8167
▁ወድቆ	-10.8169
ደቡ	-10.817
▁ለማሳካት	-10.8171
ጥፍ	-10.8172
ፀዳ	-10.8176
▁እፎይታ	-10.8178
]]	-10.8178
▁ሀይሉን	-10.818
▁ቲቶ	-10.8182
▁እስክንድር	-10.8183
▁ልባችንን	-10.8184
▁በዩኒቨርሲቲው	-10.8185
▁የነበራቸውን	-10.8191
▁የሸ	-10.8191
▁መገ	-10.8191
▁የመሳሰሉትን	-10.8193
ሲዮ	-10.8195
▁ወሰነ	-10.8198
▁የፈጠረ	-10.8199
▁ከተወሰነ	-10.82
ኜ	-10.8201
▁የሚያስብ	-10.8202
ተረ	-10.8204
▁ቅጠል	-10.8206
▁በነበረ	-10.8208
▁ከህግ	-10.8209
▁ግባ	-10.8211
▁በሀጢአት	-10.8212
▁በቀኝ	-10.8212
ወይም	-10.8215
መጡት	-10.8216
▁ሲመለከቱ	-10.8218
▁ጓደኛው	-10.8218
▁ሰባኪዎች	-10.8219
▁የሚጠራው	-10.822
▁የግብር	-10.8225
ዴር	-10.8226
▁በረሀ	-10.8227
▁መቆየት	-10.8234
▁ሽታ	-10.8236
م	-10.8236
▁ትምህርቱን	-10.8238
▁የተፈፀመ	-10.8238
▁5	-10.8238
▁ከሰጠ	-10.8239
▁ለሀገር	-10.824
▁እንውሰድ	-10.8243
መገቡ	-10.8246
▁፪፼	-10.8249
▁ፕላን	-10.825
▁በመመርመር	-10.825
▁በደብረ	-10.8253
▁ከእነርሱም	-10.8253
▁ክፉውን	-10.8253
ገዘ	-10.8253
▁በስራው	-10.8254
ፈጥ	-10.8255
ራለን	-10.8262
▁ይገልፃሉ	-10.8262
▁ተጠናክሮ	-10.8262
▁ህብረተሰቡ	-10.8262
▁ዘመድኩን	-10.8262
▁አመልክተዋል	-10.8263
ከተለ	-10.8263
▁በሴቶች	-10.8266
ሰይ	-10.8266
▁ካለን	-10.8271
▁ብሎታል	-10.8272
ለግ	-10.8272
መጠ	-10.8273
▁የኢንፎርሜሽን	-10.8275
h	-10.8277
▁አሳልፈው	-10.8278
▁ላኩ	-10.8279
▁የቡና	-10.828
▁በመምጣት	-10.8282
▁ማድረጉን	-10.8283
ጠየቀ	-10.8283
ቶቻችሁ	-10.8284
▁እንዲመለሱ	-10.8288
ሳን	-10.829
▁እነዚያን	-10.8292
▁እሳቱ	-10.8292
▁ተብላ	-10.8293
▁ትታ	-10.8294
ነኝ	-10.8296
ባላ	-10.8299
በላይነት	-10.8302
▁የኢራቅ	-10.8302
ዳዊ	-10.8303
ክሉ	-10.8303
ፈላ	-10.8303
መራቸው	-10.8303
▁ገለፃ	-10.8304
▁መቅሰፍት	-10.8304
ተኞቹ	-10.831
▁በመስክ	-10.8318
▁ተገንዝቦ	-10.8321
▁በጥልቀት	-10.8321
▁ሽያጭ	-10.8321
▁ምዘና	-10.8321
▁ይረዳቸዋል	-10.8321
▁በሚባል	-10.8322
ራረ	-10.8324
▁በሴ	-10.8326
▁ኢዩ	-10.8327
ፋችሁ	-10.8328
▁እንደሚሰራ	-10.8336
▁የሚደርሰው	-10.8336
ቅድ	-10.8337
ነፋ	-10.8339
▁ከረጅም	-10.8341
ድብ	-10.8341
▁ሲቀሩ	-10.8343
▁እንዲቆይ	-10.8345
ቃጠሉ	-10.835
▁የሚነሱ	-10.8355
▁የማሀበሩ	-10.836
▁ከሰሜን	-10.8361
▁ማስተላለፍ	-10.8361
▁ለማካሄድ	-10.8363
▁ከየትኛው	-10.8363
▁የመንገድ	-10.8365
ሰበከ	-10.8365
k	-10.8366
፻፵፯	-10.8369
▁አስጠ	-10.8369
▁አራተኛው	-10.8374
▁የተፈጠረ	-10.8378
▁ይጠቀማሉ	-10.838
▁መፅሀፋቸው	-10.838
▁በየትኞቹ	-10.838
▁ረዘም	-10.838
▁ያሳዩ	-10.8381
▁ደሞዝ	-10.8382
▁የጌታችን	-10.8384
ገኙት	-10.8385
▁የአሮን	-10.8386
▁ያዙ	-10.8386
▁ከቀ	-10.8386
መለከ	-10.8386
ንዶ	-10.8389
▁እመቤታችን	-10.839
▁የምትገኘው	-10.8391
ክተር	-10.8391
ሰጠን	-10.8394
▁ለእነዚያ	-10.8399
▁ትፈልጋለህ	-10.8399
▁የሚንፀባረቅበት	-10.8399
▁በድብቅ	-10.8399
▁ይጠፋሉ	-10.84
▁የሰጣቸው	-10.8402
ዛው	-10.8407
ቁን	-10.8411
▁በወረዳ	-10.8417
▁ረዳ	-10.8421
▁ይነሳሉ	-10.8422
ሩም	-10.8423
▁በሚገኙት	-10.8423
ጮህ	-10.8428
▁መሞከር	-10.843
▁ስትራቴጂ	-10.8435
▁አሸዋ	-10.8435
▁በበጎ	-10.8436
▁ማናቸውንም	-10.8439
▁ስላሉ	-10.8439
▁አሳይተዋል	-10.844
▁የሚመስሉ	-10.844
▁፳፻፪	-10.8442
▁የተማረ	-10.8442
▁ቀሪዎች	-10.8443
▁ድርጊቱን	-10.8444
ረቱ	-10.8444
ፎር	-10.8445
በአ	-10.8445
ድሬ	-10.8448
▁አገራችን	-10.8448
▁የሄ	-10.8456
▁የእርሱን	-10.8458
▁አላህም	-10.8458
▁እሄዳለሁ	-10.8459
▁አሳልፌ	-10.8459
▁ማዳመጥ	-10.8459
▁ኤፌ	-10.846
መረጠ	-10.846
▁እምነታችንን	-10.8464
▁አሮንን	-10.8465
▁ቍ	-10.8469
▁የሚነገር	-10.847
ቆመው	-10.8472
▁ተጀመረ	-10.8472
▁የሚሰጣቸው	-10.8472
▁ያስባል	-10.8473
ጫነ	-10.8474
▁የሚጠቅም	-10.8475
▁በድን	-10.8478
▁መገባደጃ	-10.8478
▁አምላካቸው	-10.8481
ውድ	-10.8481
▁ያደረግነው	-10.8483
▁ቃሌን	-10.8483
▁ስንመለከት	-10.8484
▁ለአብነት	-10.8485
ርእስ	-10.8486
፻፲፬	-10.8487
▁የሚያመጣው	-10.8488
መደቡ	-10.8489
▁፳፻፳	-10.8495
ጓዙ	-10.8497
▁ቸ	-10.8497
▁ፍር	-10.8497
▁ትመ	-10.8498
▁አገልግሏል	-10.8498
ልበ	-10.8499
▁መለከት	-10.8503
▁የማገልገል	-10.8504
▁ሀይቅ	-10.8506
▁የዘወትር	-10.8507
▁ድርቅ	-10.8508
▁ተፅፎ	-10.8509
▁ፊልጶስ	-10.851
▁የደብረ	-10.851
▁ከፈተ	-10.8512
▁ድክመት	-10.8513
▁ቁስ	-10.8515
ጠቅላይ	-10.8515
▁በአህዛብ	-10.8518
▁ይመለከታል	-10.8518
▁በመግቢያው	-10.8518
▁ሄድኩ	-10.8519
▁የመናገር	-10.8519
▁ከባህር	-10.852
▁ማዘ	-10.852
▁4	-10.8522
፻፴፪	-10.8523
▁ቢባል	-10.8523
▁የሚመሩ	-10.8526
ሻሻ	-10.8528
▁የሚያምኑ	-10.8528
▁የፊ	-10.8535
▁ጥንት	-10.8535
▁ከጌታ	-10.8537
▁ልኡል	-10.8537
▁የነበረች	-10.8538
▁ተይዞ	-10.8538
▁ለዚሁ	-10.8538
▁የሚናገሩት	-10.8539
ብሎ	-10.8539
▁ነህምያ	-10.854
መለክ	-10.854
▁ሄጄ	-10.8541
▁ይላቸዋል	-10.8542
ጨስ	-10.8542
▁ፎቅ	-10.8546
▁የወር	-10.8547
▁በማይበልጥ	-10.8548
▁በተሰራ	-10.8554
▁ወንድሙን	-10.8557
▁ሪፑብሊክ	-10.8558
▁ያመለክታሉ	-10.8558
ኩራ	-10.856
▁ወዳለ	-10.856
▁ባደረገ	-10.8562
▁ባይብል	-10.8563
▁20	-10.8563
▁ልብሶች	-10.8565
▁ድርጊቶችን	-10.8567
ኩል	-10.8568
▁ድርድር	-10.857
▁በሚያደርጉት	-10.857
ርዳ	-10.8576
▁ለካ	-10.8576
▁ተዛማጅ	-10.8578
▁መንግስተ	-10.8578
▁መቻል	-10.8578
▁ወዳጄ	-10.8579
▁በእለቱ	-10.858
▁በመቀጠልም	-10.858
▁ራቁ	-10.8581
▁ክልሉ	-10.8582
▁የሌላውን	-10.8582
▁፰፻	-10.8585
▁ምክ	-10.8587
ያስፈልገው	-10.8593
▁ስርአቶችን	-10.8594
▁አባይ	-10.8595
▁ቀጥሎም	-10.8597
▁ያካትታል	-10.8598
ነታችንን	-10.8599
▁ዋንጫ	-10.8599
▁ሁላችሁም	-10.8601
▁ዙር	-10.8601
▁የመግዛት	-10.8603
▁ማካሄድ	-10.8605
▁በእርሻ	-10.8607
▁የሚያሳዩት	-10.8607
ፋይ	-10.8612
▁ለነበረው	-10.8613
▁ሳይኖር	-10.8616
ግሮ	-10.8617
▁የተቋቋመው	-10.8617
▁ማርታ	-10.8618
▁ጭካኔ	-10.8618
▁ዳግማዊ	-10.8619
▁ማማ	-10.8619
▁መወ	-10.8621
▁፳፻፭	-10.8621
ነጣ	-10.8624
▁ይበሉ	-10.8628
▁ተረት	-10.8629
▁የድ	-10.8633
ናለች	-10.8635
ፀለይ	-10.8636
▁የሚደረገውን	-10.8637
▁መግደል	-10.8638
▁ትንቢታዊ	-10.8639
▁ወስኗል	-10.8639
▁አጠናክሮ	-10.8639
▁ሰዶም	-10.8639
▁መፅናት	-10.8639
20	-10.864
▁ድርጊቱ	-10.8641
▁ተከትለው	-10.8642
▁ወላጆችህ	-10.8644
▁እንዲታይ	-10.8647
▁የከበረ	-10.8648
▁ክፍሉ	-10.8648
▁በአስ	-10.865
▁ተረ	-10.8652
ሎጂ	-10.8655
▁ልጅህ	-10.8657
▁ሊቀመንበር	-10.8658
17	-10.8658
r	-10.8659
▁፶፯	-10.8659
▁ጥናቱ	-10.8661
▁ዜናዊ	-10.8663
▁አንዲ	-10.8665
▁ስልጣኑን	-10.8665
▁አውጥተው	-10.8666
ችኋቸው	-10.8667
▁ይሸ	-10.8669
ረቀ	-10.867
ያውቁ	-10.8672
▁የሚጠብቅ	-10.8673
ደደ	-10.8673
ካፍ	-10.8673
▁አስታ	-10.8675
▁አይኖርብንም	-10.8679
▁በጭንቀት	-10.8679
▁መረጋጋት	-10.8679
▁በእነዚያ	-10.8679
▁አገልጋይህ	-10.8684
▁ከተነሳ	-10.8686
ጀመረ	-10.8687
▁የሚያውቁ	-10.8689
ለቀቀ	-10.8689
ቦት	-10.8694
▁ሳኦልም	-10.8696
ዋጉ	-10.8697
▁የዚያን	-10.8698
▁የሚስብ	-10.8698
▁ሀገሮች	-10.8699
▁የሚያስፈራ	-10.87
▁ጎጃም	-10.8701
▁ያደረጋቸው	-10.8702
▁መስለው	-10.8702
▁ሀምሳ	-10.8704
ቀፍ	-10.8704
▁እየታየ	-10.8705
ረጋቸው	-10.8706
ግዙ	-10.8707
▁እጅህን	-10.8709
ሲያ	-10.871
▁አባሎች	-10.871
▁የአቶ	-10.8711
▁ጣሪያ	-10.8713
▁በርሱ	-10.8715
መንት	-10.8716
▁የአደጋ	-10.8717
▁አቅሙ	-10.8717
▁የያዙት	-10.8717
▁አስራት	-10.8718
▁ማከማቻ	-10.872
▁በማለዳ	-10.872
▁ማምረት	-10.872
▁ሬዲዮ	-10.872
▁በአካባቢ	-10.8726
▁የህመም	-10.8726
▁ህፃናትን	-10.8729
ነገረው	-10.8729
▁ከግብ	-10.873
▁መግለጫው	-10.8733
▁እንማራለን	-10.874
▁ያስፈልገዋል	-10.874
▁በጥቅሉ	-10.874
አር	-10.8741
▁እክል	-10.8742
▁እየመጣ	-10.8742
ገለገል	-10.8743
▁ተሾመ	-10.8744
ማቸውን	-10.8746
▁የማይቻል	-10.8749
▁የቀረበውን	-10.875
ቀራረብ	-10.8751
▁ባለሀብቶች	-10.8752
▁እንዲቀርብ	-10.8752
▁•••	-10.8757
▁ተጠያቂነት	-10.8759
ኃ	-10.876
ረሰ	-10.876
▁የህዝበ	-10.876
▁የወይራ	-10.876
▁ኤር	-10.876
▁በጥንታዊ	-10.8761
▁ከእምነት	-10.8761
▁መግለጫዎች	-10.8762
ልካ	-10.8768
▁ጥቂቶች	-10.8769
▁በተሟላ	-10.877
▁ዮፍታሄ	-10.8772
▁ፈንድ	-10.8772
ለለ	-10.8772
▁እስራኤላዊ	-10.8772
▁ከቦታ	-10.8774
▁የመሳሰሉት	-10.8778
▁ያስተ	-10.878
▁የሚሰ	-10.8781
▁ትችላለች	-10.8781
▁ያቀርባሉ	-10.8781
▁ከዳዊት	-10.8781
▁የጦርነት	-10.8782
▁ትምህርታቸውን	-10.8783
ጃቸው	-10.8783
ወሰኑ	-10.8784
▁ቀል	-10.8784
ኩላ	-10.8786
▁ያቀፈ	-10.8787
▁ያገባ	-10.8788
▁ጮኸ	-10.8794
ሀር	-10.8795
▁አድባራት	-10.8799
16	-10.8799
▁የደረሰባቸው	-10.8799
▁የሚችሉበት	-10.88
▁በነቢዩ	-10.8801
▁ያገለግላሉ	-10.8801
▁እንስሳትን	-10.8803
▁የብረት	-10.8803
▁የአቅም	-10.8805
▁ቸር	-10.8806
ቀላ	-10.8806
ቶቼ	-10.8809
▁መደገፍ	-10.8813
▁ሮማ	-10.8814
▁የመጠበቅ	-10.8814
▁በማያ	-10.8815
ኛለች	-10.8816
ገፉ	-10.8818
ጠም	-10.8818
መገብ	-10.8818
ዋረድ	-10.8822
▁እንጠይቃለን	-10.8822
▁ሮበርት	-10.8822
▁የተከለከለ	-10.8823
و	-10.8823
፱	-10.8824
ይሆዋ	-10.8827
▁አላችሁ	-10.8828
ችለው	-10.8831
▁መለሰለት	-10.8833
▁ትል	-10.8836
▁ምት	-10.8837
ቆጣጠር	-10.8841
▁ማሪያ	-10.8842
▁ባልንጀሮቻችን	-10.8842
▁በውስጧ	-10.8842
▁እንሆናለን	-10.8842
▁እኚህ	-10.8843
▁በእንጨት	-10.8843
▁ከሩቅ	-10.8843
▁ቀርቷል	-10.8844
▁የሁለቱ	-10.8845
▁የሚሰጡትን	-10.8845
ከውን	-10.8849
▁መከራዎች	-10.8853
▁መታመን	-10.8854
ወረዳ	-10.8861
▁ትዝታ	-10.8862
▁ከመንፈሳዊ	-10.8863
▁ፍቃድ	-10.8863
▁ተካፋይ	-10.8863
ተወው	-10.8864
ኋችሁ	-10.8867
▁ቀጥሉ	-10.8868
▁የያዘውን	-10.8872
▁ያዘለ	-10.8872
▁ከማንም	-10.8874
▁፶፰	-10.8875
▁በደረሰው	-10.8876
▁ጎሳ	-10.8877
▁አይገኝም	-10.888
ፈቀዱ	-10.8881
ጋብ	-10.8882
▁ልቡና	-10.8882
▁የምስጋና	-10.8884
▁ስኳር	-10.8884
▁ስብእና	-10.8884
▁ማእዘን	-10.8885
▁ኪራይ	-10.8885
▁አሳፋሪ	-10.8885
▁ጆርጅ	-10.8887
ተርፉ	-10.8889
▁የሚያመለክተው	-10.889
▁ተከሳሹ	-10.8891
▁እየሰሩ	-10.8892
▁ለሁለተኛ	-10.8893
ጣታቸው	-10.8895
ሊስ	-10.8898
▁የሚያስፈልግ	-10.8898
ቹን	-10.89
ብቃ	-10.8901
▁ማረ	-10.8902
ላችኋለሁ	-10.8903
▁ታጥ	-10.8904
▁የስልጠና	-10.8905
▁ምህረቱ	-10.8905
▁የቤቴል	-10.8905
▁ተወካይ	-10.8905
▁በእጃቸው	-10.8906
▁አቅማቸው	-10.8909
ተኝ	-10.8909
▁የመስኖ	-10.891
▁የአመቱ	-10.8913
ዴን	-10.8916
ሊዮ	-10.8918
▁የመስ	-10.8918
▁ቈ	-10.8919
፸	-10.8925
▁መተዳደሪያ	-10.8925
▁ቤተሰባችን	-10.8925
ሸነፉ	-10.8926
▁የሚያውቀው	-10.8927
▁የአሶር	-10.8927
▁ልጆቿ	-10.8929
▁በአደራ	-10.893
▁የሚቆጠር	-10.8934
ሎስ	-10.8934
▁ነው፡፡	-10.8938
▁ለአዲስ	-10.894
▁ህዋሳት	-10.8942
▁የተመ	-10.8942
ትሪ	-10.8943
ሪክ	-10.8945
ፋፍ	-10.8946
▁አኳኋን	-10.8946
▁ይፈጥራል	-10.8946
▁ፋሲካ	-10.8946
▁ተጋድሎ	-10.8946
▁ጥምረት	-10.8946
▁ጭብጥ	-10.8947
▁መምሰል	-10.8947
▁መጋረጃ	-10.8948
▁በሚደረግ	-10.8949
▁ሰማሁ	-10.8955
▁ከፋ	-10.8959
ደፋ	-10.8959
▁የብርሀን	-10.896
ታውቁ	-10.8962
▁ባለማ	-10.8962
▁አልሆነም	-10.8963
፻፲፯	-10.8964
▁የሶ	-10.8964
▁እየታ	-10.8965
▁አክሊል	-10.8967
▁የማእድን	-10.8967
▁ያደረጉትን	-10.8968
ብጥ	-10.8969
▁ባለድርሻ	-10.8969
▁በጥር	-10.8969
ሰበክ	-10.897
ተማሩ	-10.897
▁የንብረት	-10.8972
፻፲፰	-10.8974
▁ይዤ	-10.8978
▁የእርዳታ	-10.8979
ክብ	-10.898
ታማኝ	-10.8981
▁ለማን	-10.8982
▁ከግ	-10.8983
▁ስምህ	-10.8984
ሰማቸው	-10.8986
▁ተመጣጣኝ	-10.8988
▁ወደፊትም	-10.8988
ቆጠብ	-10.8989
▁ሰልፉ	-10.899
▁መጫወት	-10.8992
▁ጭስ	-10.8994
▁መልእክቶች	-10.8995
▁ኤች	-10.8996
▁የተናገረ	-10.8997
ሻቸው	-10.8997
▁አባትህ	-10.8997
▁በአባቱ	-10.8999
ሎን	-10.9
ኩስ	-10.9002
▁አጥፊ	-10.9002
▁ስሜን	-10.9003
ርጋ	-10.9004
ወስኑ	-10.9004
ንደር	-10.9007
▁ያዘጋጀው	-10.9007
፻፳፪	-10.9011
▁ያልፋል	-10.9013
ሳለሁ	-10.9016
▁ከሚገኝ	-10.9017
ጠበቀ	-10.9021
▁ከተባለው	-10.9022
▁፯፻	-10.9023
ቸገር	-10.9023
ባእድ	-10.9025
▁እናሳያለን	-10.903
ገቡት	-10.9034
ፍታ	-10.9036
▁ሳንቲም	-10.9036
▁ርቀው	-10.9036
ጠጥ	-10.9036
ለሰባት	-10.9038
▁ተቀባይ	-10.9042
▁የሚያስገኘው	-10.9044
▁በመላክ	-10.9046
▁እንደመጣ	-10.9047
▁በተራ	-10.905
▁እርስዋም	-10.905
▁በዮርዳኖስ	-10.9051
▁ጥቂቶቹ	-10.9051
እና	-10.9051
▁ሴሎች	-10.9052
ሸከሙ	-10.9053
▁ስሌት	-10.9055
ብብ	-10.906
ኮነ	-10.906
▁መነሳት	-10.9061
▁በማመን	-10.9064
ረጋገጥ	-10.9065
ዮቹ	-10.9065
▁አቅጣጫዎች	-10.9066
▁ክብርና	-10.907
ስጥ	-10.9073
▁እንዲሰጣቸው	-10.9074
▁የቀረቡ	-10.9076
▁እጄን	-10.908
ሸጡ	-10.908
▁የህዝቡ	-10.9081
▁ስላስ	-10.9082
ሮችን	-10.9082
ኮላ	-10.9084
ጨምር	-10.9084
ነሽ	-10.9085
ደሙ	-10.9092
ጠዋቱ	-10.9094
▁እርስዋ	-10.9094
ወረ	-10.9094
▁ጥቆማ	-10.9096
ሳሳ	-10.9098
▁ሙስሊሞች	-10.91
▁ለእውነት	-10.91
ዎችንና	-10.9101
፻፯	-10.9101
ቧቸው	-10.9101
ጋድ	-10.9102
ብቶ	-10.9103
ክለ	-10.9103
ድፍ	-10.9105
▁በጃፓን	-10.9105
▁መድረኩ	-10.9105
▁መጀመር	-10.9106
ሰፍ	-10.9108
▁በአን	-10.9109
▁ተቋማዊ	-10.9109
▁ሳላ	-10.9111
ባረር	-10.9113
ت	-10.9113
▁ማምጣት	-10.9114
፻፳፭	-10.9118
▁ለአገልግሎት	-10.9119
▁ነጋሪዎች	-10.9119
▁ከደ	-10.912
▁እምቢ	-10.9121
▁የተላከ	-10.9123
▁የተቀመጠ	-10.9123
ጇ	-10.9125
▁ተቀመጡ	-10.9125
▁ባይሆን	-10.9126
ቃለች	-10.9126
ጨርስ	-10.9127
▁አትፍራ	-10.9127
▁በትግራይ	-10.9131
አን	-10.9135
▁ይሞታል	-10.9135
▁በገ	-10.9135
▁በበለጠ	-10.9135
▁፲፱፻፺፭	-10.9138
ካድ	-10.9139
▁ኢትዮጵያዊያን	-10.9141
▁ለመጀመር	-10.9141
▁ሰለ	-10.9142
▁መጥፋት	-10.9144
▁በሁሉ	-10.9144
▁መያዣ	-10.9145
▁የቀብር	-10.9146
▁፻፲፱	-10.9147
ታለል	-10.9147
▁ከአሜሪካ	-10.9148
▁መቆጠብ	-10.9149
▁አይደል	-10.9151
▁ገን	-10.9153
▁አገኙ	-10.9153
▁እንደማይችሉ	-10.9154
▁ቅድስና	-10.9156
▁አልፈልግም	-10.9157
▁ካደረግን	-10.9157
▁ይመራ	-10.916
5	-10.9165
▁የዋና	-10.9166
▁እንደሚኖሩ	-10.9167
ሊት	-10.9167
▁በገና	-10.9169
ሰነዘረ	-10.917
▁አካባቢውን	-10.9172
on	-10.9173
▁ጃፓን	-10.9174
እት	-10.9174
▁ማምለክ	-10.9178
▁እሆናለሁ	-10.9178
▁መስዋእቶች	-10.9181
▁አቅራቢ	-10.9184
ተዋወቅ	-10.9185
ዋሽ	-10.9186
▁የህንፃ	-10.9186
▁የበጋ	-10.9189
▁ኦዲት	-10.9193
▁ወረርሽኝ	-10.9193
▁ተሰጥቶ	-10.9194
ዛል	-10.9195
▁ቀሪ	-10.9196
▁የተሰጣቸውን	-10.9199
▁አድርጓቸዋል	-10.9199
▁ዴቪድ	-10.9199
▁ሂደቱ	-10.9202
▁፲፱፻፺፪	-10.9202
▁በበርካታ	-10.9202
▁የሚመለከታቸው	-10.9206
ወጋ	-10.9207
▁ሆነ።	-10.9207
▁ክን	-10.9208
፻፳፰	-10.9209
▁ƒ	-10.921
▁ሰጪው	-10.921
ቋቋመው	-10.9212
▁ሰም	-10.9214
▁አንዳንዶቹን	-10.9215
ሁኑ	-10.9216
▁ክህነቱ	-10.9216
▁ይቻል	-10.9218
መዘገበ	-10.922
▁ቁጥሮች	-10.922
▁መፅናኛ	-10.922
▁ኪዳነ	-10.9221
▁የእግዚአብሄርም	-10.9224
▁የገቡ	-10.9225
▁ለጌታ	-10.9225
ቀየር	-10.9226
▁ማእድ	-10.9226
ገታ	-10.9227
ኳን	-10.9229
▁ተላ	-10.923
ቤር	-10.9233
ቪያ	-10.9237
▁ራሳችሁ	-10.9239
▁ቲኦክራሲያዊ	-10.9242
▁የሚቻል	-10.9243
▁ወለ	-10.9244
▁፲፱፻፺፩	-10.9244
▁የታወቁ	-10.9246
▁እርምጃዎችን	-10.9247
፻፹	-10.9247
▁አውጣ	-10.9248
▁ጎጆ	-10.9249
▁እንዲሉ	-10.925
▁ወደቀ	-10.925
▁የሚጠበቅ	-10.9252
አስተ	-10.9255
▁የተፈጠረውን	-10.9257
▁የክ	-10.926
ብንን	-10.9261
▁የሚፈፀሙ	-10.9263
▁አመፀኞች	-10.9263
▁አስቀድመው	-10.9263
▁መው	-10.9263
▁ትምህርቶችን	-10.9264
▁መተው	-10.9265
▁ካፒታል	-10.9266
▁በቋሚነት	-10.9268
▁የኦርቶዶክስ	-10.927
▁አጣሪ	-10.9271
▁ያድ	-10.9273
▁ከተባለ	-10.9274
አለም	-10.9276
▁ከነዚህ	-10.9284
ከተለው	-10.9284
▁በሜክሲኮ	-10.9285
ረጉ	-10.9285
▁እሰጣለሁ	-10.9285
▁የወሰደው	-10.9285
▁የሚያከናውኑት	-10.9287
▁ከውሀ	-10.929
▁የኤጀንሲው	-10.9292
ጡን	-10.9294
▁ደጋፊዎች	-10.9294
▁በደረጃ	-10.9295
▁ሰውዬው	-10.9296
▁፴፻	-10.9298
ገሬ	-10.9302
▁ፍቅርን	-10.9302
▁ምልልስ	-10.9306
▁አልነበራቸውም	-10.9306
▁ሀይለማርያም	-10.9307
▁አጋጥሞ	-10.9307
ሰነዘሩ	-10.9308
al	-10.9311
▁ኢዮስያስ	-10.9312
▁ቻለ	-10.9315
▁እንዲቀጥሉ	-10.9319
▁ለሚለው	-10.9319
▁የተነገረ	-10.9319
▁የቆዩ	-10.9323
ስተው	-10.9327
▁ከመካከላቸው	-10.9328
▁የዮሴፍ	-10.9328
▁በብዙዎች	-10.9329
ሸማ	-10.9329
▁ቅናት	-10.9329
▁ገብተዋል	-10.9329
▁ላስ	-10.9333
ሆናቸው	-10.9334
ዞን	-10.9335
(	-10.9336
▁አስታው	-10.9337
▁ለብ	-10.9337
ጠጋ	-10.9338
▁ያለች	-10.9338
ናገረው	-10.9339
ደኝ	-10.9339
▁የተመዘገበ	-10.9342
▁አሳው	-10.9342
▁የመፍትሄ	-10.9343
ሜር	-10.9344
▁የፈፀመ	-10.9344
▁የተማሩ	-10.9346
ፃፈ	-10.9346
▁ኮምፒውተር	-10.9347
▁እወቅ	-10.9348
▁ምኞቶች	-10.9349
▁በአእምሮ	-10.935
▁የእነሱ	-10.9351
▁መጠነኛ	-10.9352
ኩር	-10.9355
፻፳፮	-10.9356
▁የበዛ	-10.9356
▁በሚችል	-10.9356
▁ከፀሀይ	-10.9358
▁እንዲያቀርብ	-10.936
ጀመሩ	-10.9361
▁በህይወትህ	-10.9363
▁የማይቀር	-10.9364
ድሀ	-10.9364
▁ስምህን	-10.9366
▁ኑሩ	-10.9367
▁አቃ	-10.9369
ቤታችን	-10.937
ያገለግሉ	-10.937
▁ትገኛለች	-10.9371
▁ችለናል	-10.9372
▁ይገኝበታል	-10.9373
ጥብ	-10.9377
▁ንፁሀን	-10.9378
▁ልቤን	-10.9378
▁ጕ	-10.9381
▁ከቅዱሳን	-10.9381
▁ገንዳ	-10.9381
▁አሉኝ	-10.9382
ገደዱ	-10.9382
▁ተቀበለ	-10.9382
▁ያኔ	-10.9384
ኸውን	-10.9384
▁ሰል	-10.9386
ፈኑ	-10.9387
▁መልእክተኞች	-10.9387
ሌክ	-10.9389
ቤተ	-10.9392
ጋለጡ	-10.9392
▁የሺ	-10.9394
ነበቡ	-10.9398
ሰቃዩ	-10.9399
▁ደሀ	-10.94
▁የቅድመ	-10.9403
ሁትን	-10.9404
▁በመሬት	-10.9404
▁ተመር	-10.9405
▁በሊ	-10.9405
▁ለክርስቶስ	-10.9406
▁ወሰንኩ	-10.9407
ቀጥሉ	-10.9408
ቀቁ	-10.941
▁ወንድሞችን	-10.9412
▁አክለውም	-10.9412
▁ተባእት	-10.9415
▁የተናገራቸው	-10.9418
▁ማስቀመጥ	-10.9418
▁እልፍ	-10.9419
዗	-10.9423
ምሮ	-10.9425
▁የሰጣቸውን	-10.9427
▁ብሩ	-10.943
▁አጥር	-10.9436
▁አናውቅም	-10.9437
▁ርብቃ	-10.9437
▁ባህሎች	-10.9438
▁ፅጌ	-10.9438
▁በተነሳ	-10.944
▁ሰርተዋል	-10.944
▁ጠፍቶ	-10.9442
ትናገር	-10.9443
▁የጌ	-10.9445
▁አደርግ	-10.9447
▁የሚያስፈልጋቸው	-10.945
▁ይታመናል	-10.9451
▁እምነታችን	-10.9455
ድነው	-10.9456
ገለፁ	-10.9458
ፋቱ	-10.9458
የባእድ	-10.9459
▁ምላስ	-10.9461
▁ምስሎችን	-10.9462
▁በዲ	-10.9463
▁የተሰጡ	-10.9464
ኒስ	-10.9465
የሁ	-10.9465
▁ቀጣዩ	-10.9466
፻፳	-10.9467
ራመድ	-10.9467
የካቲት	-10.9468
ጣለሁ	-10.9468
▁የተሞሉ	-10.9469
▁ዳኞች	-10.9469
▁ጊዜያቸውን	-10.9472
▁አባታችሁ	-10.9472
▁የደረሰውን	-10.9475
▁የዋጋ	-10.9477
▁ቀዝቃዛ	-10.9477
መፀ	-10.9479
▁ምግባራዊ	-10.948
▁በመካከላችን	-10.948
▁በተዘዋዋሪ	-10.948
▁የታላቁ	-10.948
▁እወዳለሁ	-10.948
ሥራ	-10.948
በረከቱ	-10.9481
ከሩ	-10.9482
▁ስናደርግ	-10.9482
ያውያን	-10.9483
▁፲፱፻፶	-10.9484
▁ህንድ	-10.9485
▁እናቱን	-10.9485
▁ያገኘሁት	-10.9485
▁በነበሩበት	-10.9486
▁በእጅህ	-10.9487
▁መጠኑ	-10.949
▁ኖሬጋ	-10.9493
▁ንግግሮች	-10.9498
▁የመስራት	-10.9499
ኮስ	-10.95
ሸነ	-10.95
▁ይፈፀማል	-10.9502
▁ውርሻ	-10.9502
▁መንበር	-10.9503
▁በየቦታው	-10.9503
▁በመገንዘብ	-10.9504
▁፲፱፻፺፰	-10.9504
▁የተከሰተው	-10.9506
ታገሉ	-10.9509
▁በመተላለፍ	-10.9511
▁የህብረተሰብ	-10.9512
▁በደረሰ	-10.9512
l	-10.9513
፻፸፭	-10.9513
ደኛ	-10.9518
▁ይዘህ	-10.9519
▁ጌታው	-10.9521
▁ይቀበላል	-10.9524
▁አግኝቻለሁ	-10.9524
▁ማፍራት	-10.9525
▁ከመናገር	-10.9525
▁ጀምረዋል	-10.9527
▁መዝገበ	-10.9527
▁ግዛቶች	-10.9527
▁በሳ	-10.9529
▁ወንድምህ	-10.953
▁ህሊናችን	-10.9531
▁ኤሌክትሪክ	-10.9532
ታለን	-10.9532
▁ሚስ	-10.9533
ቶን	-10.9534
▁አዘ	-10.9536
▁ሙሽራ	-10.9537
▁የደረሰበት	-10.9538
ረዷቸው	-10.9539
▁መጀመርያ	-10.9539
ላችሁን	-10.9542
▁በቋንቋ	-10.9545
▁አዝማሚያ	-10.9546
▁የማመዛዘን	-10.9546
▁ይጠቀማል	-10.9546
▁ከሰአት	-10.9547
▁ክርስቲያኗ	-10.9547
▁ለማስጠበቅ	-10.9548
▁ስላላ	-10.9548
▁ዩኤስ	-10.9551
▁ማስተካከል	-10.9551
▁ለኢ	-10.9552
▁ጅማ	-10.9556
▁ማእድን	-10.9557
▁የተነሱ	-10.9562
▁መልሱ	-10.9562
▁ደረሱ	-10.9562
ገኟቸው	-10.9563
፻፴፮	-10.9565
▁ታዳጊ	-10.9568
▁የሸክላ	-10.9568
▁አድራጎት	-10.9569
▁እናምናለን	-10.9569
ከራከር	-10.9569
▁ጠብቀን	-10.957
ህገወጥ	-10.957
▁ሲመለስ	-10.9571
ምነው	-10.9571
ጥሬ	-10.9572
ቀም	-10.9573
▁እንዲሄዱ	-10.9574
▁ደስታና	-10.9579
▁ለመቅረብ	-10.9579
▁የሚበልጠው	-10.9579
▁የእርስ	-10.9585
ዊነት	-10.9586
ቤን	-10.9587
▁ተቋቁሞ	-10.9591
▁ያደርጋቸዋል	-10.9591
▁የማደሪያ	-10.9591
ጣጣም	-10.9591
▁የተመካ	-10.9594
▁የማያውቅ	-10.9595
▁ተማር	-10.9597
ወደዱ	-10.9597
▁መነ	-10.9602
▁አቋማችን	-10.9602
አግባብ	-10.9602
▁የነገ	-10.9604
ቱት	-10.9605
የል	-10.9607
▁በኪ	-10.9608
▁የትራንስፖርት	-10.9609
▁ማይ	-10.961
ረኝ	-10.9611
▁ኢትዮ	-10.9613
▁አዞ	-10.9613
ያልፉ	-10.9613
▁አመስጋኞች	-10.9613
▁በሩሲያ	-10.9613
▁ዘመዶች	-10.9614
▁ምስራቹ	-10.9615
፻፵፫	-10.9616
▁ማህ	-10.9619
▁የተወሰነውን	-10.962
▁የትንሳኤ	-10.9621
▁ዳይ	-10.9622
15	-10.9622
▁ግምጃ	-10.9628
▁ይቀራሉ	-10.963
ለምን	-10.963
▁በአር	-10.963
▁በኩ	-10.9634
ቃወሙ	-10.9634
ዞሩ	-10.9635
▁ወንጀለኛ	-10.9635
▁አይሁዶች	-10.9635
▁በባህሩ	-10.9635
▁ይናገሩ	-10.9636
▁አላስፈላጊ	-10.9636
▁እርማት	-10.9637
▁የማህበረሰብ	-10.9638
▁ወለደች	-10.9643
▁ሳውል	-10.9646
ድሪ	-10.9647
▁እያለሁ	-10.9648
▁የሚገባቸው	-10.9648
▁የጀመሩት	-10.9648
▁ውርደት	-10.9648
▁በመጠየቅ	-10.9655
▁ለብሰው	-10.9656
▁አምነው	-10.9656
▁የሚፈፀመው	-10.9656
▁ታስታውሳለህ	-10.9657
▁በስውር	-10.9658
▁በንቃት	-10.9661
▁እንዳሳ	-10.9666
▁ሞቶ	-10.9667
▁የሚያውቁት	-10.9668
▁ደንቡ	-10.9669
▁የነበራት	-10.967
ሞከሩ	-10.967
ቀሉ	-10.967
▁ያሉበት	-10.9671
▁በአምስተኛው	-10.9676
▁መቆጣጠሪያ	-10.9677
▁መቅደሱን	-10.9679
▁የኢንተርኔት	-10.968
▁በሰብአዊ	-10.968
▁ተያይዘው	-10.968
▁ይወስናል	-10.968
▁ሻሎም	-10.968
▁የአሁኑ	-10.9683
▁ሕ	-10.9686
መረመር	-10.9686
▁ሲወጡ	-10.9688
ከላከል	-10.9694
▁ስመ	-10.9695
ገባኝ	-10.9697
ልፈው	-10.9698
▁ባለቤቷ	-10.97
▁ኮሚቴዎች	-10.97
▁ለአመታት	-10.9702
▁ሸክላ	-10.9702
▁በፅኑ	-10.9703
▁ኢንቨስትመንት	-10.9703
▁የሚተ	-10.9705
▁ሲነፃፀር	-10.9706
▁አመድ	-10.9709
ጫኑ	-10.9711
▁የማደርገው	-10.9717
አንዲት	-10.9718
▁ሊያስገኝ	-10.9719
▁ተሰምቶት	-10.972
▁የፈቃድ	-10.9721
▁በማወቅ	-10.9721
▁አረጋግጧል	-10.9725
▁ከዚሁ	-10.9725
▁ስሜታቸውን	-10.9728
w	-10.9731
▁የእነዚህን	-10.9732
▁ባዩ	-10.9733
ክሬ	-10.9734
▁ምደባ	-10.9734
ያስፈልጋቸው	-10.9736
▁የሱ	-10.9739
ስያ	-10.974
▁ቤቷ	-10.9741
ሳር	-10.9743
ደግፉ	-10.9746
▁አለት	-10.9746
ጀምሩ	-10.9747
▁የሳኦል	-10.9747
▁ፍላጎቶች	-10.9747
▁ደርሰዋል	-10.9748
▁የሚጎዳ	-10.9752
▁በምክር	-10.9752
▁ብሏቸው	-10.976
▁በእለት	-10.9765
ያስገኝ	-10.9766
▁ምንድር	-10.9767
▁ወንድሞቻቸው	-10.9768
▁ተጠብቆ	-10.977
▁ቆንጆ	-10.977
▁ምናሴ	-10.977
▁የሚጀምረው	-10.9777
▁በማከናወን	-10.9778
▁ሀር	-10.9779
▁በምሳሌያዊ	-10.9779
▁ጓደኛቸው	-10.978
ልል	-10.9781
ኳት	-10.9781
▁አዘውትረው	-10.9782
ጨመረ	-10.9783
ዝግጅት	-10.9784
▁ወሲባዊ	-10.9786
▁በስርአት	-10.9786
▁ህብረተሰብ	-10.9787
ፖር	-10.979
▁ሌሊቱን	-10.9791
▁ርዝመቱ	-10.9792
▁አከባበር	-10.9792
▁ቁልፉ	-10.9792
▁በርግጥ	-10.9794
ደረገ	-10.9794
▁ኰ	-10.9794
▁ከብት	-10.9795
፻፶፩	-10.9796
▁በሚከተሉት	-10.9797
▁በድል	-10.9798
ጠፋበት	-10.9805
▁10	-10.9807
▁ስለሆነው	-10.9807
▁ሁለቱንም	-10.9808
▁ያጠና	-10.9809
▁የሚጠ	-10.9812
▁ለታ	-10.9813
ዘዛቸው	-10.9814
▁ለሙሴ	-10.9815
▁ሊያሳ	-10.9819
▁የፋ	-10.9819
▁ባት	-10.9819
▁የመስቀል	-10.982
▁የሚቻልበት	-10.9821
ረደ	-10.9827
ባትም	-10.9831
▁አመራ	-10.9832
▁ኢንስቲትዩት	-10.9838
▁ይፈፅማል	-10.9838
ሰራጭ	-10.9838
▁ቱሪዝም	-10.9838
▁የእነርሱ	-10.9839
▁የተጠቀመበት	-10.9839
▁ጥረቶች	-10.984
▁ይቀራል	-10.9841
ሰረዝ	-10.9842
▁የትርጉም	-10.9842
ሽው	-10.9843
ማለሁ	-10.9843
ሳቸውን	-10.9843
▁የሚገባን	-10.9843
ከተማ	-10.9845
ጎስ	-10.9846
ተሰበሰበ	-10.9847
በዋል	-10.9848
፻፳፬	-10.9852
▁አጠፋ	-10.9852
▁የተመለከተውን	-10.9857
ሰራቸው	-10.9857
▁ተቀብ	-10.986
▁ከንጉሱ	-10.9861
▁ይወርሳሉ	-10.9861
▁ኢንሳይክሎፒዲያ	-10.9861
▁ለባለስልጣኑ	-10.9861
▁ፊልሞች	-10.9864
ar	-10.9866
ግዳጅ	-10.9866
▁የሚቀርበው	-10.9867
▁መድሀኒቶችን	-10.9868
ተላለፈ	-10.9874
▁ወጣቶችን	-10.9874
▁ያገለግሉ	-10.9874
ደረሰባቸው	-10.9875
▁በግሪክ	-10.9876
▁ሞኝነት	-10.9879
ነድ	-10.9882
▁፷፩	-10.9883
▁የፈርኦን	-10.9883
▁ከደቡብ	-10.9883
▁ድልድይ	-10.9884
▁በካናዳ	-10.9884
ከፋፈሉ	-10.9885
▁ገደለ	-10.9885
▁አንበጣ	-10.9886
▁ወሰዱ	-10.9886
▁ከቀኑ	-10.9888
ኑስ	-10.989
▁ውሳኔው	-10.989
▁ትችል	-10.9892
▁መካ	-10.9894
▁አድራጊ	-10.9896
▁የሚሆንበት	-10.9897
ዘጉ	-10.9899
ስሎ	-10.99
ትል	-10.9901
ናዊው	-10.9904
▁ያቀ	-10.9905
▁መስፋፋት	-10.9905
▁ቅዱሱ	-10.9906
▁ኢዮርብአም	-10.9906
▁ያዘጋጃል	-10.9906
▁ይወድቃሉ	-10.9907
▁አለፍፅምና	-10.9909
▁የቃሉ	-10.9911
▁መለኮት	-10.9911
▁ባለቤቶች	-10.9912
ርባ	-10.9916
ራለህ	-10.9918
▁የተመረጡ	-10.9918
▁አመቴ	-10.9919
▁ሲሰሩ	-10.9919
▁እርቅ	-10.9922
▁የኡ	-10.9923
▁ጠፋ	-10.9924
ቅርንጫፍ	-10.9924
▁በደብዳቤ	-10.9924
አቸውን	-10.9927
ልሀለሁ	-10.9929
▁በአውስትራሊያ	-10.9929
▁ዋሽንግተን	-10.9929
▁የጡረታ	-10.9929
▁አይመስለኝም	-10.9929
▁ተጠቅሟል	-10.9929
▁እንዱሁም	-10.9931
▁በውይይቱ	-10.9934
▁ፍቅሩ	-10.9935
▁ጥቃቱ	-10.9937
ራክ	-10.9937
▁ለቅዱስ	-10.9941
▁የደን	-10.9942
▁የሚውሉ	-10.9945
ዳረጉ	-10.9948
▁እየተፈፀመ	-10.995
▁በፖሊስ	-10.9951
ታላቅ	-10.9952
▁አንገት	-10.9952
▁ንጉሳዊ	-10.9952
▁ከትዳር	-10.9953
ላዩ	-10.9953
ወያይ	-10.9953
▁እስረኛ	-10.9955
ሳውያን	-10.9955
ዳብር	-10.9959
▁ሰይጣንን	-10.996
▁ከፍቶ	-10.996
ወጥ	-10.9962
▁አይነቶቹ	-10.9962
ነፍስ	-10.9963
▁በመለየት	-10.9964
ዶን	-10.9964
▁በአስር	-10.9966
ዘዋወር	-10.9969
▁ላይሆን	-10.9973
▁ሰረገሎች	-10.9975
▁እኩሌታ	-10.9975
ሚወስደው	-10.9976
▁የአዳም	-10.9977
፼፳፻	-10.998
ላችሁም	-10.998
▁በመስቀል	-10.998
▁ፍቤት	-10.9981
ወስዱ	-10.9983
▁ታየ	-10.9985
▁መንቀሳቀስ	-10.9989
▁ማድረስ	-10.999
▁ህብረ	-10.9991
▁አቀማመጥ	-10.9998
▁አዘውትሮ	-10.9998
▁ጡረታ	-10.9999
▁በራሴ	-11
▁ወንጀለኞች	-11.0004
▁ፀልዩ	-11.0006
ጉዳዩ	-11.0006
▁የመምህራን	-11.001
▁።	-11.0014
▁የተማሪዎች	-11.0017
፻፰	-11.0019
ጠኝ	-11.0021
▁ባለስልጣኖች	-11.0022
▁በአላህ	-11.0022
▁የውጪ	-11.0023
ባችኋል	-11.0023
▁የሚያሳዝን	-11.0024
▁በአገራችን	-11.0024
▁ጓደኛሞች	-11.0025
ዴፓ	-11.0026
ጧት	-11.003
ፈሩት	-11.0031
▁አለብህ	-11.0032
▁ዋዜማ	-11.0035
▁ሰርግ	-11.0036
ተባበሩ	-11.0038
▁አውቆ	-11.0038
ዝራ	-11.0041
ዊያን	-11.0041
▁መጽሐፍ	-11.0041
▁የስብሰባ	-11.0041
▁ተከታዮቹን	-11.0043
▁ሜክሲኮ	-11.0045
▁የአህዛብ	-11.0045
▁አረጋግጠዋል	-11.0045
▁ሕዝብ	-11.0045
▁የዲ	-11.0045
▁ጭፍን	-11.0045
▁ፈቀቅ	-11.0046
▁በአሉን	-11.0049
ሺያ	-11.0049
▁በነበሩ	-11.005
ሞሉ	-11.0051
▁ያለንበት	-11.0052
▁ህዝቦቹ	-11.0052
▁በርናባስ	-11.0053
▁የጳውሎስ	-11.0054
ውጥ	-11.0055
▁ሊያገኙ	-11.0057
▁የቆመ	-11.0059
▁ተነስ	-11.0061
▁የሚካሄደው	-11.0062
ቀበለ	-11.0063
▁የፕሮቴስታንት	-11.0068
▁አለባበስ	-11.0068
▁ፊርማ	-11.0068
▁ለራስህ	-11.0069
▁መቀመጥ	-11.0069
▁ሟች	-11.0069
▁አብዛኛዎቹ	-11.0071
▁ቺ	-11.0074
▁ሙስሊም	-11.0074
ገለገሉ	-11.0076
▁ባይነት	-11.0078
▁ከሰራ	-11.0079
▁ጭቃ	-11.008
▁በጠ	-11.0082
▁ጥፋቱ	-11.0083
ጦር	-11.0086
▁ፈጠረ	-11.009
ሏችሁ	-11.009
ነፈ	-11.0091
▁ልደታ	-11.0091
▁በንፁህ	-11.0091
▁ማውራት	-11.0092
▁አክልበ	-11.0092
▁ተገነዘበ	-11.0096
ሚመለከተው	-11.0097
▁በርከት	-11.0097
▁ትወ	-11.0098
▁የሚያቀርብ	-11.0098
▁ፖል	-11.0098
▁በጌታችን	-11.0102
▁ቄ	-11.0104
ጎደለ	-11.0109
▁ምድ	-11.0111
ላለሁ	-11.0112
ኬል	-11.0113
▁ካቴድራል	-11.0115
ከራከሩ	-11.0115
▁ሰበካ	-11.0117
▁የሚታዩት	-11.0117
ቸዋለች	-11.0117
▁የምናደርግ	-11.0118
ወረድ	-11.0118
▁የጋ	-11.0118
▁ተኮር	-11.0119
ቻለው	-11.012
▁ዓመቱ	-11.0121
ደገፍ	-11.0123
▁ሚሊ	-11.0123
▁ዘፈን	-11.0123
▁እንድንኖር	-11.0125
ፀደቀ	-11.0125
ተማረ	-11.0126
▁ናሙና	-11.0127
▁በውስጣችን	-11.013
▁አቻ	-11.0132
▁በሰጠ	-11.0134
ነቷን	-11.0136
ዘነጋ	-11.0136
د	-11.0138
▁ተረጋግጧል	-11.0138
▁የቁ	-11.0139
ቀንስ	-11.0141
ጠፋው	-11.0143
▁የአብ	-11.0144
▁ወጭ	-11.0146
▁ትምህርቱ	-11.0148
ዳስ	-11.0149
▁በአይነቱ	-11.0151
▁ካደረጉ	-11.0152
▁ተገኝቶ	-11.0154
▁ወሰኑ	-11.0158
▁ቅባት	-11.0159
▁አደረግ	-11.0161
▁የእድገት	-11.0162
▁ተጭነው	-11.0162
▁ክርስትናን	-11.0162
▁የሚጠቀምበት	-11.0165
▁አብራራ	-11.0167
▁በረራ	-11.0169
▁በስሜት	-11.017
▁ጠየቁ	-11.0172
▁ኖረዋል	-11.0174
▁ማው	-11.0175
▁ካራ	-11.0177
ስካ	-11.0181
▁ቁር	-11.0182
ጮኹ	-11.0184
▁ከእስራኤላውያን	-11.0185
▁የአይሁዳውያን	-11.0185
▁በንጉስ	-11.0186
▁የምርት	-11.0188
ዘለ	-11.0188
▁ለምት	-11.019
▁ይፈልግ	-11.0191
▁አልኮል	-11.0192
▁መልእክቱ	-11.0193
ሚቀጥሉት	-11.0195
ታችኋል	-11.0195
▁'	-11.0195
▁ተናጋሪዎች	-11.0199
▁ያቀረቡት	-11.0202
▁ሰንሰለት	-11.0209
▁ዝማሬ	-11.0209
▁የክፋት	-11.0209
▁ሴቲቱ	-11.021
▁በበቂ	-11.021
ኮል	-11.021
▁ለመክፈል	-11.0211
▁ይሰሩ	-11.0212
ባረሩ	-11.0212
▁አይንህ	-11.0212
▁ጥራዝ	-11.0213
▁አቆመ	-11.0214
▁የምታስ	-11.0216
▁ሲነሳ	-11.0217
▁አይልም	-11.0219
ዌይ	-11.0219
▁አባላቱ	-11.0221
▁ያደሩ	-11.0223
▁ቀኖና	-11.0224
ጋግ	-11.0225
▁በአይ	-11.0228
▁የተፃፉ	-11.023
▁በባለ	-11.0231
▁እየቀነሰ	-11.0232
ኑም	-11.0235
ፍሮ	-11.0237
▁በሀገረ	-11.024
ያችንን	-11.0241
ቀዶ	-11.0242
ፈለገው	-11.0244
ቲንግ	-11.0245
▁ሁሌ	-11.0247
▁መለያየት	-11.0248
ኘት	-11.0248
▁ተወያዩ	-11.0251
ከብሩ	-11.0254
▁ለአህዛብ	-11.0256
▁የኮሚሽኑ	-11.0256
▁የላከው	-11.0256
ካሪ	-11.0257
▁፷፪	-11.0257
▁ጭቆና	-11.0258
▁ተክሎች	-11.0258
▁ዲን	-11.0258
ብሄር	-11.0259
▁ሲቲ	-11.026
▁ያመነ	-11.0263
▁ውሳኔዎችን	-11.0266
፻፵፰	-11.0271
ሰማችሁ	-11.0274
ወድቁ	-11.0276
▁ትሆናላችሁ	-11.028
▁የማውጣት	-11.028
▁መዝሙሩ	-11.0283
ቻችሁን	-11.0283
ጋገረ	-11.0286
ቃወም	-11.0289
፻፱	-11.029
▁የተጠመቀ	-11.0293
▁ህጎችን	-11.0295
▁ዘመ	-11.0296
ሚዎች	-11.0297
ደንቅ	-11.03
ርቱ	-11.03
ዘጠኝ	-11.0301
▁፪፻፶	-11.0301
▁እውቀትን	-11.0303
▁ገዥዎች	-11.0304
▁አፋጣኝ	-11.0304
▁በሰላማዊ	-11.0304
▁ይቀንሳል	-11.0304
▁ማህበሩ	-11.0304
ንቅ	-11.0313
ንቁ	-11.0316
▁እምነታቸው	-11.0319
▁የሚፀናበት	-11.0322
▁አቁ	-11.0325
ይሰማኝ	-11.0325
ጠቅስ	-11.0326
▁በመታ	-11.0327
▁ፍላ	-11.0327
▁ለመሰብሰብ	-11.0327
▁ክምችት	-11.0327
▁የልጆች	-11.0328
▁ሴንቲ	-11.0328
ፈፀመ	-11.0328
ኣ	-11.0328
ጨረሰ	-11.0329
▁ሸንጎ	-11.033
▁እንዳልሆኑ	-11.033
▁አባቷ	-11.0331
▁አየርላንድ	-11.0332
ደጋ	-11.0333
▁ይባል	-11.0335
▁እራት	-11.0336
▁ከመምጣቱ	-11.0337
፻፩	-11.0337
▁የተፃፉት	-11.0339
ፃፉት	-11.0341
ፍሩ	-11.0342
▁ለመገናኘት	-11.0344
▁ደንቦችን	-11.0344
▁የስፖርት	-11.0345
▁የሚከናወን	-11.0346
ብዛ	-11.0347
መፅ	-11.0347
▁ያደር	-11.0348
▁ክህሎት	-11.0352
▁ለትዳር	-11.0352
▁አስከ	-11.0354
ሰበር	-11.0355
▁ሀላፊነታቸውን	-11.0355
ተት	-11.036
▁እህቶቻችን	-11.0362
▁ለመዋጋት	-11.0363
▁በአዋጅ	-11.0364
ፈራው	-11.0365
▁ቢሉ	-11.0366
በዝ	-11.0369
▁አዘጋጀ	-11.0375
▁ምእመናኑ	-11.0375
▁የተቃውሞ	-11.0375
▁ጣሊያን	-11.0375
▁በአጋጣሚ	-11.0377
▁ሊመጣ	-11.0377
▁በዚያች	-11.0379
ባለች	-11.0379
ሪዮ	-11.038
መክ	-11.0381
ብራሩ	-11.0381
▁በከባድ	-11.0381
አንድ	-11.0382
▁ሲኖሩ	-11.0386
ሏን	-11.0388
ሰደድ	-11.0388
▁በበሽታው	-11.0392
▁አንደ	-11.0393
ተዋቸው	-11.0393
▁ከካ	-11.0395
▁ግብሩ	-11.0395
▁ትመልሳለህ	-11.0399
▁እንመርምር	-11.0399
▁ኮረብታ	-11.0399
▁በባለስልጣኑ	-11.04
▁የሽብር	-11.04
▁ውለታ	-11.0401
▁አስታውሱ	-11.0402
ፊቱ	-11.0404
ወን	-11.0405
▁በመደገፍ	-11.0406
▁የነበረኝ	-11.0407
▁የተላለፈ	-11.041
▁የፈፀሙት	-11.0418
▁አመጡ	-11.0419
▁ስለሌለ	-11.0419
▁አብሬ	-11.0419
▁ይሻ	-11.0419
ሚካኤል	-11.0419
▁ተመለስ	-11.0421
▁የቀጥታ	-11.0424
▁የአንደኛ	-11.0424
▁በገባው	-11.0424
▁የማህበራዊ	-11.0424
መኛ	-11.0425
▁በምግብ	-11.0427
▁ሀገራቸው	-11.0427
▁ማግባት	-11.0428
ርጌ	-11.0429
ጣሪ	-11.043
▁ሰላማ	-11.0432
▁እንደያዘ	-11.0435
ሴን	-11.0436
▁ለማቆም	-11.0437
ታየው	-11.0438
ረጥ	-11.0438
▁ነፍሴ	-11.0442
▁በእን	-11.0443
▁ምላ	-11.0446
▁ከነአናውያን	-11.0448
▁ግንኙነቶች	-11.0448
▁ለማስፋፋት	-11.0448
▁ማድረግህ	-11.0449
▁ፍፃሜያቸውን	-11.045
▁ከመጀመሩ	-11.0453
▁በእውነተኛው	-11.0454
ሰዉ	-11.0454
▁አሻ	-11.0456
▁አቋማቸውን	-11.0457
ለውጡ	-11.0458
▁እንዲቻል	-11.0458
▁ስመለከት	-11.0462
▁የቦ	-11.0464
▁ይፈፀም	-11.0465
▁አዘነ	-11.0465
▁ሰርተው	-11.0467
▁የሌላቸውን	-11.0469
▁እያልን	-11.0469
▁ምግቦችን	-11.0472
▁ተደጋጋሚ	-11.0472
▁ፎቶግራፍ	-11.0472
▁ዮርዳኖስ	-11.0472
▁ከጋብቻ	-11.0472
▁ራሄል	-11.0473
▁ይጠይቅ	-11.0473
ሏቸዋል	-11.0473
▁ቢኖሩ	-11.0474
▁ግብአት	-11.0475
▁የሚገኙበት	-11.0477
▁ቁማር	-11.0477
▁የማይባል	-11.0478
▁የነገሮች	-11.0478
▁የአንድነት	-11.0481
▁ተስማምተው	-11.0483
ዳሪ	-11.0483
፻፷፪	-11.0485
▁ልጇ	-11.0485
ዎቿ	-11.0488
▁በሚኖሩ	-11.049
▁በሰማርያ	-11.0491
▁የማይገባ	-11.0491
ፈሰሰ	-11.0492
▁ማሳሰቢያዎች	-11.0495
▁የጣ	-11.0496
▁ይመሳሰላል	-11.0496
▁ደጃፍ	-11.0496
▁አዳሪ	-11.0496
▁ያዳ	-11.0497
▁ክምር	-11.0497
▁ወገ	-11.0498
▁የሀዘን	-11.05
▁አልሰማ	-11.0501
ክሱ	-11.0501
▁አሜሪካዊ	-11.0502
▁ስእለት	-11.0503
▁መልከ	-11.0505
▁የንጉሱን	-11.0506
ምንችለው	-11.0507
▁ደሞ	-11.0507
▁አሚ	-11.0508
▁ደጋ	-11.051
▁ቤተሰቦቻቸው	-11.0511
▁የጎንደር	-11.0512
▁እንደዘገበው	-11.0514
▁ሠ	-11.0517
▁የተራራ	-11.0518
ፈረሱ	-11.0519
▁የሚያደርጋቸው	-11.0519
መንበረ	-11.0522
▁መጣር	-11.0522
▁እንዲፈፅሙ	-11.0523
▁ስዩም	-11.0524
▁ቁመና	-11.0524
ጨመሩ	-11.0526
ሰራጨ	-11.0526
▁እንደሚያስገኝ	-11.053
ኩትን	-11.0531
▁በህክምና	-11.0531
▁አርሶ	-11.0533
ልስ	-11.054
▁አጫ	-11.0541
▁በዙፋኑ	-11.0541
፼፶፻	-11.0542
▁አትበል	-11.0544
ጥበብ	-11.0544
▁ከአህዛብ	-11.0545
▁የጥላቻ	-11.0545
▁በመፍራት	-11.0545
▁ለማስከበር	-11.0546
▁ከቅዱስ	-11.0546
▁የሆነችውን	-11.0546
▁ልጇን	-11.0546
▁የቴክኒክና	-11.0547
▁በልጆች	-11.0547
▁ጋዝ	-11.0547
ጠቅም	-11.0548
▁ገንቢ	-11.0549
▁ቂም	-11.055
▁መባዎች	-11.0555
▁ለያእቆብ	-11.0556
ደሴ	-11.0559
▁ከሚኖሩ	-11.056
▁አንዳችን	-11.0565
▁ተስማማ	-11.0565
▁ሰማያትን	-11.0566
▁ሳኦልን	-11.0567
ዘዋል	-11.0569
▁የፍልስጤም	-11.0569
▁የቆ	-11.0569
▁አቃቢ	-11.0571
▁ጄምስ	-11.0571
▁ከልቡ	-11.0572
▁ታጋሽ	-11.0572
▁በኢሳይያስ	-11.0573
▁ስፍራው	-11.0574
ጨመር	-11.0574
▁የባሰ	-11.0575
▁ልዩነቶች	-11.0576
በጣ	-11.0576
▁በመቅ	-11.0576
ራቀ	-11.0577
▁የሻ	-11.0578
▁የሚጠቁሙ	-11.0578
▁መስጠቱ	-11.058
ዘፍ	-11.058
▁የባሪያ	-11.0582
▁የዚያ	-11.0593
▁ባልንጀሮቹ	-11.0594
▁ያስገኝልናል	-11.0594
▁ይመለሳል	-11.0594
▁ይጠቅማል	-11.0594
▁ነቀርሳ	-11.0594
▁ሀብቶች	-11.0594
ርሞ	-11.0595
ደፈ	-11.0595
▁አፍራሽ	-11.0595
▁ማሪ	-11.0596
ወሊድ	-11.0596
ኖቻቸው	-11.0597
ተባበር	-11.0597
▁ጠባቂዎች	-11.0597
በሳጭ	-11.06
▁በረሀብ	-11.0603
▁ሲያይ	-11.0604
▁የደረሱ	-11.0608
▁ማስተ	-11.0608
▁ይረዳል።	-11.061
▁አማኝ	-11.0612
▁የኢፌዲሪ	-11.0613
▁እወቁ	-11.0614
ቀትር	-11.0617
▁ባህርያትን	-11.0617
▁የሀላፊነት	-11.0618
ሸሸ	-11.0622
▁ግንድ	-11.0622
መፃ	-11.0623
▁ይፃፉ	-11.0623
▁ቆላ	-11.0623
▁ዘወር	-11.0625
▁ተስፋይቱ	-11.0626
ስምንት	-11.0627
▁ተከተሉ	-11.0629
▁በሚችሉ	-11.0631
▁ባለሞያዎች	-11.0633
ችሁም	-11.0636
▁እኩልነት	-11.0636
▁እርሳቸው	-11.0637
▁አይኔ	-11.0638
ከለክ	-11.0641
ጠፋቸው	-11.0642
▁በበ	-11.0646
▁እንድታደርግ	-11.0646
▁መከፋፈል	-11.0648
▁በአስራ	-11.0648
▁ፈልጉ	-11.0651
▁ይበላሉ	-11.0652
▁ሄደህ	-11.0652
▁ሊያደርገው	-11.0653
▁አላለም	-11.0653
▁ነብ	-11.0653
▁ይጠቀሙ	-11.0653
ዝኑ	-11.0655
▁የሚያመጣ	-11.0658
▁ሳሙ	-11.0658
▁ወድ	-11.0659
▁ፈለግ	-11.0659
▁በተሳሳተ	-11.0663
▁ተሳታፊዎች	-11.0663
▁የጎደላቸው	-11.0665
▁ሀቀኝነት	-11.0668
▁አይደለችም	-11.0668
▁ፈጥሮ	-11.0669
▁በእስያ	-11.0669
ጠፉት	-11.067
ሁህ	-11.067
14	-11.0672
▁በስብሰባ	-11.0672
▁፺፭	-11.0673
ሳቅ	-11.0674
▁የሚገፋፋ	-11.0674
▁አሞ	-11.0675
ገባችሁ	-11.0676
▁አሳይ	-11.0679
ሶስ	-11.068
▁በሱ	-11.068
▁ለተለያዩ	-11.068
▁አስደንጋጭ	-11.0685
ወልዱ	-11.0685
ጎል	-11.0688
ገለግለው	-11.0688
▁ማረሚያ	-11.0691
▁አለፈ	-11.0691
▁የመንፈሳዊ	-11.0692
▁ስታዲየም	-11.0693
▁መኝታ	-11.0693
▁መጥተን	-11.0695
▁ስልጠናው	-11.0696
▁ፍየሎች	-11.0702
▁ቅደም	-11.0702
▁ድም	-11.0703
▁አለብኝ	-11.0703
▁ፈልገው	-11.0704
▁ይፈልጉ	-11.0708
▁ቂ	-11.0708
▁ቁሳቁሶች	-11.071
▁ህፃኑ	-11.0712
▁የደሀንነት	-11.0717
▁ፈላስፋ	-11.0717
▁ለመመርመር	-11.0722
▁የሚንቀሳቀሱ	-11.0723
▁ሊታይ	-11.0723
▁ጠፍ	-11.0724
▁ወታደሮቹ	-11.0724
or	-11.0725
▁አልፈ	-11.0728
▁እንዲመራ	-11.0729
▁የሚወሰን	-11.0729
ዌል	-11.073
፻፹፭	-11.0731
▁በአባ	-11.0735
እን	-11.0741
መራው	-11.0742
▁ፍላጐት	-11.0742
▁ለልጁ	-11.0742
▁በመደበኛ	-11.0743
▁የሚኖሩትን	-11.0743
በቡ	-11.0743
▁የኪ	-11.0745
▁እየተናገረ	-11.0745
▁6	-11.0745
ደግሞም	-11.0745
▁ማርክ	-11.0745
ቃለሁ	-11.0746
▁የተመደበ	-11.0747
▁ተጠቃሚነት	-11.0755
▁አያሌ	-11.0755
▁ይከታተሉ	-11.0756
▁እንዲቆም	-11.0756
▁በልቤ	-11.0757
ጋሉ	-11.0759
ይዘው	-11.076
▁የተደረገውን	-11.0762
ሚደረገው	-11.0763
▁በኤፌሶን	-11.0767
▁ይገነዘባሉ	-11.0767
▁ደቡባዊ	-11.0767
▁ከአካባቢው	-11.0767
▁ዘፀ	-11.0768
▁ውደድ	-11.0768
▁የይሁዳን	-11.0769
▁አብረዋቸው	-11.0769
▁ጠሚ	-11.0773
▁እንደማይቀር	-11.0774
▁ከወርቅ	-11.0778
▁መሰረቱ	-11.0778
▁ናይ	-11.078
▁ከአንቺ	-11.0786
▁የሚያጋጥሙ	-11.0788
ሀዳር	-11.0788
▁ዴሞክራሲ	-11.0792
ቀሰቀሰ	-11.0792
▁ወያኔ	-11.0792
▁ብክለት	-11.0792
▁አይታወቅም	-11.0792
ህል	-11.0793
▁ለመሸፈን	-11.0795
▁ማይክል	-11.0796
▁እም	-11.0797
▁የአሜሪካን	-11.08
▁እየተስፋፋ	-11.08
▁ሰጥተ	-11.0808
▁የተነ	-11.0808
ቅናት	-11.0811
▁የተመለከተ	-11.0813
▁አዩ	-11.0814
▁የተለመዱ	-11.0815
▁የልደት	-11.0816
▁ይባላሉ	-11.0817
▁የግራ	-11.0817
▁እምላለሁ	-11.0817
▁ይጥራሉ	-11.0818
▁ዋጋው	-11.0818
▁ዝነኛ	-11.0822
▁ንዋይ	-11.0822
▁በሌለው	-11.0822
▁ብዙዎችን	-11.0822
▁ውጡ	-11.0824
ላለን	-11.0826
▁የአገሩ	-11.0826
▁በሚጠራው	-11.0827
▁ሰራተኞችን	-11.0829
▁ስምሪት	-11.083
▁እንደማት	-11.083
▁ይገባሉ	-11.0832
▁ወላጆቻችን	-11.0836
▁መቆ	-11.0838
▁በድምፅ	-11.084
▁አብሮት	-11.0841
▁ጉዳተኞች	-11.0842
▁ሽግግር	-11.0843
▁የሚታ	-11.0843
▁አጥቢያ	-11.0845
▁በልባችን	-11.0845
▁አደረሳችሁ	-11.0847
፻፹፩	-11.0847
ቀጠል	-11.0849
▁ተፈፀመ	-11.0851
▁መግ	-11.0852
▁ነፍሱን	-11.0854
▁የኮምፒውተር	-11.0855
▁ብሉ	-11.0855
▁ለመዳን	-11.0858
▁ያምኑ	-11.0861
▁ባንኩ	-11.0862
▁ያደረገችው	-11.0864
ነበበ	-11.0864
ሸንፍ	-11.0865
▁የመጣውን	-11.0865
ላቸዋለሁ	-11.0866
ርካ	-11.0867
▁ለሚኒስቴሩ	-11.0867
▁በሀቀኝነት	-11.0867
▁አገልግለዋል	-11.0867
▁መስመሮች	-11.0867
▁ፀሎቶች	-11.0867
▁የአመራር	-11.0868
▁የምትችሉት	-11.0872
▁ጎርፍ	-11.0872
▁ስላሳ	-11.0872
ምድራቸው	-11.0876
መሳ	-11.0876
▁ያለችው	-11.0876
ጆቹ	-11.0876
▁በተቃራኒው	-11.0878
▁እንደሚያሳዩት	-11.0879
ጠመድ	-11.0881
▁የሚፈጠረው	-11.0882
▁ቀዳዳ	-11.0888
▁አንድያ	-11.0889
▁ከሙታን	-11.0893
▁ዶክተሮች	-11.0893
▁የወላይታ	-11.0894
ዋጡ	-11.0894
▁ቅጣቱ	-11.0895
▁አሰራሮች	-11.0895
▁በሩን	-11.0896
▁ተጠንቀቅ	-11.0896
▁ወለጋ	-11.0901
▁ለመፈለግ	-11.0901
ጫው	-11.0903
ልጥ	-11.0904
ሆነው	-11.0907
▁ውሳኔውን	-11.0908
ነጩ	-11.0909
መዘገብ	-11.091
▁መቀየር	-11.091
▁አገረ	-11.0911
v	-11.0912
በረው	-11.0913
ገራቸው	-11.0913
▁ሲሰጡ	-11.0915
▁ቦኤዝ	-11.0918
ያስተላልፉ	-11.0919
▁አሰብኩ	-11.0921
▁የደረሰባቸውን	-11.0921
▁ለይተው	-11.0923
▁ለግል	-11.0924
ሪን	-11.0925
▁እርሾ	-11.0926
ስከትል	-11.0927
ኦን	-11.0927
▁ጥጃ	-11.0928
▁አልፏል	-11.0929
፻፴፰	-11.093
▁የምታደርገው	-11.093
▁ቅቤ	-11.0932
፻፵፮	-11.0932
ፍል	-11.0934
ስተን	-11.0935
▁ሲገቡ	-11.0936
ጠቀሱ	-11.0936
▁የድጋፍ	-11.0936
▁ጽ	-11.0937
▁ያማረ	-11.0939
ፕሮ	-11.094
▁ለነበሩ	-11.0943
▁ስልጣኔ	-11.0943
▁የተቀመጡ	-11.0944
ደረሱ	-11.0944
▁የተደራጀ	-11.0945
▁ልጆችህ	-11.0946
▁የግጦሽ	-11.0947
ባዊ	-11.0949
▁በቴሌቪዥን	-11.0952
ራው	-11.0952
ዛቸው	-11.0952
መቀ	-11.0955
▁ወንጌልን	-11.0955
▁ወረ	-11.0955
ሺህ	-11.0955
▁ነገሥታት	-11.0956
ብድ	-11.0958
ስተዋል	-11.0958
በረታቱ	-11.096
▁ፈለገ	-11.0961
▁እንዳይደርስ	-11.0964
▁ምህላ	-11.0966
ውሮ	-11.0968
▁በአንፃራዊ	-11.0969
▁ውይይቶች	-11.0969
▁ሰሜናዊ	-11.0969
▁ንብ	-11.0969
ቀረበለት	-11.097
▁ሀጢአቶች	-11.097
▁ጎበዝ	-11.097
▁ወጪዎች	-11.0973
▁እንዷ	-11.0973
ቆረጡ	-11.0975
▁ለሚገኘው	-11.0975
ታቸውም	-11.098
▁ጓደኞቻቸው	-11.0983
▁ጋዜጣዊ	-11.0985
ቆረጥ	-11.0987
▁የብሄር	-11.0991
▁ሽባ	-11.0994
▁ለዘመናት	-11.0994
▁ጠቁሟል	-11.0994
▁አስፈልጎ	-11.0994
▁ተንኮል	-11.0995
ቴል	-11.0999
▁ዝግ	-11.1001
ከማ	-11.1001
▁ምልክቱ	-11.1002
፻፴፩	-11.1003
▁ህመሙ	-11.1003
▁የአባቶች	-11.1004
▁ለመታዘዝ	-11.1004
▁መወያየት	-11.1006
▁ትሰ	-11.1007
▁ከመሞቱ	-11.1008
▁ትገ	-11.101
▁ይበላል	-11.101
▁ማነስ	-11.1012
▁ህል	-11.1013
▁ያነሳ	-11.1013
▁የትራፊክ	-11.1013
ዛሉ	-11.1017
ክሲ	-11.1018
፻፶፭	-11.1018
▁በእስራኤላውያን	-11.102
▁ኑፋቄ	-11.102
▁አያስደንቅም	-11.102
▁የተባረከ	-11.102
▁የሚያስገርም	-11.102
▁ማግኘታቸው	-11.1021
ቻላቸው	-11.1024
▁መንፈሱን	-11.1026
▁አሰበ	-11.1026
▁ገልፆታል	-11.1027
▁ቄሮ	-11.1027
▁ወሎ	-11.1028
ከፈሉ	-11.1029
▁በሚባለው	-11.103
▁ለጎን	-11.1034
▁ኦርቶዶክሳዊ	-11.1034
▁ትቀ	-11.1038
▁አስረ	-11.1039
ገድለው	-11.1039
▁የሚፈራ	-11.1042
▁መሣርያ	-11.1046
▁መኮንኖች	-11.1046
▁ኮርፖሬሽን	-11.1046
▁ለማበረታታት	-11.1046
▁ግብርና	-11.1046
▁በአምስት	-11.1046
▁እንዳልነበረ	-11.1046
ቆጠረ	-11.1047
▁የተባለችው	-11.1048
ጨብ	-11.105
▁አይኑ	-11.105
▁በአቅራቢያው	-11.1051
ግላ	-11.1051
▁በመተው	-11.1051
ነኩ	-11.1052
▁መከራን	-11.1054
▁ለማይ	-11.1054
▁እል	-11.1054
ሰላስል	-11.1056
▁ዘንግ	-11.1056
▁ቡሽ	-11.1056
▁የሞቱት	-11.1057
▁አሳዩ	-11.1057
▁እቃውን	-11.1058
ቃለ	-11.1058
▁ለማስገባት	-11.1059
▁ታር	-11.1059
▁አደጋው	-11.106
መሰከረ	-11.1061
▁በእነ	-11.1061
▁አቡ	-11.1062
▁ውሉ	-11.1066
▁ቀጠሉ	-11.1066
▁የሚጠቀሙበት	-11.1066
▁ፌዴሬሽን	-11.1069
ልቶ	-11.107
▁ራስል	-11.107
▁S	-11.1071
▁የባለስልጣኑ	-11.1071
አለቃ	-11.1072
▁እጦት	-11.1072
▁ይዘዋል	-11.1074
▁ያለኝን	-11.1074
ፈጥር	-11.1075
▁እንደሚያገኙ	-11.1076
▁አዲ	-11.1076
▁ይሰማናል	-11.1077
ሬስ	-11.1078
▁ብልህ	-11.1078
▁እያልኩ	-11.1079
▁በቅንነት	-11.1082
▁በፍትህ	-11.1084
▁እግሩ	-11.1085
ቅም	-11.1088
▁መንገደኞች	-11.109
▁መጠነ	-11.1091
ላም	-11.1092
ገጠመ	-11.1092
▁ጣቢያው	-11.1092
▁የተከበረ	-11.1092
ግዛ	-11.1093
▁እጅህ	-11.1093
▁ሊሰጡ	-11.1094
▁የሚፈፅሙ	-11.1096
▁ከታላቁ	-11.1097
▁ይካሄዳል	-11.1097
▁ከራየን	-11.1097
ጥንቶቹ	-11.1099
ሲል	-11.11
ሰላም	-11.11
▁ቍጣ	-11.11
▁ዜናዎች	-11.11
ናገራቸው	-11.1101
ጋሩ	-11.1102
ሰነ	-11.1103
▁ተስፋችን	-11.1107
ልካቸው	-11.1108
▁መሠረት	-11.1109
▁ታደርግ	-11.111
▁እልቂት	-11.1111
▁ለማስተዋል	-11.1113
▁ምሳ	-11.1113
▁ካሬ	-11.1118
▁ተጠራ	-11.1118
▁የአለምን	-11.1119
በቀል	-11.1119
▁በስድስት	-11.1123
▁በጊልያድ	-11.1123
▁እንሄዳለን	-11.1123
▁ትኩሳት	-11.1123
▁እንሂድ	-11.1123
▁የኢንስቲትዩቱ	-11.1124
▁ያፈ	-11.1125
▁በእሷ	-11.1125
▁አይደለንም	-11.1126
▁የሚያገለግለው	-11.1128
ከማች	-11.113
▁ዲያቆን	-11.1131
▁ፈፅመው	-11.1132
▁እንደሚያደርጉ	-11.1134
▁ከእውነት	-11.1134
▁ከአስራ	-11.1138
▁ገፀ	-11.1141
ቢት	-11.1141
ጠቀሰ	-11.1142
▁ይበል	-11.1142
▁በቦ	-11.1143
ማለች	-11.1144
▁ትጋት	-11.1145
▁አጋርነት	-11.1145
▁፹፭	-11.1145
ቀይር	-11.1146
▁በለው	-11.1147
▁የአፍ	-11.1147
ኢትዮጵያ	-11.1148
▁ቶን	-11.1149
▁ውዝግብ	-11.1149
▁ይጠቁማሉ	-11.1149
▁ጀምሯል	-11.1149
▁አግኝተ	-11.115
ቀደስ	-11.115
ምትሆነው	-11.1151
▁ለአባቱ	-11.1151
▁፷፫	-11.1153
▁ትክክለኛነት	-11.1154
ሎቻቸው	-11.1156
▁በውኑ	-11.1158
▁የመተማመን	-11.1158
ጋጠሙ	-11.1159
▁፹፫	-11.1159
ጦስ	-11.1163
▁ድብ	-11.1165
▁እደ	-11.1165
▁ማካፈል	-11.1167
▁ተሰምቶ	-11.1167
▁መብል	-11.1168
ምረው	-11.117
▁የጀመረ	-11.1171
▁ትግበራ	-11.1171
▁በድርጅቱ	-11.1175
▁ታገኛለህ	-11.1175
▁ጣእም	-11.1175
▁፷፬	-11.1175
▁ወንዙ	-11.1177
ጋበዙ	-11.1177
ጠላት	-11.1177
▁ቀሲስ	-11.1177
▁የአቃቤ	-11.1178
▁ኢሳት	-11.1179
▁ቢያደርግ	-11.1179
▁ፈራጅ	-11.118
▁መገዛት	-11.118
▁፳፻፲፫	-11.1181
▁ባእድ	-11.1182
ተጋቡ	-11.1182
▁ካለፈው	-11.1182
ሞከር	-11.1183
▁ስጋውን	-11.1184
▁መጋቢ	-11.1186
ፍቶ	-11.1189
▁ተሰጠ	-11.1189
ወሳ	-11.1191
▁ከወጣበት	-11.1191
▁ስሜቱን	-11.1193
▁አድማስ	-11.1195
▁አይታ	-11.1196
ዋቢ	-11.1196
▁የሀገሪቱን	-11.1198
▁የተቀናበረው	-11.1201
▁በቤ	-11.1201
▁ወንድሞቹን	-11.1202
፻፹፰	-11.1202
ኳችሁ	-11.1204
▁ይጠይቁ	-11.1204
▁እየመራ	-11.1206
▁ያቀርቡ	-11.1206
▁ታይ	-11.1206
▁መፍቀድ	-11.1206
▁ቃላትን	-11.1208
▁የጠቀሰው	-11.1209
▁የበአል	-11.1209
▁የጥራት	-11.1209
▁ማቋቋም	-11.1212
▁ማሀ	-11.1213
▁ያገኘውን	-11.1213
ደነቁ	-11.1213
▁ታስሮ	-11.1214
ራሽ	-11.1214
▁መፍ	-11.1215
ባቡ	-11.1216
መሰሉ	-11.1216
▁ቅስቀሳ	-11.1216
▁ይጋ	-11.1219
▁ሲቀርብ	-11.122
ሄል	-11.1221
▁ማሀተም	-11.1224
▁የቤቱ	-11.1224
▁እንዲቀርቡ	-11.1225
▁ተናጋሪው	-11.1227
ወሰዳቸው	-11.1227
▁ስላልነበረ	-11.1227
▁ለቤተሰቡ	-11.1228
▁በማስተዋል	-11.1228
ስተዋሉ	-11.1231
▁ህሊናህ	-11.1232
▁የቤተክርስቲያን	-11.1233
▁ያየው	-11.1235
▁እየቀረበ	-11.1237
▁በገበያ	-11.1237
▁እይ	-11.1238
▁ልንሆን	-11.1238
▁የሚገኝበት	-11.1239
▁ጥቅሶችን	-11.1241
▁ውርስ	-11.1246
▁ቀጣይነት	-11.1247
▁7	-11.1251
አባ	-11.1251
▁ባልንጀራ	-11.1252
▁የራ	-11.1253
▁በሶ	-11.1253
▁ከሰይጣን	-11.1253
▁፷፰	-11.1254
▁በላቲን	-11.1254
▁ምራ	-11.1257
▁እንዳይጠፋ	-11.1259
▁ሞልቶ	-11.1262
▁የአቡነ	-11.1265
▁ዩኒቨርሲቲዎች	-11.1265
▁የማር	-11.1265
▁ቆይ	-11.1267
▁ዓመቶ	-11.127
▁እሳቸው	-11.127
▁የዛሬው	-11.1271
ሰግድ	-11.1273
▁ፉ	-11.1275
በሉት	-11.1276
▁ከሀዲ	-11.1276
▁ብፁእነታቸው	-11.1277
▁ቤን	-11.1277
▁ሊሰጣቸው	-11.1278
▁በአንዲት	-11.1279
▁የምስራቹ	-11.1279
ያመሰግኑ	-11.1279
▁ይሞታሉ	-11.1279
▁ለልጅ	-11.128
ቋረጡ	-11.1281
es	-11.1281
▁መጥተዋል	-11.1282
▁አስሩ	-11.1285
▁መፍቻ	-11.1286
▁ምጣኔ	-11.1289
▁በኤደ	-11.129
ለጡ	-11.1293
ጎን	-11.1295
▁ላክ	-11.1297
▁እሰ	-11.1298
▁እንደሚያስብ	-11.1299
ጥፉ	-11.1301
ከፍሉ	-11.1304
▁ያገኙትን	-11.1305
▁በፀጋ	-11.1305
ግዝ	-11.1305
▁ከዚያን	-11.1306
▁በዋሽንግተን	-11.1306
▁ለጦርነት	-11.1306
▁ለከፍተኛ	-11.1306
▁ሊያገኝ	-11.1306
ብዙ	-11.1306
▁በማጠናከር	-11.1309
▁ክሶች	-11.1311
▁መከበር	-11.1311
▁የሚከ	-11.1312
▁ተነሳስተው	-11.1315
▁ፀጋዬ	-11.1315
ልሙ	-11.1317
አጭር	-11.1319
▁፻፴	-11.1322
▁ከስልጣን	-11.1322
▁ፊቱ	-11.1323
▁እያለች	-11.1323
▁አለቃው	-11.1324
▁ነበረብኝ	-11.1325
ታመም	-11.1326
ጋበዝ	-11.1327
፻፫	-11.1329
▁ከበርካታ	-11.133
ባሌ	-11.1331
▁በማሀበራዊ	-11.1332
▁ተፈፅሟል	-11.1332
▁ያስተምራል	-11.1332
▁እንዲጠፋ	-11.1333
፻፸፫	-11.1333
ደርጉ	-11.1334
▁ይናገር	-11.1335
▁ወዳሉ	-11.1335
▁ጎራ	-11.1335
▁እንዲያገለግል	-11.1336
▁ክሪስ	-11.1336
▁የአካባቢውን	-11.1336
▁የማያስ	-11.1336
▁ደሙ	-11.134
▁ይቆጣጠራል	-11.1341
በኝ	-11.1342
ደዳ	-11.1345
▁ደረሰኝ	-11.1345
▁ጋዜጣው	-11.1346
በቅል	-11.1347
▁ጉቦ	-11.1348
ቀሩት	-11.1349
ጠኛ	-11.135
▁ያስተዳድራል	-11.1359
▁ኢንተርናሽናል	-11.1359
▁በእምነታቸው	-11.1359
▁ተፈፅሞ	-11.136
▁ራይ	-11.1362
▁በለአም	-11.1364
▁ሳይቀሩ	-11.1368
በላሹ	-11.1369
▁ይገንዘቡ	-11.1372
▁ማወቁ	-11.1372
▁መንፈሳዊነት	-11.1373
▁ሰባቱ	-11.1376
▁የህይወትን	-11.138
▁አበቦች	-11.1381
▁ገንዘቡ	-11.1382
▁አወቀ	-11.1384
▁የረዳው	-11.1385
▁ለማስታወስ	-11.1385
▁በማስታወስ	-11.1385
▁ሰብስቦ	-11.1385
▁ለራሳችሁ	-11.1385
ሰነዝሩ	-11.1385
▁ያስተምረናል	-11.1386
ያስታውሱ	-11.1388
ገደድ	-11.1389
ጥረው	-11.139
▁እንላለን	-11.139
▁አስተዋ	-11.1392
▁ከሲ	-11.1394
▁ለመልካም	-11.1395
አካ	-11.1396
ለናል	-11.1397
▁አማራጮች	-11.1398
▁ጨረር	-11.1399
▁የሚጣልበት	-11.1399
ሰናል	-11.1401
▁በተሰጠ	-11.1402
▁የሚከፈለው	-11.1402
▁በብቃት	-11.1404
ቆሙት	-11.1406
ሔ	-11.1412
ራሷ	-11.1413
▁ድምፃቸውን	-11.1413
ፋለች	-11.1413
▁ማሰሪያ	-11.1416
▁በግፍ	-11.1416
▁መርከቡ	-11.1422
ባረክ	-11.1423
▁የቱ	-11.1426
ቆጣጠሩ	-11.1426
▁ተፈጠረ	-11.1428
ጋው	-11.143
ደሉ	-11.1432
▁በጭ	-11.1434
▁ሲፅፍ	-11.1435
▁የሚዘ	-11.1437
▁እንዲማሩ	-11.1438
▁ግር	-11.1438
▁አመሰግናለሁ	-11.1438
▁ተጫዋች	-11.1438
▁ያስችላቸዋል	-11.1438
▁ብቃቶች	-11.1438
▁መዘጋጀት	-11.1438
ያዎች	-11.1439
▁ድብደባ	-11.1439
▁፸፫	-11.1439
▁በጋብቻ	-11.1439
ሸፍን	-11.144
▁መርማሪ	-11.144
ትቶ	-11.144
▁አረቢያ	-11.144
፻፴፬	-11.1442
▁ዘመናቸው	-11.1443
እርግ	-11.1443
ዳብ	-11.1444
▁የሚከሰት	-11.1444
▁በየነ	-11.1446
▁ሊከሰት	-11.1449
0	-11.145
▁ሞተዋል	-11.1454
▁የአካ	-11.1456
ቀቅ	-11.1459
▁ሲያገኝ	-11.146
▁የባህርይ	-11.1461
▁ሴቶቹ	-11.1462
▁ህዋ	-11.1462
ምድር	-11.1464
▁በተለምዶ	-11.1465
▁ሊንኩን	-11.1465
▁የሙስና	-11.1465
▁ያጠፋ	-11.1467
አካባቢያቸው	-11.1468
▁ጠረፍ	-11.1468
▁ወይፈን	-11.1468
▁ብልጫ	-11.1469
▁በመጠኑ	-11.1477
ቀዱ	-11.1477
▁ይሄድ	-11.1477
▁ቀድሞው	-11.1478
▁ክፈ	-11.1478
▁ለሰላም	-11.1478
▁በመንፈሱ	-11.1478
▁እንዲደርሱ	-11.148
▁አምራች	-11.1483
▁ተራራው	-11.1483
▁በብሄራት	-11.1483
▁በፓ	-11.1484
▁በመሆናችን	-11.1484
ረኞች	-11.1485
▁ማሰልጠን	-11.1492
▁ያጠቃልላል	-11.1492
▁ተፅፏል	-11.1492
▁ኡማ	-11.1492
▁ፃፈ	-11.1494
▁ሚዲያዎች	-11.1494
▁እልባት	-11.1495
ታተሙ	-11.1497
▁ከተወሰኑ	-11.1497
▁ፀለየ	-11.1499
መግባታቸው	-11.1501
▁በመግዛት	-11.1502
▁የወደፊቱን	-11.1505
▁ታላቂቱ	-11.1506
▁ጅብ	-11.1506
▁ጉል	-11.1507
▁አላማቸው	-11.1509
ሯችሁ	-11.1509
ገልጥ	-11.151
ያዘው	-11.1512
▁ጠራር	-11.1512
▁ጠላቶቹ	-11.1514
ስላ	-11.1518
▁በውስጤ	-11.1519
▁ለወንዶች	-11.1519
▁ውክልና	-11.1519
▁በስደት	-11.1519
▁ሰውነታችን	-11.1519
ቀላቀሉ	-11.1519
▁በእርሷ	-11.152
ላለህ	-11.1521
ቶታል	-11.1522
▁መጓደል	-11.1522
▁ብሪታንያ	-11.1523
፼፳፻፲	-11.1523
▁ጎል	-11.1528
▁ለዚያ	-11.1534
▁የውዳሴ	-11.1538
▁ቦታውን	-11.1539
▁በመጪው	-11.154
▁Ÿ	-11.154
▁መደረጉን	-11.1541
▁አንቲ	-11.1541
▁ተፈራ	-11.1545
▁ከደቀ	-11.1545
▁አድካሚ	-11.1546
▁ፅንስ	-11.1547
▁ያውላል	-11.1549
▁የዘገየ	-11.155
▁ከስነ	-11.1551
፻፺፪	-11.1552
▁ማስታወቂያዎች	-11.1552
ሶን	-11.1554
▁የተጠቀሱትን	-11.1555
en	-11.1556
▁ንግግሩን	-11.1556
ቪል	-11.1556
2091	-11.1559
ዴል	-11.1559
▁ለዘ	-11.1559
ከሰሱ	-11.156
▁የሚበላ	-11.1565
▁የስብከቱ	-11.1566
ልማት	-11.1567
ሳተ	-11.157
▁በኢኮኖሚ	-11.1573
▁ለማስተላለፍ	-11.1573
▁መንበረ	-11.1578
ራጅ	-11.158
▁በቃላት	-11.1581
▁የተያዙ	-11.1581
▁ክሱ	-11.1582
▁ሰነዶችን	-11.1588
▁በሙ	-11.1591
ጣላችሁ	-11.1594
ቷት	-11.1594
ላጭ	-11.1594
ታሰረ	-11.1598
▁የችግሩ	-11.16
▁ፍጆታ	-11.16
▁ተክ	-11.1601
▁ይስጥልኝ	-11.1602
▁ማስከበር	-11.1602
ጓት	-11.1602
▁አስተዳደግ	-11.1603
▁የማሀበረ	-11.1603
▁ዘርፈ	-11.1603
▁ነባር	-11.1603
▁አምዶች	-11.1606
▁ሰባተኛው	-11.1607
ከፈተ	-11.1607
▁ሜሪ	-11.1608
▁የአንዱ	-11.161
▁በፃፈ	-11.161
ለሙ	-11.1611
▁ቢጫ	-11.1611
ጥፎ	-11.1615
ዞች	-11.1616
▁እንዲጨምር	-11.1616
▁መኪናዎች	-11.1617
▁በብ	-11.1618
▁መሆኔን	-11.1618
▁አሜሪካን	-11.1619
▁ጥና	-11.1622
▁ማለታቸው	-11.1622
፻፴፯	-11.1624
▁የተሸ	-11.1624
ጠናው	-11.1626
ከናወናቸው	-11.1627
▁በፊታቸው	-11.1627
ፊሊፒንስ	-11.1627
▁የኦዲት	-11.1627
▁ወስደህ	-11.1627
▁ጠቅሰዋል	-11.1628
▁እኒህ	-11.1629
▁ግለፅ	-11.1629
▁ባንድ	-11.1629
▁የሶርያ	-11.1629
▁አረፍተ	-11.163
▁አበራ	-11.1632
▁አትፍሩ	-11.1632
▁የማረጋገጥ	-11.1632
▁አምናለሁ	-11.1632
ወዳጅ	-11.1633
▁ጀምረው	-11.1634
▁ልቡን	-11.1635
▁የኛ	-11.1637
ብንም	-11.1637
ዟቸው	-11.1638
▁የደረሰበትን	-11.1639
▁የነገረ	-11.1639
▁የሌለባቸው	-11.164
▁ያወጣቸው	-11.1641
▁ዩኒ	-11.1642
▁ይበላችሁ	-11.1648
▁ነጋሪት	-11.1649
ቆል	-11.165
▁ዘዴዎችን	-11.1651
---	-11.1652
▁ጊዜውን	-11.1653
▁ገበታ	-11.1653
▁ሲቀር	-11.1654
▁ብራዚል	-11.1654
▁መዘንጋት	-11.1654
▁ሱሰኛ	-11.1654
ሳያቸው	-11.1654
▁ለእምነት	-11.1655
▁ባለፀጋ	-11.1656
ስተካከል	-11.1656
▁እስልምና	-11.1657
ተማመኑ	-11.1658
▁ሆናለች	-11.1659
▁የእረፍት	-11.1661
▁ሰነዱ	-11.1662
ረጃ	-11.1666
ቋት	-11.1667
▁ያእቆብን	-11.1667
▁ባንዲራ	-11.1667
ከፍለው	-11.1667
ያቀርቡ	-11.1667
▁አስደ	-11.1669
ወጣበት	-11.167
▁ምእመናንን	-11.1671
▁እያደር	-11.1671
▁ፕሮጀክቱ	-11.1675
▁ብቻዬን	-11.1678
▁መድሀኔአለም	-11.1678
▁ለዛሬ	-11.1679
▁ይኑራችሁ	-11.1682
▁አያደርግም	-11.1682
▁ቪድዮ	-11.1682
▁የማያምኑ	-11.1683
▁የማስተዋል	-11.1683
▁የስም	-11.1685
ዳኑ	-11.1685
▁ይምጣ	-11.1685
▁በሜዳ	-11.1685
▁በእጄ	-11.1687
ወሰነ	-11.1688
▁ተያያዥነት	-11.169
▁እንዳመለከተው	-11.169
▁የአን	-11.169
▁ተፅእኖዎች	-11.1692
▁ታው	-11.1692
ቀብር	-11.1693
ርዱ	-11.1694
▁⁠	-11.1696
እንዲሁም	-11.1697
ጋጠማቸው	-11.1698
▁ተንቀሳቃሽ	-11.1698
ቶት	-11.1702
ጠቅለል	-11.1704
▁መምጣቱ	-11.1705
▁የተጠበቀ	-11.1707
▁አምስቱ	-11.1708
ة	-11.1709
▁ከወዲሁ	-11.1709
▁★★★	-11.1709
▁አልቻልኩም	-11.1709
▁ዊልያም	-11.1709
▁እግሮቹ	-11.171
▁መጥቀስ	-11.171
▁ይወዳል	-11.171
▁ጠቦቶች	-11.1711
▁መጨ	-11.1715
▁ፕ	-11.1718
▁አይተ	-11.1719
▁የሚመጣውን	-11.1719
ደጋግ	-11.1719
▁ከተፈፀመ	-11.172
ቃቅ	-11.172
▁የወጡት	-11.172
፻፺፭	-11.1722
▁2091	-11.1723
▁የሚወስድ	-11.1726
ለገ	-11.1726
▁ለጋስ	-11.1728
መሰረተ	-11.1729
▁የኢን	-11.1729
▁ወደምትገኘው	-11.1734
▁ከፊቱ	-11.1735
▁ውጤቶችን	-11.1735
▁የሚመሳሰል	-11.1736
▁እውነተኝነት	-11.1736
▁ያስረዳል	-11.1737
▁ናትናኤል	-11.1737
▁ጥላሁን	-11.1738
▁በማንሳት	-11.1738
▁ኮፒ	-11.1738
▁የሚስ	-11.1738
ድድ	-11.1739
▁ለመወያየት	-11.174
▁ታዝ	-11.1741
▁ሞገድ	-11.1743
▁ያሳለፈው	-11.1743
ጠይቀ	-11.1743
▁ለጤና	-11.1745
▁ምርጫው	-11.1745
ቴሪያ	-11.1745
ደግፈው	-11.1746
▁የሜ	-11.1746
▁እንደሚቀጥል	-11.1748
▁የአውሮፕላን	-11.1753
▁የሚያቀርበው	-11.1753
▁አጎ	-11.1754
መስከረም	-11.1755
▁የሆድ	-11.1755
▁ያቀረበውን	-11.1759
▁ከሞ	-11.1762
ነዚህ	-11.1763
▁አስመልክተው	-11.1764
▁አያስገርምም	-11.1764
▁ይመለከታሉ	-11.1764
▁በሰሜናዊ	-11.1764
▁ከቻይና	-11.1765
▁ልብን	-11.1765
▁እየሄዱ	-11.1765
▁ማእድናት	-11.1766
በሻ	-11.1766
▁ቆርጠ	-11.1768
፼፲፰፻	-11.1768
▁አበረታ	-11.1768
▁ግዥ	-11.177
ያሳድር	-11.177
▁ከዳር	-11.1771
▁16	-11.1773
ዎቼ	-11.1774
▁የነፃነት	-11.1774
አችን	-11.1775
በሬ	-11.1778
▁እንዳለህ	-11.1779
▁የሚያስችለን	-11.1779
▁የእነሱን	-11.1785
▁አጉል	-11.1786
ጠፍ	-11.1787
▁እንዲገነዘቡ	-11.1787
በጅ	-11.1789
ዢ	-11.1789
ሌን	-11.179
▁ኮል	-11.179
▁የአኗኗር	-11.1792
▁የዓመቱ	-11.1792
ጓቸው	-11.1792
▁ከባቢሎን	-11.1792
፻፶፮	-11.1792
ጎበኘ	-11.1792
▁ዮሴፍን	-11.1793
▁በመገኘቱ	-11.1794
ተዉት	-11.1795
ጣበቅ	-11.1795
▁ለእውነተኛ	-11.1795
▁የሰጡ	-11.1795
▁ደጋግሞ	-11.1798
▁ይደር	-11.1799
፻፶፫	-11.1799
ጠባበቁ	-11.1799
▁ሲወርድ	-11.18
ቆጥር	-11.1801
▁መንከባከብ	-11.1804
ሀድ	-11.1806
▁የፌስቡክ	-11.1807
▁ሎሌ	-11.1809
▁አመጣጥ	-11.1811
▁የሚያስችለውን	-11.1811
▁የሚችልበት	-11.1811
ዘል	-11.1815
ያዛቸው	-11.1816
▁መላእክቱ	-11.1817
▁ታላቁን	-11.1817
▁አመልካቹ	-11.1818
ጥያ	-11.1819
▁በስተጀርባ	-11.1819
▁አውጥቷል	-11.1819
▁ይቀመጣል	-11.1819
▁ለሴቶች	-11.1819
▁ከልጆቻቸው	-11.1819
▁ህዝባችን	-11.182
▁ላለማ	-11.182
▁በትንሹ	-11.182
▁አቋሙን	-11.1821
ሻሽ	-11.1821
▁ተኝቶ	-11.1824
▁መረጃውን	-11.1825
ነዱ	-11.1829
ያነ	-11.183
▁ለቆ	-11.183
ለካ	-11.183
▁ከሚገባው	-11.1831
ስኩ	-11.1833
ፃፋቸው	-11.1834
▁የሚያስገኘውን	-11.1834
▁እንዲያቀርቡ	-11.1836
▁ያድርግ	-11.184
▁አሽ	-11.1846
ፍላ	-11.1847
▁እንዷስፈላጊነቱ	-11.1847
▁መልአከ	-11.1847
▁አንፈልግም	-11.1847
▁የፍየል	-11.1847
▁እመቤት	-11.1848
ወነ	-11.1849
▁ውረድ	-11.1849
▁፲፱፻፲፱	-11.185
ዘረጉ	-11.1851
▁ከከተማዋ	-11.1855
አንተ	-11.1856
▁ተጥሎ	-11.1856
▁ወዲያውም	-11.1856
▁ዝምታ	-11.1857
ብሉ	-11.1857
ያጋጥሙ	-11.1859
▁የሚገባቸውን	-11.186
▁አለማየሁ	-11.186
ለፋ	-11.1861
▁ስላሉት	-11.1863
ባልንጀራው	-11.1866
▁የመልካም	-11.1867
▁ጣል	-11.1869
▁የተመለከቱትን	-11.1871
▁መጣች	-11.1871
▁በሚበልጡ	-11.1875
▁በማህበራዊ	-11.1875
▁አካሊት	-11.1875
▁፶፭፻፳፪	-11.1875
▁በመምራት	-11.1876
▁ከማለት	-11.1877
▁የተሳናቸው	-11.1878
ክቶ	-11.1879
▁እንደየ	-11.1881
▁አታላይ	-11.1881
▁እንዳይኖር	-11.1883
▁የልጅነት	-11.1884
ስትሮ	-11.1886
ፆሙ	-11.1886
▁ታቦር	-11.1888
▁የተወው	-11.1888
▁ሲቪል	-11.1889
▁ከጎ	-11.1889
፻፳፯	-11.1891
▁በፍታ	-11.1891
▁አቢሴሎም	-11.1892
▁ጡ	-11.1892
▁የእኛን	-11.1894
▁እየሰጠ	-11.1896
ቤሪያ	-11.1897
▁በተዘጋጀው	-11.1899
▁የሚባለውን	-11.1899
▁አስረዳ	-11.19
ስሙ	-11.1901
▁እንችል	-11.1902
▁ይጠራ	-11.1902
ፈፅመው	-11.1902
ዡ	-11.1903
▁የጉልበት	-11.1903
▁ንድፈ	-11.1903
▁ከመንፈስ	-11.1903
▁በኢራቅ	-11.1904
▁መሸጥ	-11.1905
▁አሽከርካሪ	-11.1906
▁ትችት	-11.1906
▁አስቤ	-11.191
መጀመሪያዎቹ	-11.1912
ሰበስብ	-11.1912
▁ሚኒስትሮች	-11.1914
▁በተገኘ	-11.1914
▁ከነበሩ	-11.1915
ፒያ	-11.1917
▁የማስጠንቀቂያ	-11.1918
▁ቅዱሳት	-11.1918
▁ከመጀመሪያ	-11.1918
▁መብትና	-11.1919
▁ተቆጣ	-11.1921
▁8	-11.1923
ፀፀት	-11.1926
▁ተቋማትን	-11.1929
▁ምሽግ	-11.1931
▁እንቁላል	-11.1933
▁በሽታን	-11.1935
ዓፄ	-11.1939
▁የሚሰጥበት	-11.1941
ተከናወነ	-11.1941
▁ምግብና	-11.1943
ግዞ	-11.1943
▁ከተሰማ	-11.1946
50	-11.1947
▁አስገድዶ	-11.1951
ሀዘ	-11.1952
▁አዳነ	-11.1952
▁ይረ	-11.1952
▁ቦሌ	-11.1953
ቸገሩ	-11.1953
ዋንም	-11.1954
▁የሰደደ	-11.1957
▁ያስወግዳል	-11.1959
▁ትይዩ	-11.1959
▁የኢትዮ	-11.1959
▁የላቲን	-11.196
▁የማይታወቅ	-11.196
▁መሬቱን	-11.196
▁ቢልዮን	-11.196
▁አሀ	-11.196
▁ስብሰባውን	-11.1961
▁በዙሪያቸው	-11.1962
▁የተገለፀ	-11.1963
▁መድን	-11.1963
▁አመለካከቶች	-11.1963
▁ባሪያህ	-11.1964
▁ለብሶ	-11.1964
▁ተገን	-11.1965
4	-11.1967
▁ያንኑ	-11.1967
▁የሚካሄድ	-11.1967
ክሎ	-11.1968
▁በተመለከተው	-11.1968
ትራ	-11.1972
▁መላኩ	-11.1974
▁የተሳተፉ	-11.1975
ደክም	-11.1977
▁ነኝና	-11.1978
ፕሮጀክት	-11.1978
A	-11.1978
▁የሚያዝ	-11.1983
ቆጥረው	-11.1983
▁ምልጃ	-11.1984
▁የኬ	-11.1985
▁አሸ	-11.1985
▁መዝገቦች	-11.1987
▁የጥብቅና	-11.1987
▁አሳስቧል	-11.1987
▁ተበዳይ	-11.1988
▁በጦርነቱ	-11.199
▁ዌ	-11.199
ሴት	-11.1992
ነገራቸው	-11.1992
▁ከጥቅም	-11.1993
▁የብ	-11.1994
▁ለጉባኤው	-11.1996
ሯቸዋል	-11.1996
ማራ	-11.1997
ሰግዱ	-11.1998
▁የተሰ	-11.1999
▁እያዩ	-11.1999
▁ሲመለሱ	-11.2
▁ወርዱ	-11.2003
▁በደመና	-11.2004
ሳቡ	-11.2005
▁ለድሆች	-11.2005
▁ማዳ	-11.2006
▁ስሟ	-11.2006
▁ከተፈለገ	-11.2007
▁የፍ	-11.2007
▁ያስገባ	-11.2009
▁ጥያቄው	-11.2009
▁በማሳ	-11.2013
▁በገሊላ	-11.2015
ለሉ	-11.2015
▁እዚሁ	-11.2018
▁መፅሄቱ	-11.2018
ማርክ	-11.2019
▁ጣት	-11.2019
▁ለውጭ	-11.2019
ኖችን	-11.202
ቋቋመ	-11.202
▁ተስፋፍቶ	-11.2021
▁ልባችሁን	-11.2022
▁ከወንድ	-11.2024
▁ከደም	-11.2025
ሰብከው	-11.2026
▁መመርመራችን	-11.2026
፲፰	-11.2027
▁ከለላ	-11.2027
ማያ	-11.2029
▁እንደመ	-11.2036
ህያ	-11.2036
ፈልጋቸው	-11.2038
▁የሚታየውን	-11.2038
ያካሂዱ	-11.2039
ዳከም	-11.2041
▁መድሀኒታችን	-11.2043
ሃይ	-11.2044
▁ባለትዳሮች	-11.2044
▁በመውጣት	-11.2044
▁ተገንዝበዋል	-11.2044
▁እንድናነጋግር	-11.2044
ዳነ	-11.2045
ፀልዩ	-11.2046
▁አግኝተናል	-11.2047
▁ታግ	-11.2047
▁አንስተዋል	-11.2049
▁እውር	-11.2049
ጀብ	-11.205
ድረስ	-11.2051
▁ያዘጋጀ	-11.2053
▁ተሰጥቶታል	-11.2053
▁አስፈላጊነቱ	-11.2054
▁መንጋውን	-11.2055
ነፅ	-11.2056
...	-11.2057
▁የተፈፀመውን	-11.2057
ሰጡኝ	-11.2057
▁የታጠቁ	-11.2058
▁ዘመናችን	-11.2058
▁የሰራዊቱ	-11.206
ጋዝ	-11.2061
▁፲፱፻፷	-11.2063
▁ትእ	-11.2065
▁ቢደረግ	-11.2067
▁ያለነው	-11.2067
▁እንዲቀበሉ	-11.2068
ዖ	-11.2072
▁ፈፅመዋል	-11.2072
▁ፍቅሬ	-11.2072
▁የጥበቃ	-11.2072
▁የክፍያ	-11.2072
▁አምስተኛው	-11.2073
ጉዳት	-11.2074
▁ጠቅሰው	-11.2074
▁የምፈልገው	-11.2074
▁ለራስ	-11.2074
ተቋረጠ	-11.2075
▁ገደል	-11.2075
▁የማያቋርጥ	-11.2076
▁ጎማ	-11.208
መተ	-11.2081
ተቱ	-11.2081
ፈጠረ	-11.2083
▁ዘሩ	-11.2084
▁አስጊ	-11.2084
ከሰት	-11.2089
▁ዘብ	-11.2089
አለ	-11.209
▁በኢንዱስትሪ	-11.2091
▁በራ	-11.2092
▁ሰማእታት	-11.2093
▁ዙ	-11.2094
▁ከል	-11.2094
▁ቼ	-11.2095
▁የፅህፈት	-11.2095
▁ገብነት	-11.2096
▁ልባችሁ	-11.21
▁፲፱፻፸	-11.21
▁ምግባረ	-11.2101
፼፳፻፰	-11.2101
▁በጥቅምት	-11.2102
▁በመመሪያ	-11.2102
አካባቢ	-11.2103
ግና	-11.2103
▁ሄዋንን	-11.2104
▁አፍንጫ	-11.2104
ቀየረ	-11.2105
▁የአበባ	-11.2106
ያያዝ	-11.2106
መሰለው	-11.2112
▁አጠና	-11.2114
▁ለራሳችን	-11.2117
▁እንዲካሄድ	-11.212
ቀጡ	-11.212
ፍሎ	-11.212
▁መጠይቅ	-11.212
ፀለየ	-11.2122
▁ያሉበትን	-11.2122
▁በመኖር	-11.2124
▁የቡ	-11.2125
▁ሊያመጣ	-11.2126
▁እሙን	-11.2126
▁በዘርፉ	-11.2129
▁በማድረጋቸው	-11.2129
▁እስትንፋስ	-11.2129
▁ኬሚካሎች	-11.2129
▁የዋስትና	-11.2129
▁መገርሳ	-11.213
ደርጋቸው	-11.213
▁ወቅቱ	-11.2132
በረክት	-11.2132
ል።	-11.2133
▁ከወጡ	-11.2134
▁[[	-11.2136
▁ነውር	-11.2138
▁17	-11.2142
ልከው	-11.2142
መስለው	-11.2149
▁የሌለውን	-11.215
▁ተገድ	-11.2156
ወዳት	-11.2156
በረከተ	-11.2156
▁ፕሮግራሙ	-11.2157
▁ስሜታችንን	-11.2158
▁ለልጆቹ	-11.2158
▁አታውቅም	-11.2158
▁በማምጣት	-11.2158
▁ወዳጆቹ	-11.2159
▁በነገው	-11.2159
▁በጥናት	-11.2161
▁ያለዉ	-11.2162
▁የእስር	-11.2162
ጎበኝ	-11.2164
▁ሸሹ	-11.2167
ታሰቡ	-11.2167
▁ሁለተኛውን	-11.2167
▁ላል	-11.2168
▁የተመዘገቡት	-11.217
መቅ	-11.2171
▁ያእቆብም	-11.2174
▁ያስከተለ	-11.2177
▁እቅዱ	-11.2178
ሳሳት	-11.2183
ነታ	-11.2185
▁ተቀጣ	-11.2185
በደል	-11.2186
▁ቢያስ	-11.2187
▁ለአምልኮ	-11.2187
▁ፈን	-11.2187
መሰክሩ	-11.2189
ራቁ	-11.219
▁በህንድ	-11.219
▁በአመፅ	-11.2191
አስ	-11.2191
▁መዘ	-11.2191
▁የሚያስችለው	-11.2192
በግ	-11.2192
▁ሌሎቹን	-11.2193
▁ሺዎች	-11.2193
▁አትሌት	-11.2195
▁ያነሳሳ	-11.2195
▁የሚያቀርቡት	-11.2197
▁መብቱን	-11.2197
▁ኖህ	-11.2198
▁ባሳ	-11.2199
▁መርዝ	-11.2199
▁ከሄደ	-11.2202
▁ተግባሩን	-11.2203
፩	-11.2203
ከብረው	-11.2203
▁የማእረግ	-11.2206
ሄደው	-11.2208
ሎችን	-11.2211
▁ሰራተኞቹ	-11.2212
▁በመሆኗ	-11.2213
▁ከበፊቱ	-11.2215
▁ባዘዘው	-11.2215
▁ተሰጥቷቸዋል	-11.2216
▁በችግር	-11.2216
▁ተገድለዋል	-11.2216
▁ህገመንግስት	-11.2216
▁በተራራው	-11.2217
መዘን	-11.2218
ቫይ	-11.2219
▁ሰረገላ	-11.2219
▁ባህልና	-11.2221
▁ቱርክ	-11.2221
▁ሰሞን	-11.2222
ወቃቸው	-11.2223
▁መመላለስ	-11.2225
▁A	-11.2225
▁አእምሮህ	-11.2225
ተኙ	-11.2226
ዙት	-11.2227
▁መፍትሄው	-11.2229
▁በሚደረጉ	-11.223
ዝግመተ	-11.2234
ያደርገው	-11.2236
መሳሰሉ	-11.2237
▁ተቀበል	-11.2238
▁ወላ	-11.224
▁የኖሩት	-11.224
▁ሄደች	-11.2241
▁ህዝብን	-11.2242
▁እሰጥሀለሁ	-11.2244
▁የቪዲዮ	-11.2244
▁በትንቢት	-11.2244
▁አብዮት	-11.2244
▁መስኮት	-11.2245
ትሪክ	-11.2247
▁ከቤተሰብ	-11.2247
▁የእለቱ	-11.2247
ሚቀርበው	-11.225
ያጋጥመው	-11.2251
▁ስግብግብነት	-11.2252
▁እገሌ	-11.2254
▁የቱን	-11.2255
▁ለአራት	-11.2256
▁ይመጡ	-11.2256
ታዊው	-11.2257
▁ሊያሳድር	-11.2257
▁ደርሰው	-11.2258
▁አልፈዋል	-11.2262
ባቸዉ	-11.2263
▁የሚችሉትን	-11.2264
▁ስቴ	-11.2264
ሰባሰቡ	-11.2266
▁የመዳን	-11.2267
▁ተሰበሰቡ	-11.2269
▁በግብርና	-11.227
ከታተሉ	-11.227
▁ማዕ	-11.2272
▁በመር	-11.2273
▁በመጠበቂያ	-11.2273
▁ህዳሴ	-11.2273
▁በጉርምስና	-11.2273
▁ተስማምቶ	-11.2273
▁ተቋቁሟል	-11.2273
▁አድራጊዎች	-11.2274
▁፶፱	-11.2275
ዛን	-11.2276
▁ነበረኝ	-11.2278
▁ልብሳቸውን	-11.2279
▁ነፍሴን	-11.2282
ቶቻችንን	-11.2283
▁እያገኘ	-11.2283
▁በቅን	-11.2285
▁በአካ	-11.2285
▁የሚሰጠን	-11.2285
▁አምላክህን	-11.2287
▁ማንሳት	-11.2287
▁አቅኚነት	-11.2288
▁እያንዳንዳችሁ	-11.2288
ዩኒ	-11.2288
▁ሀሳቡ	-11.229
መነሳቱ	-11.2291
▁አይናችን	-11.2293
ዩስ	-11.2295
▁፷፯	-11.2296
▁አገባብ	-11.2297
▁አፌ	-11.2302
▁ለሚበልጡ	-11.2302
▁እናነባለን	-11.2302
▁ኧረ	-11.2302
▁ትውፊት	-11.2302
▁የተሰወረ	-11.2304
▁ማሞ	-11.2305
▁የአባቴ	-11.2305
▁ጠይቀው	-11.2305
▁የሚከሰቱ	-11.2308
ታች	-11.2308
ንደ	-11.2308
ሮጥ	-11.2309
ረፋ	-11.231
ለኛ	-11.2311
▁አሮጌ	-11.2311
ካሬ	-11.2312
፻፺፯	-11.2312
▁በእርሱም	-11.2312
▁ሀዲስ	-11.2317
▁በማሳደግ	-11.2318
ካሄ	-11.2319
▁በተደነገገው	-11.2319
▁ይዛችሁ	-11.232
▁ጋሪ	-11.2322
ነሱት	-11.2323
ነበር	-11.2325
▁ከተናገረ	-11.2326
ጋችሁ	-11.2327
ኪን	-11.2327
▁ባገኘ	-11.2329
▁የሚያስፈልገንን	-11.2331
▁በብራዚል	-11.2332
▁በክርስትና	-11.2332
ጿ	-11.2332
▁በወቅታዊ	-11.2332
▁አምጥቶ	-11.2332
▁በቅርበት	-11.2332
▁ሂደቱን	-11.2333
▁የመረጠው	-11.2333
▁ለይ	-11.2333
▁ትንሹ	-11.2333
▁መረጠ	-11.2335
▁በመጡ	-11.2336
▁ተድላ	-11.2337
▁ልጆቿን	-11.2338
▁በሀሳብ	-11.2338
▁አለቆቹ	-11.2339
ጎቹ	-11.2343
▁የዩኒቨርሲቲ	-11.2343
▁በቆሮንቶስ	-11.2346
▁ይሳ	-11.2346
▁የሚያስችላቸውን	-11.2346
▁የተወደደ	-11.2347
▁እንቢ	-11.2348
ይቱን	-11.2349
ሰፈረ	-11.235
▁የተሻለው	-11.235
ሸር	-11.2351
ላር	-11.2352
▁ስርአትን	-11.2354
ፍረድ	-11.2355
ፃድቁ	-11.2358
ፅዋ	-11.2358
ማቱ	-11.2358
▁ሞያ	-11.236
ራፊ	-11.2361
▁አስተምህሮ	-11.2361
▁ፌስቡክ	-11.2361
▁አታውቁም	-11.2361
▁በጥይት	-11.2362
▁መሆኗ	-11.2362
ማስፈራራት	-11.2362
▁ጠማማ	-11.2362
▁በርሳችን	-11.2365
▁ምስጢራዊ	-11.2366
ፈፀሙት	-11.2367
▁የወሰኑ	-11.2368
▁ሀማ	-11.2369
▁ጠበቅ	-11.2369
ዋርድ	-11.237
▁በማስረጃ	-11.237
▁በሽተኛ	-11.2371
▁ቆርጠው	-11.2372
▁በጎነት	-11.2374
▁አስገባ	-11.2375
▁ካለፈ	-11.2376
▁ይደርስ	-11.2377
ሪያው	-11.238
፻፪	-11.238
ዛወሩ	-11.2382
▁15	-11.2382
ክድ	-11.2382
▁ከክርስቲያን	-11.2382
ጣላ	-11.2383
ሳየው	-11.2384
▁በጎቹን	-11.2385
▁እማ	-11.2385
▁ተነገረ	-11.2386
▁የምናውቀው	-11.2388
▁ሰርቪስ	-11.239
▁ብጥብጥ	-11.239
▁ምክክር	-11.2391
▁አቅማችን	-11.2391
▁የሚያስደንቅ	-11.2392
ነቃቃ	-11.2394
▁ባቀረበው	-11.2395
30	-11.2399
▁ዳርቻዎች	-11.2399
▁የሰሩ	-11.2401
▁ለስሙ	-11.2401
▁ማቋረጥ	-11.2404
▁ሇመ	-11.2405
ታወቀ	-11.2405
▁ጴጥሮስን	-11.2405
▁የፈለገውን	-11.2406
▁እውነታው	-11.2406
▁ተይዘው	-11.2406
▁ሲያገለግሉ	-11.2408
ወጉ	-11.241
▁የሰፈሩት	-11.2412
▁ያእ	-11.2412
ነታችሁን	-11.2413
ምልአተ	-11.2415
መቁረጥ	-11.2416
ዘዙ	-11.2417
አጥቢያ	-11.2418
ድንግል	-11.2419
▁ምእራፎች	-11.2419
▁ፈጥኖ	-11.242
▁ማጣራት	-11.242
▁ይውላል	-11.242
▁አሞፅ	-11.2421
▁ታስረው	-11.2423
ጠናቀቀ	-11.2425
▁ክፍያዎች	-11.2426
▁በከ	-11.2428
▁የሆነበት	-11.2429
ደቀ	-11.2432
▁ማስረጃዎችን	-11.2434
ከተላቸው	-11.2435
▁የክርስቲያኖች	-11.2436
ሮክ	-11.2439
▁አማካይ	-11.2439
▁ህይወትህን	-11.2441
▁ተገኝ	-11.2446
▁የሚቀበል	-11.2447
ርቀው	-11.2448
▁በአፋጣኝ	-11.2449
▁አስከትሏል	-11.2449
▁እርግማን	-11.2449
▁የሚቃረን	-11.2449
▁አወድሱ	-11.2449
▁ሁለንተናዊ	-11.245
ንከባከብ	-11.2451
▁ከመፈፀም	-11.2452
▁ሀዋርያዊ	-11.2452
▁ተቀብለዋል	-11.2453
፻፶፬	-11.2455
ሻሻል	-11.2456
▁የለበሰ	-11.2456
▁በሄ	-11.2457
ዘመነ	-11.2459
▁ሲሆን፣	-11.2461
▁አይሁን	-11.2465
ልቀው	-11.2466
▁ሌት	-11.2467
▁ልባቸውን	-11.2467
▁ጸ	-11.2468
▁መደረጉ	-11.2468
▁ቆራጥ	-11.2468
▁ያገለግል	-11.2469
▁የታተመ	-11.247
▁ዮርዳኖስን	-11.2478
▁ከዮርዳኖስ	-11.2479
▁የግንዛቤ	-11.2479
▁የእፅዋት	-11.2479
▁እንዲከበር	-11.2479
▁የበረራ	-11.2479
▁ያጠፋል	-11.248
▁ባለቤትነት	-11.2481
ገዱ	-11.2482
▁የጌታን	-11.2484
▁የሚፈልገውን	-11.2485
▁ከአይ	-11.2485
ሚያስፈልጉበት	-11.2485
ቶችና	-11.2486
ሚው	-11.2486
ነግርህ	-11.2488
▁ይቀራሉ።	-11.2488
▁የላቀው	-11.2489
፲፱	-11.2491
ቆየት	-11.2491
ተናገሩ	-11.2492
▁በሩ	-11.2495
▁ከፊታቸው	-11.2499
ከባድ	-11.2499
▁ማነጋገር	-11.2499
▁ይጠብቅ	-11.25
▁በተሞላበት	-11.2501
▁የተቀበለ	-11.2502
▁ማሰ	-11.2504
▁በይ	-11.2505
▁ከውስጥ	-11.2505
▁በተሰኘው	-11.2507
▁ለተከታዮቹ	-11.2508
▁የእንጨት	-11.2508
▁ማበረታታት	-11.2508
▁በበኩሉ	-11.2508
▁ረአብ	-11.251
▁ግትር	-11.2511
ወዳድ	-11.2511
▁ግብዝነት	-11.2514
▁ለጥያቄ	-11.2515
▁ፒተር	-11.2515
▁አታስ	-11.2515
▁፳፻፲፭	-11.2515
▁አሜሪካውያን	-11.2515
▁የተካሄደ	-11.2518
▁እንድችል	-11.2519
ዛይ	-11.2521
ዛር	-11.2523
▁ያበረታታል	-11.2523
▁የሚሹ	-11.2523
▁በለስ	-11.2524
ጋሽ	-11.2525
▁ለማሳለፍ	-11.2526
▁ትተ	-11.2527
ረሳው	-11.2528
▁ለሙሉ	-11.253
▁ከዋና	-11.2531
▁የወሰደ	-11.2531
▁በቀጣዮቹ	-11.2532
▁በመንበረ	-11.2532
▁ከጥር	-11.2533
▁ማሰላሰላችን	-11.2538
▁በከነአን	-11.2538
▁ካቶሊኮች	-11.2538
▁ያሳድራል	-11.2538
▁የምስራች	-11.2538
▁አንቀፆች	-11.2538
▁እናያለን	-11.2539
▁ጥይት	-11.254
▁ፖለቲከኞች	-11.2542
▁አምሳ	-11.2543
▁አምላኩ	-11.2545
ሊየ	-11.2545
▁በጣ	-11.2547
▁እንዲገኙ	-11.2547
▁እንደራሴ	-11.2551
ነቴን	-11.2551
ከፈለው	-11.2551
▁የሚያረጋግጡ	-11.2553
▁የሚጠላ	-11.2554
▁ትር	-11.2555
ቀይ	-11.2558
ያሳልፉ	-11.2558
▁የመብት	-11.2561
ጥራት	-11.2561
ብሬ	-11.2563
ግባባ	-11.2563
ጋጭ	-11.2563
ሀዲ	-11.2565
ጄኔራል	-11.2565
▁ከተፈጠረ	-11.2566
▁አስገኝቷል	-11.2568
▁አቧራ	-11.2568
▁ፀያፍ	-11.2568
▁አጠባበቅ	-11.2569
▁ለበጎ	-11.257
ርሷ	-11.2572
▁ፓርላማ	-11.2572
▁ባለመሆኑ	-11.2572
▁ይበላ	-11.2574
▁ለንደን	-11.2575
▁አንባቢ	-11.2577
▁ፍፃሜው	-11.2578
▁በቀድሞ	-11.2578
ምሳሌ	-11.2582
ሬድ	-11.2583
ናወጥ	-11.2585
ለደ	-11.2585
▁፲፭፻	-11.259
ሻሻሉ	-11.259
▁ሊገባ	-11.2591
▁ምጥ	-11.2591
▁ፀንተው	-11.2592
▁ከሚያስ	-11.2592
▁አርቲስት	-11.2593
ስርአቱ	-11.2596
▁መነኩሴ	-11.2598
▁ብቸኝነት	-11.2598
▁የውይይት	-11.2598
▁ሞል	-11.2598
▁ጥሰት	-11.26
▁በተራራ	-11.2603
▁ተሰጥቶት	-11.2603
▁እማማ	-11.2603
▁አድማ	-11.2603
▁ለወንድ	-11.2603
▁እንዳገለግል	-11.2603
▁በግምት	-11.2605
▁መርጦ	-11.2605
▁ሰሩ	-11.2606
፻፷፰	-11.2606
▁ለስራው	-11.2608
▁የሆናቸው	-11.261
ዤ	-11.2612
▁("	-11.2612
▁ዘርፉ	-11.2612
▁የያ	-11.2613
ዋቂ	-11.2614
▁የእስልምና	-11.2616
▁ከቀረበ	-11.2617
ተስ	-11.2618
Ã	-11.2626
አህጉረ	-11.2626
▁በመመስረት	-11.2628
▁የቁጥጥር	-11.2628
▁እናገራለሁ	-11.2628
▁አላደረገም	-11.2628
▁ሊያደርገን	-11.2628
▁እናቷ	-11.2629
▁ጥበበኞች	-11.263
▁ኀዘን	-11.263
▁፲፬፼፵፻	-11.263
▁የተመረጠ	-11.263
▁አደረገች	-11.2634
▁ይህቺ	-11.2635
▁የሚወጡት	-11.2636
ባትን	-11.2637
▁ይሰጡ	-11.2638
ሽኑ	-11.2641
▁ፐ	-11.2642
ታቸዉ	-11.2643
▁በመተማመን	-11.2645
▁ይባስ	-11.2645
▁በእርስዋ	-11.2645
▁፹፮	-11.2646
▁ኢያሱም	-11.2649
▁በገጠር	-11.2651
በርግ	-11.2653
▁ካለበት	-11.2653
▁የቀረቡት	-11.2654
ርገው	-11.2655
▁የሚገዛ	-11.2655
▁አባላትን	-11.2656
ንከባከቡ	-11.2658
▁ለዘለቄታው	-11.2658
▁ፍሬያማ	-11.2658
▁ወገኖቻችን	-11.2658
▁በቁሳዊ	-11.2658
▁የበታች	-11.2659
ተረጋገጠ	-11.2661
ቦን	-11.2661
▁ከተናገረው	-11.2662
ያለ	-11.2664
ቀቃቸው	-11.2664
▁የተደረገበት	-11.2665
▁አቤሴሎም	-11.2665
▁ስራዎቹ	-11.2666
▁ከባቢ	-11.2668
ዝናና	-11.2668
▁ወንድማችን	-11.2668
▁ወስ	-11.2669
ንኳኳ	-11.2671
▁ይሁዳን	-11.2671
▁የተዛባ	-11.2673
▁በክርስቲያኖች	-11.2675
ብቱ	-11.2675
▁የተደረጉት	-11.2676
▁መልእክቶችን	-11.2679
ደገፉ	-11.2679
▁አሻራ	-11.2679
ታመሙ	-11.2685
▁ሀብትና	-11.2687
ቀነስ	-11.2687
▁ነፍስህ	-11.2687
▁አጣዳፊ	-11.2688
▁ሪቻርድ	-11.2688
▁ይመለሳሉ	-11.2688
▁እርግዝና	-11.2688
▁ተነሳሽነት	-11.2688
ታገስ	-11.2688
▁ለመምሰል	-11.2688
ሶማሊያ	-11.2688
▁አይካድም	-11.2691
▁፲፱፻፹፱	-11.2692
ቲስ	-11.2692
▁ከሱ	-11.2694
▁ህመምተኞች	-11.2694
▁ትላላችሁ	-11.2694
ጉን	-11.2695
▁በእርስ	-11.2697
ፖሊ	-11.2697
ታወቀው	-11.2698
ግሎ	-11.2702
▁ፀሀፍት	-11.2703
▁የተረጋጋ	-11.2703
ጓል	-11.2705
ወዛ	-11.2705
▁አዘጋጁ	-11.2706
ደከመ	-11.2711
▁እንደገባ	-11.2711
▁ጎዳናዎች	-11.2713
12	-11.2714
▁እቴጌ	-11.2715
▁ይመለከቱ	-11.2715
▁የሚጠበቀው	-11.2715
▁ራት	-11.2716
▁የሚፈጠር	-11.2718
▁የሚሰሙ	-11.2718
▁ለአምስት	-11.2719
▁ባንኮች	-11.2719
ያስፈልጉ	-11.2719
▁አበይት	-11.2719
▁የፅዮን	-11.2721
▁ደርሶባቸዋል	-11.2722
▁ወንጌላዊ	-11.2722
▁የአረብ	-11.2725
▁ገፁ	-11.2726
▁ለባለ	-11.2728
ቦቻቸው	-11.2728
መሰርት	-11.2728
▁ውሀዎች	-11.2729
▁የፊት	-11.273
▁ይባርክ	-11.2731
▁ሀሊና	-11.2734
▁ከክ	-11.2737
▁እንደተፈፀመ	-11.2737
▁የዳዊትን	-11.2738
ቀርበው	-11.2738
ጠመዱ	-11.2738
▁ቀንዶች	-11.2739
▁የቢቢሲ	-11.2741
▁መግለፁ	-11.2741
▁ከፊል	-11.2741
▁ከከተማ	-11.2742
▁የሚያወጣ	-11.2743
እመ	-11.2745
«	-11.2745
ቼን	-11.2746
▁አስፈ	-11.2748
▁ከሴት	-11.2749
▁ሮብአም	-11.2749
▁የትብብር	-11.2749
▁የጥፋተኝነት	-11.2749
▁አታድርጉ	-11.2749
▁በመስበክ	-11.2749
ሚኒስትሩ	-11.275
ቸዉን	-11.275
ታገለ	-11.2751
▁የተቀቡ	-11.2754
▁ዳታ	-11.2756
▁አንዳችሁ	-11.2758
▁እንደሚያስፈልጋቸው	-11.2758
ሁን	-11.2761
▁የአፈፃፀም	-11.2763
▁ተቋ	-11.2763
▁ስንኳ	-11.2763
▁ክሮ	-11.2766
▁አያሌው	-11.2767
▁ከሀይማኖት	-11.2767
▁በመቃብር	-11.2769
ወስደ	-11.277
ካተት	-11.2772
▁የጠራ	-11.2772
▁ያስብ	-11.2772
▁እንዲነሳ	-11.2774
በቀለ	-11.2774
፫	-11.2774
▁የመር	-11.2774
ረከበ	-11.2775
ሻገሩ	-11.2775
▁ማደ	-11.2775
▁ከራሳቸው	-11.2775
ሰሉ	-11.2777
▁የሚቀርቡት	-11.2779
▁በስህተት	-11.2779
▁በደቡባዊ	-11.2779
▁ተሰብሳቢዎች	-11.2779
ሮቼ	-11.278
▁ጉዲዮች	-11.278
▁ተነግሮ	-11.278
▁ጠንከር	-11.278
▁አደረጋቸው	-11.278
▁አሻም	-11.2781
▁በእቅድ	-11.2781
▁በጉዞ	-11.2781
▁እድሳት	-11.2781
ሚከተሉት	-11.2782
▁ያጡ	-11.2784
▁ቤዛው	-11.2784
▁በተናገረ	-11.2784
▁እንስራ	-11.2784
▁ሶርያ	-11.2785
▁እየተከናወነ	-11.2786
▁አስፈላጊው	-11.2786
▁የነበረበት	-11.2786
13	-11.2786
ጣሩ	-11.2791
በእ	-11.2791
▁ለቀው	-11.2791
▁አባቶቻቸው	-11.2792
▁አይኖቹ	-11.2793
▁እንድሆን	-11.2794
ቆቹ	-11.2797
▁የከበሩ	-11.2798
▁ባዮች	-11.2798
መሰል	-11.2798
▁ሲረጋገጥ	-11.2799
▁እንዲወስድ	-11.2801
▁የሂ	-11.2802
▁ለፍትህ	-11.2804
▁ማጠ	-11.2805
ጥስ	-11.2808
▁ምህረትን	-11.2808
ቀሱ	-11.2809
ዟል	-11.2809
▁የፀጋ	-11.281
▁አስተላልፈዋል	-11.281
▁አደርገዋለሁ	-11.281
▁ፈፅሟል	-11.281
▁አስከትሎ	-11.281
▁ብሎት	-11.2811
▁ለጥፋት	-11.2811
▁መልበስ	-11.2812
▁ተገል	-11.2812
▁ወራሽ	-11.2813
▁ቢሰማ	-11.2815
▁ለመከታተል	-11.2816
▁ሰሙ	-11.2817
▁ትላለህ	-11.2817
▁ወጥቷል	-11.2818
▁መጪው	-11.2818
ጉር	-11.2819
ሽር	-11.2819
▁ጳ	-11.282
▁የተሰማ	-11.2821
▁ከቤቱ	-11.2821
▁የተቀበለው	-11.2822
▁በልብህ	-11.2823
ክበት	-11.2827
▁ማህበረ	-11.283
▁ቦርሳ	-11.2831
▁ደፍ	-11.2831
▁ከኮ	-11.2832
ሰወር	-11.2834
▁ይዞት	-11.2836
▁ነገረኝ	-11.2836
▁ትራ	-11.2838
ቲያ	-11.2838
ቀበላቸው	-11.2838
ንፍታሌም	-11.2841
▁ቃጠሎ	-11.2841
▁እንዲያነጋግርዎት	-11.2841
▁ከስብሰባ	-11.2841
ራብ	-11.2841
መቻች	-11.2841
▁ተዉ	-11.2841
▁ተወለዱ	-11.2843
ባው	-11.2843
ራሹ	-11.2844
▁በፍ	-11.2844
ቤተሰባችሁ	-11.2844
▁ተዋናይ	-11.2846
▁ስፔን	-11.2847
▁ታላቅነት	-11.2849
▁የመፅሀፉ	-11.2849
ደነቅ	-11.285
ጥምቀ	-11.2852
ቀየሩ	-11.2852
▁ከአስ	-11.2853
፻፶፪	-11.2855
▁ስጦታው	-11.2856
▁የሚጠብቁ	-11.2856
▁ያውም	-11.2858
▁ቢቀር	-11.2858
▁እንደነበሩት	-11.2859
▁አብራችሁ	-11.2861
▁ጥም	-11.2861
▁ኒውስ	-11.2861
▁፲፼	-11.2862
ወንጀል	-11.2863
ከልባቸው	-11.2863
ባለሁ	-11.2866
መስቀል	-11.2867
▁እስካል	-11.2868
▁ሽማግሌዎቹ	-11.287
▁የእመቤታችን	-11.2871
▁እንዲያስተምርዎ	-11.2871
▁የሚጠቀሙ	-11.2872
▁ቀርበዋል	-11.2872
▁እጃቸው	-11.2872
▁የጥንቱ	-11.2874
▁ቃሎች	-11.2875
ንሰጥዎ	-11.2875
ፋር	-11.2881
የቱ	-11.2882
▁በፈተና	-11.2883
ካሄደ	-11.2883
▁ተገለጠ	-11.2884
▁የምናሴ	-11.289
▁ንግግሩ	-11.2891
መረመሩ	-11.2892
፻፸፩	-11.2894
▁በጎቹ	-11.2899
▁ለስድስት	-11.2902
▁የማሀበራዊ	-11.2902
▁ጠበቆች	-11.2903
▁ኀይል	-11.2903
▁ይጠበቅባቸዋል	-11.2903
▁በዘይት	-11.2903
▁ለማስቆም	-11.2905
መሰገን	-11.2906
▁ጀነራል	-11.2906
▁ደንበኞች	-11.2909
▁መልሶቻቸው	-11.2911
▁የራሳችንን	-11.2911
▁የሚያንፀባርቅ	-11.2913
▁ዘንድሮ	-11.2918
ዩኒቨርሲቲ	-11.2918
▁ችሎታው	-11.2922
ቃጥ	-11.2922
▁ግዛ	-11.2924
▁ቅጅ	-11.2925
▁አርኪ	-11.2932
ዩም	-11.2932
▁የሚመጡት	-11.2933
▁የካናዳ	-11.2934
▁ትጥቅ	-11.2935
ቃቤ	-11.2935
▁እንደምችል	-11.2936
ይስ	-11.2937
▁የህንድ	-11.2937
ለያዩ	-11.2938
▁ሰዎቹን	-11.2938
▁የዚያኑ	-11.2938
▁በየአ	-11.294
ባችሁን	-11.2941
▁ከሀዲዎች	-11.2941
▁የሰይጣንን	-11.2941
ራቸዋል	-11.2942
▁እንደሆንን	-11.2943
▁በደረሰበት	-11.2943
▁እርሷም	-11.2945
ዘገይ	-11.2946
▁የምንሰጠው	-11.2946
▁ሊወስድ	-11.2951
ፅናኑ	-11.2953
ነግሯቸው	-11.2953
▁በኢየሩሳሌምም	-11.2954
▁እንደሚፈልጉ	-11.2954
▁ሸሸ	-11.2955
▁የሚፈልጉትን	-11.2955
ውድድር	-11.2957
▁አእምሯችን	-11.2957
▁ክብሩን	-11.2958
▁ግንባታው	-11.2959
▁፻፲	-11.2959
▁ሆንሁ	-11.2962
▁የሚያከናውነው	-11.2963
▁እቅዴ	-11.2964
▁ለማምለጥ	-11.2964
▁፸፬	-11.2965
ፈለጋችሁ	-11.2965
▁የሱዳን	-11.2965
▁የምናቀርበው	-11.2966
▁ሆንክ	-11.2969
ዜር	-11.297
▁በማክበር	-11.2971
▁የነፃ	-11.2972
፻፸፰	-11.2973
ዦ	-11.2973
▁ተሳስ	-11.2974
▁ፈተናዎችን	-11.2976
▁የሚከተሉ	-11.2977
ፕሪ	-11.2979
ቲቭ	-11.2984
▁የሚያገለግሉት	-11.2985
ብተው	-11.2987
▁ገለባ	-11.2991
▁ሳምሶን	-11.2993
መንገዴ	-11.2993
▁ስልጣኖች	-11.2995
▁በሀዋርያት	-11.2996
▁የአንበጣ	-11.2996
▁ይስማማል	-11.2996
▁ማደግ	-11.2997
▁የሰለጠነ	-11.2997
▁የተቀረፀ	-11.2998
፻፺፱	-11.3
▁ማንፀባረቅ	-11.3001
▁የሰማዩ	-11.3002
▁ዘይ	-11.3002
▁እንደተጠበቁ	-11.3003
መላው	-11.3004
▁ጠሚር	-11.3006
ስቲክ	-11.3008
ያለቅሱ	-11.3008
▁የጥርስ	-11.3008
ቅላ	-11.3008
▁ከሰማ	-11.3009
▁፶፻	-11.3009
▁ገዝ	-11.3011
▁አካሄዱን	-11.3012
▁መመዘኛ	-11.3013
▁አምስተኛ	-11.3015
▁መጥታ	-11.3016
ኮረ	-11.3017
▁ጠበ	-11.3017
▁አመተ	-11.3019
▁የሚፈጥር	-11.302
▁ሲስተም	-11.3021
ዘገየ	-11.3021
▁የሄደ	-11.3022
▁የመጨረሻውን	-11.3022
፻፭	-11.3023
▁ሊመስል	-11.3023
ቆረ	-11.3025
▁ሲሳይ	-11.3025
▁ምንድነው	-11.3026
▁ቸነፈር	-11.3027
▁ፕሮፓጋንዳ	-11.3027
▁የኖቤል	-11.3027
▁ክፍፍል	-11.3027
▁ሁሴን	-11.3027
▁አንባቢያን	-11.3028
▁አድልዎ	-11.3028
▁በሰማያዊ	-11.3028
በልጥ	-11.3028
▁ይወድ	-11.3028
አባታችን	-11.3028
▁የአገራችን	-11.3029
▁አስማ	-11.3033
አንጀት	-11.3033
▁በሚያደርገው	-11.3033
▁ስለሚችሉ	-11.3034
ገጥመው	-11.3034
▁ታዛቢዎች	-11.3034
▁ስርወ	-11.3035
▁ክብረት	-11.3035
▁ተጠር	-11.3036
▁ጥቅልል	-11.3036
▁ስላልተ	-11.3036
▁እንድታገኝ	-11.3036
ለቅስ	-11.3037
▁የተወሰነው	-11.3037
▁ከደረሰ	-11.3037
ቫን	-11.3037
▁ከፖለቲካ	-11.3038
▁የባንኩ	-11.3042
ኛቸው	-11.3042
▁ውሀውን	-11.3043
▁ለወደፊቱ	-11.3043
▁በፀሀይ	-11.3045
▁አንስተው	-11.3046
ቅዱስ	-11.3049
▁ልቅ	-11.3051
▁ህዋስ	-11.3052
▁የተሾሙ	-11.3052
▁ፐር	-11.3053
▁በዝ	-11.3054
▁የምድሪቱ	-11.3055
▁የመዝሙር	-11.3057
▁የሚሰማህ	-11.3058
▁ለመቅረፍ	-11.3058
▁ይመልስ	-11.3058
▁ኦነግ	-11.306
ከዳ	-11.306
ሰብሳቢ	-11.3062
ከላከሉ	-11.3062
▁እንደፃፈው	-11.3062
▁ከአቅም	-11.3062
▁ቀጥታ	-11.3064
ተወሰደ	-11.3064
ሞኝ	-11.3065
▁የጠየቀው	-11.3065
፻፷፩	-11.3065
▁ቤቱም	-11.3067
▁ቢቢሲ	-11.3067
ባስ	-11.3068
▁መገናኘት	-11.3069
▁የቴ	-11.307
▁የተፃፈውን	-11.307
▁ጭቅጭቅ	-11.3073
▁ከፊታች	-11.3074
▁መጥራት	-11.3075
ጠናከር	-11.3077
ጣይ	-11.3079
ረጅ	-11.308
▁አስከባሪ	-11.3083
ተቃረበ	-11.3084
▁ተመስ	-11.3085
፻፵፭	-11.3085
▁ምንነት	-11.3088
▁ከእን	-11.3089
▁ያስተላልፋል	-11.3089
▁የመዝናኛ	-11.309
ገደደ	-11.309
▁ከእርሷ	-11.309
▁አድርጐ	-11.309
▁ማስረዳት	-11.3091
▁ሞአብ	-11.3092
ኮሚቴ	-11.3093
▁ልናደርግ	-11.3093
▁እንደሚሰማ	-11.3093
ፍቃ	-11.3093
▁ትእዛዙን	-11.3095
ተባብ	-11.3096
▁የተፈፀሙ	-11.3097
▁የጭነት	-11.3098
▁ከባለ	-11.3103
▁እውነታውን	-11.3103
▁ከገንዘብ	-11.3109
▁መካነ	-11.3109
▁አማልክትን	-11.311
ነክ	-11.311
▁እናንት	-11.311
▁ቅል	-11.3111
ዘንብ	-11.3112
▁መፈፀሙን	-11.3113
ኛለሁ	-11.3113
ቀፉ	-11.3116
ምቦ	-11.3116
ቨን	-11.3116
ግጦሽ	-11.3116
▁ሰርተፊኬት	-11.3117
፻፵፩	-11.3118
▁ተቀብለ	-11.3119
▁ልጃገረድ	-11.3121
▁ብስክሌት	-11.3121
▁ችግረኛ	-11.3121
▁አብራርተዋል	-11.3121
▁የተንፀባረቀበት	-11.3121
▁ምፅዋት	-11.3121
መሰገኑ	-11.3121
▁ታላንት	-11.3121
ፊል	-11.3122
▁ጠፍቷል	-11.3122
▁ለተወሰኑ	-11.3123
▁እግሩን	-11.3124
▁እንደሚፈፀም	-11.3124
▁ፓስተር	-11.3125
ዶቻቸው	-11.3125
ገዥ	-11.3125
▁የቀረበለትን	-11.3125
▁ከጉባኤ	-11.3129
ሸል	-11.313
▁አፋ	-11.3131
▁በአራቱ	-11.3131
▁አደን	-11.3132
▁መብቱ	-11.3132
▁ኮሚ	-11.3133
▁፷፱	-11.3133
▁ተደራሽ	-11.3136
▁ስትሄድ	-11.3138
▁የእውነትን	-11.3138
ኛላችሁ	-11.3141
▁በማዋል	-11.3142
▁በዶር	-11.3143
▁ትጉ	-11.3144
ሸፈነ	-11.3145
▁ታድያ	-11.3147
▁በውል	-11.3147
▁ማርያምን	-11.3148
▁እንዲቋቋም	-11.3148
▁ልጄን	-11.3149
▁የቀረውን	-11.3149
▁አቅርበው	-11.3151
▁በአሳ	-11.3151
▁አቋርጠው	-11.3151
▁ለማዳመጥ	-11.3153
▁ረድቷቸዋል	-11.3153
▁ማእቀፍ	-11.3153
▁ይስማማሉ	-11.3153
▁ትንቢቱ	-11.3153
▁ትእዛዛቱን	-11.3153
▁በኮሪያ	-11.3156
▁ይታወቃል።	-11.3156
▁ፀሎቱ	-11.3156
ወያ	-11.3156
▁ነገስቱ	-11.3157
▁ዝግጅቱ	-11.3157
▁የሚኖራቸው	-11.3157
▁መርዶክዮስ	-11.3158
▁የተደገፈ	-11.3159
▁ለማነጋገር	-11.3162
ክታ	-11.3162
▁የሚቃወሙ	-11.3163
▁ምሰሶ	-11.3164
▁12	-11.3165
▁አድራጊነት	-11.3168
▁ሱባኤ	-11.3169
▁ገደለው	-11.3172
▁የሚደርሰውን	-11.3173
▁በትክክለኛው	-11.3174
ጎዱ	-11.3174
▁ሞተር	-11.3175
▁ይዋ	-11.3175
በአል	-11.3176
▁፺፰	-11.3177
▁የዘመን	-11.3178
▁ሁል	-11.3179
ጠግብ	-11.3181
▁ቀድመው	-11.3181
▁በአምላካችን	-11.3183
▁እጢ	-11.3184
▁የሚጠሩት	-11.3184
▁መተላለፊያ	-11.3184
▁ክፍተቶች	-11.3184
▁በፈርኦን	-11.3184
▁መኪኖች	-11.3184
▁ስርቆት	-11.3185
ጉሮሮ	-11.3185
▁የማይሆን	-11.3185
▁ይኹን	-11.3185
▁የረጅም	-11.3186
፻፬	-11.3186
▁መምጣቱን	-11.3189
▁ለሚቆጠሩ	-11.3189
▁አህዛብን	-11.319
▁ይሄው	-11.3191
▁ካልሆኑ	-11.3191
▁የተሳሳቱ	-11.3191
አችሁ	-11.3191
▁በሩቅ	-11.3192
ፀድቅ	-11.3192
ተሀል	-11.3193
▁ከምታ	-11.3195
▁አደሩ	-11.3195
ኮት	-11.3196
▁ከተሰጠው	-11.3197
ያስፈልገን	-11.3197
▁በግሪክኛ	-11.32
▁የምእራብ	-11.3201
▁አቤት	-11.3203
ፕል	-11.3206
አቱ	-11.3207
ወደመ	-11.3207
▁አውቀ	-11.3211
ሸፈን	-11.3211
መሩት	-11.3212
▁ጠየቁት	-11.3213
▁የሚዲያ	-11.3213
▁የጥንቷ	-11.3216
▁ይከበራል	-11.3216
▁ቢሊየን	-11.3216
▁የሚያደርገን	-11.3216
▁ማምለጥ	-11.3217
▁ጎድ	-11.3217
ማረከ	-11.3218
▁ከአዳም	-11.3218
▁እምነቱ	-11.3218
▁ጠንቅ	-11.3219
▁ያነሳሳናል	-11.3219
▁መጋዘን	-11.3221
▁የምንፈልገው	-11.3222
▁በአፄ	-11.3222
▁የተለ	-11.3225
▁አውሮፕላኖች	-11.3226
▁ከጠቅላይ	-11.3226
▁ያድር	-11.3227
ትንም	-11.3227
▁ርቃ	-11.3228
ጭን	-11.3229
▁የተወለዱ	-11.3231
▁ለብቻ	-11.3233
▁በሚገኝበት	-11.3236
▁ሻይ	-11.3236
▁ማሰቡ	-11.3241
▁ተቀበረ	-11.3242
▁መመዝገብ	-11.3242
▁የጎሳ	-11.3244
▁ማሽን	-11.3244
▁ስሄድ	-11.3245
▁በመማር	-11.3246
▁ከምስራቅ	-11.3246
▁አገሌግልት	-11.3247
የእ	-11.3247
ኟ	-11.3248
▁በሚከተለው	-11.3248
▁ኢንፌክሽን	-11.3248
አትላንቲክ	-11.3248
▁ተወስዶ	-11.3248
አውሮጳ	-11.3248
▁የጥቃት	-11.3249
▁የማንበብ	-11.3249
ጀርመንኛ	-11.3252
▁ልናገኝ	-11.3256
▁እኩለ	-11.3257
ታያቸው	-11.3257
▁ያገለገለ	-11.326
▁ትህትናን	-11.3262
▁ሳስብ	-11.3263
▁ፀሎተ	-11.3264
▁የደረጃ	-11.3265
▁ኩሬ	-11.3265
▁ሰነ	-11.3265
▁ዙፋኑ	-11.3266
▁አፍሪቃ	-11.3268
ጠብቃቸው	-11.3268
▁ካቀረበ	-11.3269
ገዳቸው	-11.3269
▁እንዲሰማቸው	-11.3271
▁የምድርን	-11.3271
▁የሚፈሩ	-11.3272
▁ተለወጠ	-11.3273
▁የኒ	-11.3276
▁ቢሞት	-11.3277
▁አብረውኝ	-11.3278
▁ኤላ	-11.3279
ታረቅ	-11.3279
▁ሴዴቅያስ	-11.328
▁ተለዋጭ	-11.328
▁ተመዝግበው	-11.328
▁ለመፅናት	-11.328
▁መውለድ	-11.328
▁ዴኤታ	-11.328
▁አይፈልግም	-11.3281
▁እየተባባሰ	-11.3281
ሚያስከትላቸው	-11.3281
ኡር	-11.3282
ታቱ	-11.3283
ተቃጠለ	-11.3284
፻፹፪	-11.3284
ልዎት	-11.3285
▁ብሪ	-11.3285
▁ባሌ	-11.3286
ኮፕ	-11.3286
▁ብቻቸውን	-11.3286
▁ታማኙ	-11.3287
ፉበት	-11.3288
ምልክት	-11.3288
▁ቢራ	-11.3289
▁ምድጃ	-11.329
▁ኀጢአት	-11.3291
▁ከመከራ	-11.3291
ከራቸው	-11.3291
▁ስንሄድ	-11.3294
ቺው	-11.3297
ጋቱ	-11.3298
ሾመ	-11.3302
▁የሚደረግበት	-11.3303
ቃር	-11.3303
ሶር	-11.3304
▁ዓለም	-11.331
ያኖስ	-11.3311
ታጠብ	-11.3311
▁ጎረቤት	-11.3312
▁†††	-11.3312
▁መመስከር	-11.3312
▁ይከተላሉ	-11.3312
ጠነቀቅ	-11.3312
▁ዘፋኝ	-11.3313
▁ዲያብሎስን	-11.3313
▁አስተሳሰቦች	-11.3314
▁ለመገንዘብ	-11.3314
▁ለመንግስቱ	-11.3314
▁ጳውሎስን	-11.3315
▁ከሴቶች	-11.3315
▁እንዲሰማ	-11.3315
▁የተባሉትን	-11.3317
▁ከኦ	-11.332
ሰባዊ	-11.332
ፀሀፊ	-11.332
▁የይ	-11.332
▁አይታይም	-11.3321
▁የሚጠሩ	-11.3321
▁ያደጉ	-11.3322
ዝብ	-11.3323
▁የሚይዝ	-11.3327
▁መወለድ	-11.3329
ጀለ	-11.333
▁ትሪ	-11.3331
ሆናችሁ	-11.3333
▁የተቀመጠው	-11.3335
▁የስላሴ	-11.3335
▁በስጦታ	-11.3335
▁ቤቶችና	-11.3335
ከራዩ	-11.3336
▁ቁመት	-11.3336
▁ተገዙ	-11.3336
▁ወርቁ	-11.3336
▁ጥያቄውን	-11.3339
ሌሎቹ	-11.334
▁አገልግሎቶችን	-11.3343
▁ቆሙ	-11.3345
▁አትችሉም	-11.3345
▁ይታወቃሉ	-11.3345
▁አያስፈልግም	-11.3345
▁በኖሀ	-11.3345
▁ፍራንክ	-11.3346
▁ሁለታችን	-11.3346
ቡል	-11.3346
▁እንድናገለግል	-11.3346
▁እንደሆንክ	-11.3353
▁ያያሉ	-11.3353
ሰሰ	-11.3354
▁ባህ	-11.3355
▁ከአፍሪካ	-11.3355
▁የለበሱ	-11.3356
▁ያቀርብ	-11.3358
▁ለማስቀረት	-11.3359
ቤዛው	-11.3359
▁በመስከረም	-11.3359
ርተው	-11.3359
▁የአብነት	-11.336
▁የተነሱት	-11.3362
▁የሚወስደው	-11.3362
▁ደቂቃዎች	-11.3363
▁አክራሪ	-11.3364
፻፷፬	-11.3366
▁ችሎታችንን	-11.337
▁ሄድን	-11.3371
▁ተዘር	-11.3372
▁ኤጲስ	-11.3373
▁የሚፈልጉት	-11.3374
መታቸው	-11.3374
▁መሳተፍ	-11.3376
▁አድርጉት	-11.3377
▁ሳይንቲስት	-11.3377
▁አቋርጦ	-11.3377
▁ኤፍቢሲ	-11.3377
▁እንገነዘባለን	-11.3377
▁የነርቭ	-11.3377
▁መፅሀፈ	-11.3377
▁የሙቀት	-11.3377
▁በጠቅላላው	-11.3377
▁ግኝት	-11.3377
▁ይለያል	-11.3378
▁ባህርያቱ	-11.3378
▁ጋዜጦች	-11.3379
▁ቤቶቹ	-11.3379
ግራፊ	-11.338
▁በማጥፋት	-11.3381
▁አሻፈረኝ	-11.3381
፻፸፬	-11.3381
▁የምናደርገውን	-11.3383
▁የሚያልፍ	-11.3383
▁ጎልቶ	-11.3383
ቶር	-11.3385
▁ተላላፊ	-11.3388
▁ልጃገረዶች	-11.339
▁ድንኳኑን	-11.339
▁ጦ	-11.3391
ታገዱ	-11.3391
▁የሰጠን	-11.3391
▁ዛቻ	-11.3392
▁ሁላችሁ	-11.3392
▁በመመለስ	-11.3393
▁የተመለከቱ	-11.3395
▁ተጠቀም	-11.3395
▁እንዲሰጠን	-11.3398
ደማቸው	-11.3399
▁በዮሀንስ	-11.34
▁ይግባ	-11.3401
▁ያበቃ	-11.3403
ብኝም	-11.3404
▁አፅም	-11.3407
▁የሚያሰ	-11.3409
ጲ	-11.3409
▁ሄክታር	-11.3409
▁አእምሯቸው	-11.3409
▁አዘጋጆች	-11.3409
▁ገልፃለች	-11.3409
▁ለነገ	-11.341
▁ከአላህ	-11.341
▁በማስወገድ	-11.3411
▁ሊፈጠር	-11.3411
ለወ	-11.3412
▁እለተ	-11.3415
ሳካላቸው	-11.3416
▁ብሄረሰቦች	-11.3417
ከላ	-11.3418
▁ንስር	-11.342
▁ክርስቲያኒቱን	-11.3422
ያወድሱ	-11.3423
ዎቻችንን	-11.3424
ጎደ	-11.3426
▁አሰሪ	-11.3426
▁የተሰማራ	-11.3428
▁መሸሽ	-11.3428
▁ለአገር	-11.3429
ልፎ	-11.3429
ጁን	-11.343
▁ክርስቲያኖችም	-11.3431
፻፺፮	-11.3432
▁በመጓዝ	-11.3436
▁የፃፉት	-11.3436
ሜዳ	-11.3438
ግሊ	-11.344
▁ይታዩ	-11.344
▁ካሌብ	-11.3442
ፊያሜታ	-11.3442
▁በህጋዊ	-11.3442
▁በመሰብሰብ	-11.3442
▁አሳስቧቸዋል	-11.3442
▁ጎሳዎች	-11.3444
ግሌ	-11.3444
▁ታወቀ	-11.3445
▁_	-11.3451
▁ቀላ	-11.3452
▁አብሯቸው	-11.3453
ያስተምራቸው	-11.3453
▁ሀገሬ	-11.3453
▁ቢመጣ	-11.3454
ፅዮን	-11.3455
▁ቋ	-11.3455
▁በበአሉ	-11.3455
▁ቀመር	-11.3455
ሸዋ	-11.3457
▁የተከ	-11.3459
ቆርጡ	-11.3459
▁ተተኪ	-11.346
ካችሁ	-11.3462
ይህ	-11.3462
ቻላችሁ	-11.3465
▁ስለሚሆን	-11.3467
▁መተላለፍ	-11.3469
▁የሚፈፅሙት	-11.347
ቀብ	-11.3472
▁መርሀግብር	-11.3475
▁ጠቢቡ	-11.3475
▁ያመላክታል	-11.3475
▁እግሮች	-11.3475
▁ይመስላሉ	-11.3475
▁ስምምነቱ	-11.3475
ገንዘቡ	-11.3476
▁የሰነድ	-11.3476
ፀሎታቸው	-11.3477
▁ማእከሉ	-11.3477
ላላችሁ	-11.3477
▁ዛፉ	-11.3477
▁ምእመን	-11.3478
▁ያስቡ	-11.3478
▁ላደረገ	-11.3479
▁አድርገ	-11.3479
▁ነፋሱ	-11.348
▁እንዲያዳብሩ	-11.348
▁የሚቆይ	-11.348
▁ሀገሩ	-11.3481
አጠቃላይ	-11.3482
▁ዘውድ	-11.3483
ዋሌ	-11.3489
▁መለሱ	-11.3489
▁እያልክ	-11.3492
ሰራጩ	-11.3494
ቀረበው	-11.3495
▁እርሻው	-11.3495
▁ጠያቂ	-11.3496
▁የሚታወቁ	-11.3497
ቅዱ	-11.3497
▁ማተሚያ	-11.3497
▁በከተሞች	-11.35
▁የተከፈለ	-11.3502
▁ዘርአ	-11.3502
፻፷፱	-11.3502
ጩት	-11.3503
▁በመሰረቱ	-11.3504
ላቸዉ	-11.3507
▁ጠን	-11.3507
▁በምስጢር	-11.3508
▁አንገብጋቢ	-11.3508
▁ቀበቶ	-11.3508
▁አድርጎኛል	-11.3508
▁ቄሳር	-11.3508
▁በሀምሌ	-11.3508
ሰለጠነ	-11.3509
▁ለንግድ	-11.351
▁ይቆማል	-11.351
▁የሚመዝን	-11.351
▁ቀርተዋል	-11.351
▁ኡር	-11.3511
▁የአል	-11.3512
▁የሰበካ	-11.3513
▁የተጠረጠሩ	-11.3513
▁ሳይጨምር	-11.3514
▁፸፯	-11.3515
▁ኪዳኑን	-11.3515
ባራ	-11.3515
ከፈላቸው	-11.3518
▁ጥናትና	-11.3518
▁በመሸ	-11.352
▁አሸን	-11.352
▁ከትውልድ	-11.352
ዳለች	-11.3521
▁የሚሰራበት	-11.3521
▁ይመለስ	-11.3532
▁ዘምሩ	-11.3533
▁ቪዲዮውን	-11.3534
▁እኔንም	-11.3535
▁ለየ	-11.3538
▁የነፍስ	-11.354
▁አራዳ	-11.354
ሰበሰበ	-11.354
▁አስጠንቅቋል	-11.354
▁ይመረምራል	-11.354
▁በይበልጥ	-11.3541
▁አግኝቼ	-11.3541
▁ተሰጥቷቸው	-11.3541
▁አበኔር	-11.3541
ደፈር	-11.3541
▁ለማስፈን	-11.3543
▁ታምራት	-11.3543
▁ምልክቶችን	-11.3543
ታሪክ	-11.3544
▁ተቀመጥ	-11.3545
▁መጨነቅ	-11.3546
▁በሚኖሩበት	-11.3547
▁ፈቀደ	-11.3547
እጥፍ	-11.355
Á	-11.355
▁ከሚስቱ	-11.3552
▁የተሳ	-11.3553
▁እፆች	-11.3554
ቀጠሉ	-11.3557
▁የተጠመቁ	-11.3558
▁አከባቢ	-11.3558
▁ታዛዥነት	-11.3558
ኬሽን	-11.356
▁የሚያሳድረው	-11.356
▁ሙያዊ	-11.3563
▁ያያል	-11.3563
▁እንዲመጡ	-11.3565
ሽንም	-11.3565
▁እየሆኑ	-11.3567
ጉስ	-11.3568
▁እንዳይገባ	-11.357
▁የመወሰን	-11.3571
▁ነገሩት	-11.3572
▁የበረሀ	-11.3573
▁ድምዳሜ	-11.3573
▁ከአመታት	-11.3573
▁፸፰	-11.3574
▁አሞናውያን	-11.3574
ተጉ	-11.3574
ጎት	-11.3575
▁አውታር	-11.3575
▁የተሰጠን	-11.3577
ከቱ	-11.3578
▁እያገለገሉ	-11.3578
ናለሁ	-11.358
▁የተመለከቱት	-11.358
▁ልማትና	-11.3582
▁የእናት	-11.3584
ቃችን	-11.3585
▁የጎለመሱ	-11.3586
▁የሚያስቡ	-11.3588
▁ሰማእት	-11.3589
▁አደሮች	-11.3591
▁በብሪታንያ	-11.3594
ደረጉት	-11.3595
▁እንዳለብህ	-11.3596
ግበ	-11.3597
ጠቆ	-11.3598
ወርቅ	-11.3601
▁በፆም	-11.3603
ብሰ	-11.3603
▁መምህሩ	-11.3604
▁ያስታ	-11.3604
▁ለመተው	-11.3605
▁መሸሸጊያ	-11.3607
▁ማጠራቀሚያ	-11.3607
▁ተካሂዷል	-11.3607
▁ክረምት	-11.3607
▁ኡደት	-11.3607
▁መሬቱ	-11.3609
▁ፊቴን	-11.361
▁ዞሮ	-11.3611
ልኡሉ	-11.3612
▁አያት	-11.3612
▁ተናገረው	-11.3613
▁የተጋ	-11.3614
፻፳፫	-11.3616
▁አስታወቁ	-11.3616
ሰየመ	-11.3616
▁የበሽታ	-11.3616
▁ፕሪ	-11.3616
ب	-11.3617
▁እንዳደረጉት	-11.3618
፰	-11.3618
▁ለመነጋገር	-11.362
ዘምር	-11.3621
▁ተዘ	-11.3622
▁አይኖቼ	-11.3624
▁C	-11.3624
ሱም	-11.3627
▁አይቼ	-11.363
▁ፍቅሩን	-11.3631
▁ከበድ	-11.3632
▁ለስላሳ	-11.3632
▁፸፩	-11.3635
ጣዊ	-11.3636
እለ	-11.3637
፻፺፩	-11.3637
▁ሻለቃ	-11.3637
▁በሀብረት	-11.3639
▁ሶፎንያስ	-11.364
▁የአመጋገብ	-11.364
▁ፍልስጥኤማውያን	-11.364
▁እቅዶች	-11.364
▁የበረዶ	-11.364
▁ፈል	-11.364
▁በማያንስ	-11.3641
▁የዳኝነት	-11.3641
▁እንደሚያስከትል	-11.3642
ፅፉ	-11.3642
▁የተጠቀሰችው	-11.3642
አስተማሪ	-11.3643
▁ስለሚያውቅ	-11.3644
▁ስልጠናዎች	-11.3646
ቤታቸው	-11.3648
▁ሞክሩ	-11.365
▁እንደሚያመጣ	-11.3651
ዘረ	-11.3653
▁የብልፅግና	-11.3654
ፀባ	-11.3656
▁መፈፀሙ	-11.3656
▁የአገሪቱን	-11.3659
▁የሚቀር	-11.3662
▁11	-11.3662
▁ከስራው	-11.3663
▁አዘዛቸው	-11.3664
▁መድረሱን	-11.3666
▁የሚበቃ	-11.3666
ዛወር	-11.3667
▁ባሏን	-11.3667
▁ውህደት	-11.3671
ለብስ	-11.3672
▁ስእላዊ	-11.3673
▁ተመልክተናል	-11.3673
▁እንቅፋቶች	-11.3673
▁የሽፋኑ	-11.3673
▁ጭፍጨፋ	-11.3673
▁አዳጋች	-11.3673
▁አስታውሳለሁ	-11.3673
▁አይፈልጉም	-11.3674
▁ወንጌሎች	-11.3674
▁በማስመልከት	-11.3674
▁የተመረጡት	-11.3674
▁ኢሳያስ	-11.3674
▁ሰጭ	-11.3675
▁አስባለሁ	-11.3676
▁እያለፈ	-11.3676
▁፲፱፻፹፫	-11.3677
▁ከተሰጠ	-11.3678
90	-11.3681
▁የተደራጁ	-11.3682
ሾመው	-11.3682
▁ቦታቸው	-11.3682
ደራጁ	-11.3687
፻፮	-11.3688
▁ባገኘው	-11.3692
▁የብሪታንያ	-11.3694
▁የመቃብር	-11.3695
ጉት	-11.3695
ra	-11.3696
▁ሲያገኙ	-11.3696
▁አልኩት	-11.3697
ተጠናቀቀ	-11.3698
ቋረጠ	-11.3699
▁የሚመሩት	-11.3704
▁እንዲይዙ	-11.3704
▁የሚኖሩበት	-11.3705
ከብድ	-11.3705
▁የህዳሴ	-11.3707
▁የፀደይ	-11.3707
▁ሰምቻለሁ	-11.3707
▁ሳምራዊ	-11.3707
▁ጨረታ	-11.3708
▁ሸሽቶ	-11.3708
▁ልቅሶ	-11.3709
▁አድርገናል	-11.371
ቀቡ	-11.371
▁ስላልሆነ	-11.371
▁ሥነ	-11.371
▁ክፍላገር	-11.3711
▁ንግስና	-11.3712
▁ቻልኩ	-11.3714
▁የሚያምር	-11.3715
▁ከእነሱም	-11.3715
▁ሆንን	-11.3716
▁ከነገ	-11.3717
▁ካገኙ	-11.3722
▁ነበሯቸው	-11.3723
▁የማስታወቂያ	-11.3724
▁ደንታ	-11.3724
▁ሚልክያስ	-11.3728
▁ህዝቦቹን	-11.3729
ቀደመ	-11.3731
መኙ	-11.3733
፻፷፭	-11.3736
▁የሚያነሳሳ	-11.3737
▁ጥቅ	-11.3738
▁ቁልቁል	-11.374
▁የዲሲፕሊን	-11.374
▁እትሞች	-11.3741
▁ገደቦች	-11.3741
ጌታ	-11.3741
▁ዘና	-11.3742
ሮይ	-11.3744
▁ማስደሰት	-11.3744
▁ከሰባት	-11.3747
6	-11.375
▁እንደሚሰሩ	-11.3751
▁በነዚህ	-11.3755
▁ልትሆን	-11.3757
is	-11.3759
▁የሚጥል	-11.376
ሮጡ	-11.376
▁ቤትህ	-11.3762
ሰቀል	-11.3765
▁አለመኖሩን	-11.3765
▁የቁም	-11.3767
ነርሱ	-11.3769
ኢት	-11.377
▁ታሪኮችን	-11.3771
ሀለን	-11.3771
▁ፆመ	-11.3771
▁ሀረርጌ	-11.3773
▁ለማምለክ	-11.3774
▁ቁርጠኝነት	-11.3774
▁ቤተሰቦቼ	-11.3774
▁እስማኤል	-11.3774
▁የመላእክት	-11.3774
▁ቅዱሶች	-11.3774
▁የተወደዳችሁ	-11.3774
▁መዳረሻ	-11.3774
ማፅደቅ	-11.3774
▁የሚያጠፋ	-11.3774
▁ምስኪን	-11.3774
▁ፊልሙ	-11.3775
▁ተሰጥኦ	-11.3775
▁እንዲያከብሩ	-11.3777
▁በላያቸው	-11.3778
▁ያገለገሉ	-11.3779
▁ባሮክ	-11.3779
▁ይሰማዋል	-11.378
▁አስነሳ	-11.3781
▁ክፉን	-11.3784
▁አላገኘ	-11.3785
▁መታጠብ	-11.3785
▁ያጋጠማቸው	-11.3789
▁እንደሚደረግ	-11.3791
ረረ	-11.3797
▁ከሰጠው	-11.3798
ማንኛውም	-11.3798
▁በመታዘዝ	-11.3798
ሳለን	-11.3798
ልፋ	-11.38
ሟገት	-11.38
▁ቦታዎችን	-11.3801
▁እንቅስቃሴዎችን	-11.3801
ያቋርጥ	-11.3803
▁እስራኤልም	-11.3804
▁ቀለማት	-11.3804
▁የሚማሩ	-11.3805
▁የእስራኤላውያን	-11.3808
▁የጭካኔ	-11.3808
▁ፊልጵ	-11.3808
▁ዯረጃ	-11.3808
▁የኢዮብ	-11.3808
▁አጋንንቱ	-11.3808
▁ነግሯቸዋል	-11.3808
▁ቤተሰቤ	-11.3808
ይኖረን	-11.3808
▁ከልባችን	-11.3808
▁በክፋት	-11.3809
re	-11.3809
ታደስ	-11.3809
▁ዱላ	-11.381
▁ከበሽታ	-11.381
ፈናቀል	-11.3812
ፅዳት	-11.3813
▁በተቋሙ	-11.3813
▁ስጠኝ	-11.3813
▁እንደማይገባ	-11.3814
▁አርማጌዶን	-11.3815
▁ወጥተዋል	-11.3815
ኋለ	-11.3818
▁ያመጣው	-11.3818
▁ደግነቱ	-11.3818
▁ካባ	-11.3819
▁መዝገቡ	-11.3821
ተል	-11.3821
▁ያደረግ	-11.3821
ነሀሴ	-11.3822
ዘግ	-11.3822
▁ደረጃውን	-11.3823
▁የሚወ	-11.3824
▁የሚገ	-11.3825
▁በትውልድ	-11.3827
▁ይወጣ	-11.3828
▁ላኪ	-11.3829
ወሰድኩ	-11.383
ሸራ	-11.3831
▁እንስት	-11.3831
ፕራ	-11.3832
▁ሊረዳቸው	-11.3832
▁የሙ	-11.3839
▁ስላደረገ	-11.384
▁በምናደርገው	-11.3841
▁ህሙማን	-11.3841
▁የጣኦት	-11.3841
▁አስተምሯል	-11.3841
▁ዘመዶቻቸው	-11.3842
▁መግፋት	-11.3842
▁ተከስቶ	-11.3842
ተሻለ	-11.3843
▁በፅዮን	-11.3844
▁እንድንቀጥል	-11.3845
ረኩ	-11.3846
▁ናቸዉ	-11.3847
▁ውድመት	-11.3848
ያኑ	-11.3849
▁ኢያሱን	-11.3849
አሁን	-11.3849
▁መፅ	-11.385
መገ	-11.3851
▁እንሁን	-11.3851
▁ራእዩ	-11.3851
▁በበሽታ	-11.3852
▁እንደሚያስፈልገው	-11.3853
በላይ	-11.3854
▁ልጃቸውን	-11.3854
▁ተግባሩ	-11.3856
▁የወረደ	-11.3857
ብሶ	-11.3857
ንናገር	-11.386
▁የቆዩት	-11.3864
ተወገደ	-11.3864
ግባቡ	-11.3865
▁ከነበረበት	-11.3866
▁ዘመኑን	-11.3867
▁እድሜዬ	-11.3868
▁አስተዳዳሪዎች	-11.3868
▁ኩር	-11.3871
▁ችለው	-11.3872
ኗን	-11.3872
▁ይጫወታል	-11.3875
▁ተቀምጧል	-11.3875
▁ሀይማኖተኛ	-11.3876
▁ጨምሯል	-11.3876
ተጋ	-11.3876
▁እንዲከተሉ	-11.3876
ያላንዳች	-11.3876
▁ጉዲ	-11.3876
ታደገ	-11.3878
▁የተማሪ	-11.3878
▁ሰአቱ	-11.3878
▁በተጠቀሰው	-11.3879
▁ያከናወነው	-11.388
▁ጌዴዎን	-11.388
▁ደርግ	-11.3881
▁ቤተክርስቲያንን	-11.3881
▁ከፈለገ	-11.3881
▁ክፍሎችን	-11.3882
▁ሙታንን	-11.3882
ደት	-11.3883
ንቀሳ	-11.3885
▁አከ	-11.3885
▁የሚከሰተው	-11.3887
▁ባለሞያ	-11.389
▁በተፈጠረው	-11.3893
▁በግንቦት	-11.3898
▁የአራ	-11.3898
▁ማጥ	-11.3899
መጣቸው	-11.3899
▁በቅድስት	-11.39
ርፈው	-11.3904
▁በጆሮ	-11.3909
▁እንዲስፋፋ	-11.3909
▁ይጀምራሉ	-11.391
▁ይሆነናል	-11.391
▁ጤነኛ	-11.391
▁ኮሌጆች	-11.391
▁በኬንያ	-11.391
▁የአምስት	-11.391
▁የፋርስ	-11.3911
መንግስቱ	-11.3912
▁ተሰርቶ	-11.3912
▁በትላልቅ	-11.3912
ዘመር	-11.3913
▁ላሳ	-11.3914
በተኑ	-11.3914
▁ያስከተለው	-11.3915
▁ፖስት	-11.3915
▁በወይን	-11.3915
ጫጭ	-11.3918
▁የድሮ	-11.3918
▁ሊያስከትሉ	-11.3918
▁ለማለፍ	-11.3919
▁የሚያስፈልጉትን	-11.3922
▁እንዲጠናከር	-11.3923
▁ወዳለበት	-11.3925
▁የሚተካ	-11.3926
ዳሰስ	-11.3927
▁የጎላ	-11.3927
ማይችሉ	-11.3929
ሸጋገር	-11.393
▁ከማን	-11.3932
▁ሳያስ	-11.3932
ሚደርስባቸው	-11.3933
ሀም	-11.3934
▁ሊግ	-11.3935
እራ	-11.3936
▁በመድረኩ	-11.3938
ሀጢአታቸው	-11.3938
▁የሚጠጣ	-11.3938
▁መገኘታቸው	-11.3938
፻፸፪	-11.3939
▁ዲስ	-11.3939
▁የተወሰዱ	-11.394
▁የአምላካችን	-11.3943
ወጧቸው	-11.3943
▁ከሚኖሩት	-11.3944
▁ሊረዱ	-11.3944
ማከማቸት	-11.3944
▁ይቀጥላሉ	-11.3944
▁ማተኮር	-11.3944
▁ለቦርዱ	-11.3944
▁ጉዳያቸው	-11.3944
ረጀ	-11.3944
▁ከአብርሀም	-11.3944
▁እሾህ	-11.3944
▁በባርነት	-11.3944
▁ተመልሼ	-11.3944
▁የውሸት	-11.3945
▁የሊ	-11.3946
▁ሰዎቹም	-11.3949
ረጋግጥ	-11.395
▁ተከሰተ	-11.3951
ፈሪ	-11.3951
▁ኹለት	-11.3957
▁ላከው	-11.3958
ሳካለት	-11.3958
▁ጠጣ	-11.3959
▁ፃ	-11.3959
▁የዶ	-11.3959
▁ቁራ	-11.3959
▁አመራሩ	-11.3959
▁ሲሞቱ	-11.3962
▁የምትሰጠው	-11.3962
▁የታመኑ	-11.3966
ጨርሱ	-11.3966
ብፁእ	-11.3967
ታዩት	-11.3967
▁ተመል	-11.397
▁ይጠበቅ	-11.3976
▁አረብ	-11.3976
፻፶፱	-11.3976
ማለን	-11.3977
ክብሩ	-11.3977
▁ለወላጆች	-11.3978
▁መጠቀሚያ	-11.3978
▁በአይሁድ	-11.3978
▁አለመረጋጋት	-11.3978
▁ለመውጋት	-11.3978
▁እርግፍ	-11.3979
▁ቀሚስ	-11.398
▁ተባባሉ	-11.398
▁ቀጥለዋል	-11.398
▁ከነአን	-11.3981
▁ቋንቋቸው	-11.3981
▁በሄደ	-11.3981
▁አንጎል	-11.3982
ወርሱ	-11.3983
▁አክላ	-11.3983
▁ኢንፎርሜሽን	-11.3984
በላችሁ	-11.3985
▁ባልሆኑ	-11.3985
▁ገረ	-11.3987
▁በምትገኝ	-11.3989
▁አይነተኛ	-11.3991
ኸን	-11.3993
▁ወራሪ	-11.3995
እመቤታችን	-11.3995
▁ይር	-11.3997
▁ጠይቁ	-11.3998
▁ውር	-11.3998
▁ሰጠኝ	-11.3999
▁ሊረዳው	-11.4
ፖሊስ	-11.4
፻፴፱	-11.4002
ምሬ	-11.4004
ፀለዩ	-11.4008
▁ፕሮግራሞችን	-11.401
▁አፋፍ	-11.4011
▁በቀጣይም	-11.4012
ድርሻ	-11.4013
▁ማስጨበጫ	-11.4013
▁ጎርጎርዮስ	-11.4013
▁ከረጢት	-11.4013
▁ሚዛኑ	-11.4013
▁ተክለሀይማኖት	-11.4013
▁ቁርባን	-11.4013
▁ቦምብ	-11.4013
▁በጎደለው	-11.4013
▁መቃብሩ	-11.4013
▁የሞአብ	-11.4013
ጥፋቱ	-11.4014
▁የወጪ	-11.4015
▁ለማቆየት	-11.4016
ቆጡ	-11.4016
▁የአየርላንድ	-11.4017
▁ኢትዮጵያዊነት	-11.4018
▁ያለፈው	-11.4019
▁ከመጥፎ	-11.4019
▁ፖፕ	-11.4019
በሱ	-11.4021
▁ከገለፀ	-11.4021
▁ለማካፈል	-11.4023
▁ማግኘቱ	-11.4024
▁ፓርቲው	-11.4025
▁የሚነሳ	-11.4025
▁ይፋዊ	-11.4025
ሆነኝ	-11.4027
▁በአመቱ	-11.4028
▁በመቶኛ	-11.4028
C	-11.4029
▁በተዘጋጀ	-11.403
▁የሚያገኙበት	-11.403
▁አረጋ	-11.4031
ገመተ	-11.4031
▁ድግስ	-11.4032
▁ዙሪያውን	-11.4033
፻፵፱	-11.4033
▁ነፍ	-11.4035
▁የተሰማቸው	-11.4036
ኳል	-11.4038
▁ድርጊታቸው	-11.4038
▁የጠየቀ	-11.4039
▁ደብር	-11.404
▁በወጡ	-11.4043
ሀይማኖቱ	-11.4044
▁ፕላ	-11.4047
▁ሽንኩርት	-11.4047
▁ተቀይረዋል	-11.4047
▁ትናገራለች	-11.4047
▁ብድራት	-11.4047
▁በሚኖርበት	-11.4047
▁ጆሴፍ	-11.4048
ተረጎሙ	-11.4048
▁ትኩረቱን	-11.4048
▁በሽተኞች	-11.4048
▁በበጀት	-11.4048
▁በሚስዮናዊነት	-11.4049
▁በተባለች	-11.405
ብታ	-11.4051
ሰኘው	-11.4052
▁ስማቸውን	-11.4053
▁ለአብ	-11.4054
ተያይ	-11.4056
ሌይ	-11.4057
▁ይጎ	-11.4057
▁በትክክለኛ	-11.4058
▁በመከታተል	-11.4061
▁ቁጣዬ	-11.4061
▁ቂሮስ	-11.4062
ታላቂቱ	-11.4064
▁የሰባ	-11.4066
▁በመምጣቱ	-11.4067
▁የተሰሩት	-11.4067
ንፀባረቅ	-11.4069
▁ሇማ	-11.4075
አክሱም	-11.4075
፻፲፱	-11.4076
ቷታል	-11.4077
▁ቴሌ	-11.4078
ኒስት	-11.4078
▁የሚያደርስ	-11.408
ባታ	-11.4081
▁በሀይማኖታዊ	-11.4082
▁አይገባውም	-11.4083
▁ይቀርባሉ	-11.4083
ስምምነት	-11.4083
ካሄዳቸው	-11.4083
▁ልእልና	-11.4083
▁አምሳል	-11.4083
▁ዳኝነት	-11.4086
▁በሆነች	-11.4087
▁ሌጦ	-11.4088
▁እንድንገነዘብ	-11.4089
▁ይችላል።	-11.409
▁ቪዛ	-11.4092
፻፵፬	-11.4093
ያስተውል	-11.4094
፻፴፫	-11.4095
▁የመፈፀም	-11.4095
ትምህርታቸው	-11.4096
ሾቹ	-11.4098
▁ዘሌዋውያን	-11.4099
▁ነበልባል	-11.41
ንጉሰ	-11.4102
▁የታሰረ	-11.4102
▁ሰውየውን	-11.4104
▁በአእምሮው	-11.4104
ግዛቱ	-11.4108
፻፷፫	-11.4111
▁የሚያጋጥሙን	-11.4111
▁ሀናንያ	-11.4113
▁በተካሄደ	-11.4113
▁ለሚፈልጉ	-11.4115
፶	-11.4115
▁ስላገኘ	-11.4116
▁በሚኒስቴሩ	-11.4117
▁ተሽ	-11.4117
ነጋግር	-11.4117
፻፹፫	-11.4118
▁መልሼ	-11.4119
▁ሞዴል	-11.4119
▁አረማዊ	-11.4119
▁ማሳደር	-11.4119
▁ዲሞክራሲ	-11.412
▁፲፱፻፴	-11.4122
▁ጠለቅ	-11.4122
▁አይኑን	-11.4124
ፍላጎ	-11.4124
▁የመቆጣጠር	-11.4124
▁የሚያስጨንቅ	-11.4125
▁አትጨነቁ	-11.4125
▁የመድን	-11.4125
▁ዘዳ	-11.4126
▁እምነቱን	-11.4126
▁የዘለቀ	-11.4127
▁ልከ	-11.4128
ቻው	-11.4128
▁የሚነሳው	-11.4129
ረጡ	-11.4129
▁ከወሩ	-11.4132
▁በአቶ	-11.4134
▁ለገንዘብ	-11.4134
▁አዝመራ	-11.4135
ህበት	-11.4138
ሰፉ	-11.4138
▁ትከሻ	-11.414
▁ተያያዥ	-11.4141
▁የዮሀንስ	-11.4142
▁የዋህ	-11.4143
▁የታመመ	-11.4143
▁ጥሩነት	-11.4143
▁የሚጠጋ	-11.4147
▁ብሎአል	-11.4148
ያለሽ	-11.4149
▁የምታደርግ	-11.4149
▁ሸቀጦች	-11.4152
▁ይቀበላሉ	-11.4152
▁ለማትረፍ	-11.4152
▁በግንባር	-11.4152
▁ትዳራቸው	-11.4152
▁በወጣትነት	-11.4152
ፋታ	-11.4152
▁ለአንዱ	-11.4153
▁የፈለጉትን	-11.4153
ማቅረባቸው	-11.4154
▁አጋጥሟ	-11.4154
▁ማስተዳደር	-11.4154
▁ሲያጋጥም	-11.4154
▁የአላህ	-11.4154
ዳረግ	-11.4155
ይቱም	-11.4156
le	-11.4157
ፍሪ	-11.4158
▁የታገቱ	-11.4158
መንግስት	-11.4159
▁ማግስት	-11.4159
▁ጥናቶችን	-11.416
▁በወንጌል	-11.416
▁አገልግሎታችንን	-11.4163
አቴንስ	-11.4164
ጃችን	-11.4165
▁እናትህ	-11.4165
▁የሚይዙ	-11.4167
▁ባልዋ	-11.4167
▁ተፃፈ	-11.4167
▁ለመብላት	-11.4168
▁ለጋ	-11.4168
ምግባር	-11.4171
▁ሰነፍ	-11.4171
ገጥሙ	-11.4171
▁፹፬	-11.4171
ሮቿ	-11.4172
▁የሚያቀርቡ	-11.4172
▁የጳውሎስን	-11.4173
▁በስጋዊ	-11.4173
▁በለጠ	-11.4174
በረከት	-11.4174
▁የዓለም	-11.4177
▁ስለተሰማ	-11.418
▁ለብቻው	-11.4181
▁የምንችልባቸው	-11.4182
ብና	-11.4182
▁መጠመቅ	-11.4183
▁የሚሻ	-11.4184
▁ማስተባበሪያ	-11.4187
▁እናመሰግናለን	-11.4187
▁ይሞክራሉ	-11.4187
▁አሳድሯል	-11.4187
▁ያስታውሳል	-11.4187
▁ግኝቶች	-11.4187
▁እርጅና	-11.4187
▁በሙስና	-11.4187
▁አስተላላፊ	-11.4188
▁ተገልጦ	-11.4188
▁ረድቶታል	-11.4188
▁ከቤተሰቡ	-11.4188
▁ስልጣናቸውን	-11.4189
▁የብርታት	-11.4189
▁ወስኖ	-11.419
ስቅ	-11.419
▁ምርጫዎች	-11.419
▁ሊረዳ	-11.4192
▁መጠየቁ	-11.4192
▁እጩዎች	-11.4194
▁የምናየው	-11.4195
▁የተዋህዶ	-11.4199
ቃይ	-11.42
▁በማእድ	-11.4201
▁የሚከናወኑ	-11.4201
▁ካለህ	-11.4201
▁ሲያቀርብ	-11.4202
▁ተርጓሚዎች	-11.4205
▁የወደፊቱ	-11.4205
ወላጆቹ	-11.4206
ሊቲ	-11.4206
▁እየገፋ	-11.4207
▁የኮምፒዩተር	-11.4208
▁እንዲያሳዩ	-11.4211
▁መጋ	-11.4211
▁አለመሆኑ	-11.4213
ልደት	-11.4213
ነግረኝ	-11.4213
----	-11.4214
▁ከሚችለው	-11.4215
▁የሚቀመጥ	-11.4217
▁የደብሩ	-11.4217
መሆኗ	-11.4218
▁እያወ	-11.4218
▁ከሀያ	-11.4218
▁እድሉ	-11.422
▁በነሀሴ	-11.4222
▁ራዘርፎርድ	-11.4222
▁የመክፈቻ	-11.4222
▁ፅላቶች	-11.4222
▁ከሀላፊነት	-11.4222
ተፈረደበት	-11.4222
▁ዘርግቶ	-11.4222
▁ማህፀን	-11.4222
▁ከሞቱ	-11.4222
ጆቻችን	-11.4223
▁ተሰጥቷል	-11.4223
▁ከእናቱ	-11.4223
▁ትልቁን	-11.4223
ተሰማቸው	-11.4224
▁ተነስቷል	-11.4224
▁፺፬	-11.4224
▁ኢዮአስ	-11.4224
▁ሙላቱ	-11.4224
ልዮ	-11.4225
▁አገልጋዩ	-11.4226
▁በታክስ	-11.4226
▁ለመንከባከብ	-11.4226
▁ለምክር	-11.4226
▁ቄሱ	-11.423
▁የሄደው	-11.423
▁ውጫዊ	-11.4231
ታሰበ	-11.4231
▁ለአገልጋዮቹ	-11.4233
▁ሄር	-11.4235
▁ኢር	-11.4239
▁የሙሴን	-11.424
ዋደዱ	-11.4241
ፈንዱ	-11.4242
▁ይገዛል	-11.4244
ሰሎሞን	-11.4244
10	-11.4245
▁ስራህን	-11.4246
▁ኩባንያው	-11.4246
▁ከመጡ	-11.4247
ተሰበረ	-11.4247
፻፷፮	-11.4247
▁ህሊናቸው	-11.4249
ሰፍን	-11.4249
▁መንፈሴ	-11.425
ፎን	-11.4252
ተዋወቁ	-11.4254
ዷት	-11.4255
▁እንደሚሄድ	-11.4255
▁ስጋን	-11.4257
▁ወንድማማቾች	-11.4257
ውስጠኛው	-11.4258
▁አብራሪ	-11.4258
▁በመርከብ	-11.4258
▁ለንጉስ	-11.4258
▁የሚናገሩትን	-11.4259
▁ግሪ	-11.4261
ቋሚ	-11.4264
▁ጭል	-11.4266
▁ችሎታቸውን	-11.4266
▁አመፅን	-11.4267
▁የተረፉት	-11.4267
▁አሳስቦ	-11.427
▁ስደተኛ	-11.427
▁የተጠቃ	-11.4273
▁አሶር	-11.4276
▁ቦይ	-11.4276
▁ሀይላቸው	-11.4278
▁ተነስታ	-11.4284
▁የሚረዱን	-11.4285
ለበ	-11.4285
▁ጠየቀኝ	-11.4286
▁ከአባቶቹ	-11.4287
መሸ	-11.4289
▁መሞ	-11.4289
ፉን	-11.4292
▁ለልጆቻችሁ	-11.4293
▁ስታንዳርድ	-11.4293
▁ትውልዶች	-11.4293
▁ዘግናኝ	-11.4293
▁ፀሎታችን	-11.4293
ያበረክቱ	-11.4293
▁ትርኢት	-11.4293
▁በሬዎች	-11.4293
▁ይከተሉ	-11.4293
▁አይደለህም	-11.4294
ተቻለ	-11.4294
ደርሰው	-11.4294
▁ወሀኒ	-11.4295
መፁ	-11.4296
▁ዘረኝነት	-11.4296
▁ኮም	-11.4298
▁አማኑኤል	-11.4298
▁ጮኹ	-11.4299
መሰረቱ	-11.43
▁ምቤት	-11.43
▁በሲና	-11.4301
ድረው	-11.4303
▁ዮሴፍም	-11.4304
▁እንድትሆኑ	-11.4304
ታጠቡ	-11.4304
▁ቀለ	-11.4305
▁በመቆም	-11.4306
ደራደር	-11.4306
▁ለመቆየት	-11.4308
▁የተጠቀሰውን	-11.431
▁የሚያይ	-11.431
▁የመለየት	-11.4311
አምላክ	-11.4313
መርከቡ	-11.4315
ራቡ	-11.4315
▁ሲያጋጥመን	-11.4318
▁በቀይ	-11.4319
▁የተሽከርካሪ	-11.4319
▁ይጨምር	-11.4321
▁ስልቶች	-11.4322
ጀን	-11.4322
▁የማይረሳ	-11.4323
ዝል	-11.4323
▁ተግ	-11.4328
ማመሳከሪያ	-11.4328
▁የፋሲካ	-11.4328
▁ተወስኖ	-11.4329
▁መድረኮች	-11.4329
▁የሚነ	-11.433
▁የምታደርጉት	-11.4331
▁ግርጌ	-11.4332
▁ለመታደግ	-11.4332
▁እየሄደ	-11.4333
▁ለብዙዎች	-11.4334
▁አጥብቃ	-11.4334
▁የሚያበረታቱ	-11.4336
▁አሰራሩ	-11.4339
▁9	-11.4339
፻፹፱	-11.4339
▁ብይን	-11.4339
▁ከጉ	-11.4339
ጥፋት	-11.434
▁ፖሊሲዎች	-11.4341
▁ተጋላጭ	-11.4343
▁ትሁን	-11.4343
ፈውስ	-11.4344
▁በልባችሁ	-11.4344
ገልግ	-11.4346
▁በማደግ	-11.4348
▁ታቦቱን	-11.435
▁እንዲፈፅም	-11.4351
ፈለግኩ	-11.4352
▁ታውቅ	-11.4352
▁የመሳሪያ	-11.4354
ጉድ	-11.4355
▁አመነ	-11.4359
▁ሱቅ	-11.4359
ለውጠው	-11.436
▁ስቶ	-11.4361
▁የሉም	-11.4363
▁ይጠብቀናል	-11.4364
ሳኡዲ	-11.4364
▁እህቶቼ	-11.4364
በራችሁ	-11.4366
▁ጭራ	-11.4367
▁የምወደው	-11.4367
▁መባው	-11.4367
▁ጠንቅቆ	-11.4368
▁አሳልፈ	-11.4368
የመ	-11.4368
▁በ፲፱	-11.4369
ጻፈ	-11.4372
ሸፈኑ	-11.4382
▁ጠየቃቸው	-11.4383
▁በአደጋ	-11.4383
▁እንዳላት	-11.4385
▁ዞ	-11.4385
ቤቴ	-11.4385
ሚደርሰው	-11.4385
▁በሰውነት	-11.4386
▁ተጠያቂው	-11.4388
▁የበቀል	-11.4389
▁ዝርዝሩ	-11.4389
ምክትል	-11.4391
▁ከመከተል	-11.4391
ካታ	-11.4392
▁የቃ	-11.4392
ሻን	-11.4392
▁ማንን	-11.4393
▁የተገለፁት	-11.4394
▁የሚዘጋጁ	-11.4395
▁ወዮ	-11.4395
ስትሪ	-11.4396
7	-11.4399
ደረቀ	-11.4399
▁ትንታኔ	-11.44
▁አሁኑኑ	-11.44
▁በቸልታ	-11.44
▁መዘርጋት	-11.44
▁አንቀላፋ	-11.44
▁ልግስና	-11.44
▁ጮክ	-11.44
ዛዛ	-11.4401
▁ይኖርባችኋል	-11.4401
▁መሆንህን	-11.4402
▁የገለፀ	-11.4402
▁የሀብት	-11.4402
▁ያልሆነው	-11.4404
▁አስፋፊ	-11.4406
▁ተገዢ	-11.4407
▁ተሰምቷቸ	-11.4408
▁በዛሬ	-11.4408
ታደግ	-11.4408
▁ጠባሳ	-11.4408
፻፷፯	-11.4412
▁ያረ	-11.4414
▁የሚጠይቋቸው	-11.4417
▁ስራችንን	-11.442
▁በመተ	-11.442
▁የሰፈረው	-11.4421
▁ጴጥሮስም	-11.4421
us	-11.4422
ታክሱ	-11.4423
ሰኙ	-11.4424
ፋፋ	-11.4424
▁አድር	-11.4425
▁ፍላጎታቸውን	-11.4426
▁ነህና	-11.4427
▁ስልጣኑ	-11.4427
▁ያስተማረው	-11.4427
▁የአማ	-11.4428
▁አቆ	-11.4428
▁እንደሆን	-11.443
ጴ	-11.4432
▁እንዳይገቡ	-11.4435
▁በትብብር	-11.4436
▁በአእምሯችን	-11.4436
▁ለማሳወቅ	-11.4436
▁ሞባይል	-11.4436
▁ማስፋፋት	-11.4436
▁በመግለጫው	-11.4436
▁በሂሳብ	-11.4436
▁ጠጠር	-11.444
▁የተከተለ	-11.4441
▁ለማርያም	-11.4441
፻፶፯	-11.4442
▁ሄዳችሁ	-11.4442
ካሉ	-11.4442
▁ጎብኚዎች	-11.4443
▁በማረጋገጥ	-11.4443
▁በዘዴ	-11.4443
▁አገልግሎታቸውን	-11.4443
ማርቆስ	-11.4444
▁እስከዚያው	-11.4446
▁ስሩ	-11.4448
▁የሚኖርብን	-11.4449
ሰም	-11.445
ያስፈልግ	-11.4451
ረከቡ	-11.4452
▁ያጋጠሙ	-11.4453
ቀናል	-11.4454
ዘርፉ	-11.4457
▁ተቋቁመው	-11.4457
▁የዮ	-11.4461
መምህር	-11.4462
▁ሊመራ	-11.4462
▁የረዳቸው	-11.4462
▁የመላው	-11.4462
▁ተገቢው	-11.4463
▁ባይኖርም	-11.4464
▁ከአለት	-11.4465
ጥፋታቸው	-11.4465
▁ኪዳኑ	-11.4465
▁አሶች	-11.4467
▁የተቀመጡት	-11.4469
▁መብታቸው	-11.447
▁ተገዥ	-11.4471
▁በቴ	-11.4471
▁በአስቸጋሪ	-11.4472
▁በእንግድነት	-11.4472
▁የስደተኞች	-11.4472
▁ማበርከት	-11.4472
▁አስችሏል	-11.4472
▁ተደርገዋል	-11.4472
▁ፕላኔት	-11.4472
▁አጠፋለሁ	-11.4473
▁የተቀበሉት	-11.4473
▁ኒሳን	-11.4474
▁ውጤታማነት	-11.4475
ኩሽ	-11.4477
▁በሌ	-11.4478
▁የመዳብ	-11.4478
▁በማካሄድ	-11.448
▁ከተቀመጠ	-11.4481
▁ይወስድ	-11.4481
▁ፈገግታ	-11.4481
▁የሚጫወተው	-11.4482
▁የእውነተኛ	-11.4482
▁አቢሜሌክ	-11.4483
ቋቸዋል	-11.4484
▁ሰማርያ	-11.4486
ጫለሁ	-11.4486
▁አቦ	-11.4487
፻፹፯	-11.4487
መሆኔ	-11.4488
ሰደደ	-11.4488
▁ይረዳ	-11.4489
▁የሞላ	-11.4491
▁ሙሉውን	-11.4491
▁የጠላት	-11.4491
▁ወንድሞቻችንን	-11.4491
▁አፇፃፀም	-11.4492
▁ትፈ	-11.4492
▁በመጨረሻዎቹ	-11.4493
▁የሚሄዱት	-11.4495
ዦች	-11.4495
▁ደብዳቤውን	-11.4495
▁በዘፍጥረት	-11.4502
▁ክፍ	-11.4502
▁የሚፈለገው	-11.4503
▁መፈፀማቸው	-11.4505
▁እራሱ	-11.4506
▁አህዮች	-11.4509
▁ከሙሴ	-11.4509
▁የሙከራ	-11.4509
ወስዳቸው	-11.4509
▁የሚከበረው	-11.4509
▁የአንዲት	-11.451
▁ያዋ	-11.451
▁የአዲሱ	-11.4511
ቅደም	-11.4511
▁ያደረግኩት	-11.4511
▁ንዴት	-11.4511
▁፲፱፻፵፭	-11.4512
▁እንደሚያመለክተው	-11.4513
▁ጉዲይ	-11.4515
▁ደግፎ	-11.4515
▁በመክፈል	-11.4515
ልቦ	-11.4516
▁ቤታቸውን	-11.4517
▁ቫይረሱ	-11.4518
ዘገበው	-11.4522
▁ቀንደ	-11.4523
ዎቻችሁ	-11.4524
▁ይማር	-11.4527
▁የሰጠንን	-11.4527
▁የተላለፈው	-11.4528
▁በፌስቡክ	-11.4529
▁አለቻት	-11.453
ሰፈነ	-11.453
▁ጋይ	-11.4531
▁አዋጁን	-11.4533
▁የመታሰቢያ	-11.4534
ስስ	-11.4534
▁መአት	-11.4536
▁የሚታወቁት	-11.4537
ክፍለ	-11.4537
ከመ	-11.4538
▁አባቶቻችሁ	-11.4538
▁፱፻	-11.4539
▁የተከበሩ	-11.4539
▁በአልን	-11.4542
▁ያስደስታል	-11.4545
▁ያሳዝናል	-11.4545
▁ቀስቃሽ	-11.4545
▁በጥላቻ	-11.4545
▁ተወልዶ	-11.4545
▁የወንዶች	-11.4545
▁በድምሩ	-11.4545
▁ካሜራ	-11.4545
▁፺፯	-11.4545
▁አመልካች	-11.4545
▁እግሬ	-11.4545
▁ሊጠፋ	-11.4546
▁እንዲረዱ	-11.4546
▁ራዲዮ	-11.4546
▁ወቀሳ	-11.4547
ገማ	-11.4548
▁ይውጣ	-11.4549
ፈጠራቸው	-11.4549
ከሚመለከታቸው	-11.4549
▁ባለጠጋ	-11.4552
▁ማንነቱን	-11.4553
▁አረም	-11.4556
▁ጊኒ	-11.4558
▁የደመወዝ	-11.4558
▁የመጨረሻዎቹ	-11.4562
▁አገሪቱን	-11.4562
▁በስራቸው	-11.4563
▁በሂ	-11.4565
▁ባልንጀሮቻቸው	-11.4565
▁በተፈፀመ	-11.4565
▁አገልጋዬ	-11.4572
▁የማዳን	-11.4572
▁በእኩል	-11.4572
▁ሄዳ	-11.4573
ኤሌክትሪክ	-11.4574
▁ዳግመኛም	-11.4574
▁ገዳሙ	-11.4577
▁የሚጨምር	-11.4577
ጠላቶቹ	-11.4581
▁መኳንንቱ	-11.4581
▁ተወስኗል	-11.4581
▁የብቸኝነት	-11.4581
▁ተሞልቶ	-11.4581
▁በግንባታ	-11.4581
▁ወደነበረው	-11.4581
▁የኖሀ	-11.4583
▁ተቋሞች	-11.4583
▁ሄደን	-11.4584
▁ቆይተው	-11.4584
ልጋ	-11.4585
ሀረ	-11.4585
▁የተቀባ	-11.4586
ገፋፍቶ	-11.4587
▁ወርልድ	-11.4588
▁ለመሳተፍ	-11.4591
ረህ	-11.4591
▁ለክርስቲያኖች	-11.4592
ተገበር	-11.4593
▁ቀባ	-11.4597
▁ከታሪክ	-11.4597
▁ተማሪው	-11.4597
ሰነዘር	-11.4601
▁የምእመናን	-11.4604
▁ብትሆንም	-11.4604
▁ሳንባ	-11.4606
▁አክብሮ	-11.4607
▁ይሄንን	-11.4607
▁ጽሑፍ	-11.4608
▁ዶክ	-11.4608
▁፭፼	-11.4608
▁ብርድ	-11.4609
▁ስለምታ	-11.461
▁አርክ	-11.4611
ሳም	-11.4613
▁በመቀ	-11.4613
▁፺፩	-11.4614
▁ገባሁ	-11.4614
▁እንዲቆዩ	-11.4617
▁ቀልጣፋ	-11.4618
▁እናቀርባለን	-11.4618
▁የክረምት	-11.4618
▁ፈረሰኞች	-11.4618
▁ፀልዮአል	-11.4618
▁ቅርርብ	-11.4618
▁የድል	-11.4619
▁አክባሪ	-11.4619
▁የሚቃጠለውን	-11.4619
▁የዘመኑ	-11.4619
▁የተሰኘውን	-11.462
▁በቤታቸው	-11.4623
፻፸፮	-11.4623
▁ወስዳ	-11.4623
▁በተወሰኑ	-11.4626
▁የሰሩት	-11.4626
▁እስከዛሬ	-11.4627
▁ሸማ	-11.463
▁የቀሩትን	-11.4632
▁ይስሀቅን	-11.4632
▁፻፶፯	-11.4632
▁ላሊበላ	-11.4633
ፎርድ	-11.4635
ሳተፈ	-11.4635
ታዘዘው	-11.4636
ቻችንን	-11.4637
ጋብዘ	-11.4639
መልሰው	-11.4639
▁እነዚያም	-11.4641
▁ጥግ	-11.4641
▁ያስፈልግ	-11.4643
▁የፈለገ	-11.4643
፻፹፬	-11.4643
▁እንዲፈታ	-11.4644
▁እንዲጠበቅ	-11.4644
ጅቡቲ	-11.4644
▁አደራጅ	-11.4645
▁የቀበሌ	-11.4646
ነሳሱ	-11.4648
▁ሊትር	-11.4649
▁የሚደግፉ	-11.4649
ሚታየው	-11.4652
▁በጥቂቱ	-11.4655
▁ኢንጂነር	-11.4655
▁የዲያብሎስ	-11.4655
ሳንሄድሪን	-11.4655
▁እንሰራለን	-11.4655
▁ምኞቱ	-11.4655
▁በበረዶ	-11.4655
▁የሲቪል	-11.4655
▁ድርጅቶችን	-11.4655
▁ትምህርቴን	-11.4656
▁ጭነት	-11.4657
▁ያመጡ	-11.4658
▁ዘመዴ	-11.4659
ተከተሉ	-11.4661
▁እንዲቀር	-11.4661
▁ለመጠመቅ	-11.4663
▁አለመሆን	-11.4663
▁፳፻፲፮	-11.4664
▁ቀጠና	-11.4664
ሞቻቸው	-11.4666
▁ዎል	-11.4666
▁አብርሀምን	-11.4667
▁ፍተሻ	-11.4669
▁የኤፍሬም	-11.467
▁M	-11.4671
▁ተመልካችነት	-11.4671
▁ፈታ	-11.4671
▁እንዳደርግ	-11.4671
▁ጉዳቱ	-11.4671
▁የሚሰጣቸውን	-11.4675
ክፉዎች	-11.4677
▁የሚሄደው	-11.4679
ልዎ	-11.468
አርዘ	-11.4681
ታህሳስ	-11.4681
▁ሆኖአል	-11.4681
ዋጀ	-11.4681
▁የሚያህል	-11.4682
ሰለፍ	-11.4683
▁ወታደሮችን	-11.4684
▁ከረ	-11.4686
▁አበረታታ	-11.4686
▁በዋጋ	-11.4687
▁ከግራ	-11.469
▁ከመቀበል	-11.469
▁ወኪሎች	-11.4692
▁የአለማችን	-11.4692
▁ለማግባት	-11.4692
▁ጥፋቶች	-11.4692
ተረፈ	-11.4692
▁አጠራር	-11.4692
ነጋግሩ	-11.4692
▁ጉባኤዎችን	-11.4693
መረምሩ	-11.4694
▁የሰራተኞች	-11.4694
[...]
